[PAD]
[UNK]
[BOS]
[EOS]
[CLS]
[SEP]
[MASK]
の
、
に
。
て
た
は
で
な
を
と
が
い
し
も
ま
か
こ
あ
そ
だ
よ
「
」
す
・
ない
さ
こと
1
(
ます
から
)
お
です
,
いる
れ
ある
する
一
いう
や
2
つ
人
その
.
日
大
ん
よう
年
0
3
まし
?
この
それ
ら
自
的
思
中
ば
時
ど
もの
見
5
わ
く
出
言
行
4
者
なっ
あり
二
##かっ
!
ア
生
き
ね
方
これ
私
でき
事
9
ほ
そう
など
今
られ
国
み
ス
6
##しい
月
でし
なる
会
さん
8
地
対
まで
三
あっ
上
せ
へ
7
##ょう
なく
場
ため
分
同
入
何
前
れる
..
ませ
っ
本
...
第
つい
関
だっ
高
手
ご
なら
フ
カ
気
ち
目
##んな
彼
実
う
以
最
また
シ
コ
いい
小
■
だけ
##ろう
どう
しか
〜
イ
ず
##える
より
家
日本
考
マ
後
け
##ール
発
って
作
多
なかっ
たち
思い
不
たら
いっ
自分
なり
a
##ック
新
教
サ
とき
##ころ
感
学
でしょう
たい
知
‐
子
##ット
通
現
五
問
全
パ
取
下
使
バ
保
法
部
意
先
##ター
性
しま
内
書
##っと
ところ
等
金
00
四
じ
/
場合
』
『
機
市
メ
ひ
経
必
当
開
考え
変
長
無
オ
世
結
##ート
s
ク
相
主
円
##さい
受
c
九
女
社
##する
特
文
できる
公
食
十
水
少
回
話
##リー
〇
表
所
化
なん
##ラン
エ
キ
持
##がら
##かり
体
:
ふ
##れる
##しく
間
プ
次
##ける
##して
だろう
指
たり
じゃ
心
―
名
立
##める
i
デ
基
ながら
##ント
ド
数
調
八
問題
物
##よう
政
ト
しかし
電
必要
チ
##スト
m
レ
##たし
p
平
言っ
テ
##まり
万
おい
男
わけ
重
ハ
外
図
セ
大き
いく
時間
仕
来
六
タ
聞
けど
リ
ブ
おり
##らい
東
h
条
決
明
やっ
##ング
強
もう
代
よっ
そして
動
理
他
安
連
b
思っ
記
t
運
確
戦
ちゃ
てる
ジ
d
七
状
用
利
%
資
よる
こう
近
ラ
支
##ード
ロ
合
関係
原
##けれ
山
正
成
車
そこ
道
選
くだ
##ース
られる
向
予
同じ
引
有
ここ
活
ござ
o
参
度
規
ほど
n
##ージ
期
ホ
申
制
ござい
交
力
神
増
ボ
よく
ウ
##ョン
とも
w
##ップ
思う
ください
##ティ
住
くる
##ーム
要
点
設
なけれ
違
解
情
海
天
社会
歳
受け
感じ
行っ
可
進
べ
過
計
ダ
広
形
くれ
別
以上
取り
●
そんな
事業
グ
土
集
モ
定
改
研
総
組
e
消
ポ
様
ビ
初
ベ
反
及
信
加
##たい
良
直
##イン
顔
f
各
死
ただ
付
都
美
悪
企
県
検
役
世界
身
○
流
好
病
##ション
人間
終
生活
ひと
g
起
個
ミ
##まっ
なか
##なた
空
続
残
うち
切
##がっ
共
会社
いつ
面
母
委
真
権
笑
とっ
買
##ンド
ガ
ゆ
口
業
対し
ニ
"
注
建
研究
楽
風
ペ
比
##ーク
地域
言う
認
観
情報
=
r
医
さら
再
##ュー
意味
店
べき
彼女
始
親
民
仕事
あなた
語
学校
まま
町
ソ
##たり
##上げ
協
構
呼
料
半
しまっ
多く
商
得
及び
早
音
御
落
声
企業
まだ
帰
##わり
読
k
可能
工
白
##れど
る
今日
ちゃん
けれど
施
北
食べ
いた
区
##わっ
##くり
あれ
時代
利用
委員
伝
##わせ
“
あの
乗
質
さらに
しまう
せる
投
わたし
説
言葉
両
おけ
l
入っ
##リカ
持っ
若
整
ワ
農
ほう
技
例
存
現在
##から
非
課
イン
提
ファ
着
方法
##出し
経済
約
しれ
君
少し
かけ
多い
##ディ
元
##めて
どこ
女性
頭
ピ
登
ちょ
推
環
限
朝
くらい
入れ
##なり
木
##かる
年度
午
ケ
放
費
適
教え
足
活動
引き
ノ
写
防
効
いわ
色
環境
省
処
花
もら
石
あと
##リア
##イト
父
大きな
アメ
職
ぬ
歩
すべ
振
深
番
子供
たく
いま
移
製
−
いただ
##んど
コン
種
こんな
言わ
調査
結果
項
電話
東京
ネ
産
##ども
低
すれ
異
##ーン
言い
位
労
アメリカ
試
知ら
##イル
野
##ープ
相手
ル
軍
割
セン
赤
売
管
すぐ
品
周
昭
西
え
収
愛
いか
すべて
価
まず
む
勝
プロ
はじ
二十
判
誰
追
普
しよう
ちょっと
状況
単
財
はず
ナ
含
10
氏
どの
教育
ほか
村
対する
古
技術
計画
関する
子ども
友
配
出来
飛
夜
光
つけ
優
毎
減
大学
ましょう
健
一人
答
負
##ちら
##ライ
先生
号
##ャン
内容
写真
示
苦
失
税
聞い
団
細
願
##いは
館
左
報
打
福
姿
##つけ
保険
飲
生き
もっと
昭和
我
ヒ
応
黒
証
申し
あるいは
場所
警
僕
よい
いろ
u
ゴ
状態
評
議
一般
見る
横
みる
出し
被
##えば
め
線
精
待
ぼ
米
使用
☎
v
論
##レー
従
本当
つく
政府
青
【
部分
火
】
平成
員
右
型
好き
##らか
送
##ラス
さま
台
労働
タイ
##らし
太
完
制度
##かけ
対象
程
少な
存在
開発
差
行く
思わ
ばかり
達
二人
##持ち
みたい
いえ
側
夫
[
南
急
]
基本
素
もち
規定
歌
ht
背
高い
質問
説明
屋
あまり
##er
使っ
画
##バー
しまい
自然
科
満
##ラー
##げる
どんな
与
首
実施
影
行う
良い
〉
映
置
##込み
ぐ
重要
あろう
〈
求
♪
施設
血
率
##こう
サー
つき
中国
##ステ
y
専
地方
株
系
やす
x
管理
すぎ
なんて
話し
階
突
休
参加
知っ
もっ
ぶ
ほと
j
官
未
##ンジ
絶
独
銀
旅
##ろん
冷
##ーズ
##ッチ
見え
願い
##ッド
量
クリ
最近
ヘ
昨
額
事件
##カー
国民
らしい
転
##込ん
返
億
川
書い
機関
ほとんど
中心
程度
押
もし
講
もと
治
輸
##ぞれ
つまり
文化
補
なに
それぞれ
又
整備
気持ち
国際
走
行わ
目的
センター
いたし
局
##リン
監
ユ
余
##たく
武
最初
##ブル
いけ
小さ
スト
部屋
くれる
##まれ
##in
客
味
離
主義
特に
##はり
楽し
戻
室
##ナー
危
##っき
とり
評価
かなり
##がり
##いろ
やはり
実際
具
いき
理由
自由
なぜ
全体
持ち
新しい
いろいろ
キャ
諸
変化
##わる
もちろん
生産
起こ
展
皆
以外
たと
ー
遠
大きく
いや
常
##ータ
ぼく
効果
英
家族
最後
##ても
##らく
熱
以下
##ーツ
機能
##かく
障
##おり
育
視
→
寝
立ち
影響
##on
対策
理解
式
義
##ロー
##せる
命
遺
##レス
##ランス
駅
都市
##ックス
殺
通り
和
船
老
行き
相談
みんな
答え
症
アル
王
遊
ふう
接
ゲ
##ーマ
派
始め
テレ
対応
##かし
健康
守
なお
値
薬
軽
並
運動
##まる
頃
馬
##っかり
歴
##合わせ
働
一緒
まっ
難
##わら
一方
はじめ
ショ
曲
スタ
個人
##ンス
百
午後
わから
段
超
やり
温
担
あげ
一番
考える
安全
期間
当時
ツ
政治
##シュ
入り
かつ
千
根
##なる
##なっ
統
逆
責
##ャー
能
鉄
落ち
大臣
撮
積
週
松
確認
非常
##ビス
*
50
探
困
指導
障害
ヤ
覚
##っくり
##tp
意識
あら
助
こそ
のみ
普通
犯
自身
短
下さい
田
結婚
ヨ
俺
##ネル
ページ
経営
##ダー
許
際
##コン
違い
修
編
http
サービス
生まれ
簡
商品
とても
##ルト
悪い
##//
居
今回
抜
##とう
座
将
三十
恐
##ステム
年間
裁
事務
痛
##やか
##われ
##://
清
システム
##しゃ
作品
テレビ
焼
推進
息
行動
案
法律
フィ
##しろ
##っち
在
名前
幸
##合い
続け
奥
演
自動
発生
##なわ
あい
決定
およ
産業
組織
歴史
アイ
ギ
浮
仲
違う
##そう
十分
寺
やる
##入れ
人々
件
酒
党
協力
末
切り
##でに
特別
病院
消費
報告
寄
夢
訪
描
拡
わかっ
☆
係
##ゆる
##がる
すでに
混
価格
抱
印
処理
忘
##ずれ
欲
島
契
保護
増加
納
事実
表示
メール
兵
夏
条件
精神
ブロ
京
行為
絵
おか
認め
向け
責任
ライ
渡
紹
枚
##づい
##さん
医療
果
努
使い
設定
確か
ぞ
強い
経験
伸
コー
つつ
ぐらい
サイ
豊
文字
##00
紹介
##an
しかも
聞き
一部
今後
審
市場
オー
準
ラン
森
破
おき
裏
##クト
ジャ
意見
庁
シャ
##ーション
債
##ぱり
ディ
採
求め
街
チェ
近く
土地
降
昔
創
団体
士
映画
器
おく
弁
##フト
わかり
占
初めて
##リス
##まえ
除
かか
フォ
##なか
救
##り返
茶
づ
競
##ラム
充
固
流れ
戦争
##ギー
たとえば
順
##or
いずれ
やら
注意
資料
遅
宮
興
新聞
片
同時
大変
判断
娘
銀行
##もり
福祉
基準
買い
時期
途
住宅
届
述
断
やすい
春
静
介
たっ
行政
交通
構造
巻
詳
嫌
傾
午前
給
作り
必ず
契約
つか
しば
##テル
洗
早く
就
##タン
予定
##at
代表
児
いただき
作業
##っきり
販
政策
アン
※
##ベル
与え
外国
世紀
秋
紙
押し
##付け
##たっ
植
##en
営
##ほど
極
家庭
借
データ
直接
言え
述べ
江
頼
動き
忘れ
男性
さえ
パン
検討
著
出る
我が
容
##ウン
原因
選択
##てる
五十
以前
当然
香
販売
支援
##^^
止
警察
市民
退
指定
自己
とおり
使う
##がい
##スク
府
過ぎ
ごと
厳
城
##ない
リー
ヴ
簡単
##ざま
¥
書き
逃
雑
##かい
まったく
した
最も
作っ
こちら
投資
あたり
疑
料理
買っ
全国
複
類
想
中央
ぜ
&
調べ
法人
導
専門
隊
兄
##jp
たくさん
患
院
表現
ほん
まさ
はい
厚
宗
グル
小さな
なし
スポ
みな
用い
作成
能力
期待
マン
損
大切
国家
裁判
加え
雨
種類
ダイ
速
佐
材
当該
サン
わかる
うま
装
年金
##イク
##ar
★
掲
心配
喜
少なく
暗
および
驚
取引
示し
胸
位置
見つ
##ニー
比べ
現実
園
もらっ
連絡
まい
繰
伊
供
科学
塩
##つい
建設
明らか
道路
窓
激
購
来る
長い
若い
肉
間違
##ケット
弱
章
ホーム
##シー
##出す
##マン
具体
同様
患者
ころ
帰っ
攻
夕
選手
+
踏
比較
眼
##om
通信
クラ
毎日
似
##シア
妻
負担
会議
吉
##ンク
cm
呼ば
更
便
業務
持つ
規模
身体
提供
##っしゃ
事故
◆
構成
閉
被害
ステ
復
なかなか
丸
決め
##ランド
ねえ
仮
使わ
なれ
変更
金融
##al
岩
昼
おも
プレ
絶対
排
貴
ブラ
方向
まと
耳
悲
ずっと
##es
##ずか
乗り
バス
措
見せ
起き
ただし
合わせ
やっぱり
関連
恋
検査
治療
##キー
##ジア
総合
汚
例えば
芸
さまざま
##メント
あん
読み
##イス
もん
すご
資金
ざ
##ic
成長
盛
師
問い
高齢
依
音楽
薄
勤
貸
入る
おる
診
##イツ
特定
欠
つもり
怒
##ッシュ
ネット
見える
##じる
設置
承
##パー
放送
昨日
##ho
隠
措置
以降
購入
人生
##ートル
林
##イント
われ
安定
打ち
幼
価値
廃
フランス
今度
×
立っ
なさ
付き
段階
洋
希
明日
久
##ーター
博
知り
つな
倍
服
パー
少年
クリック
削
どちら
領
ム
景
危険
吸
舞
節
緊
格
おれ
ああ
##づく
河
##フィ
指摘
登録
任
犬
完全
無理
##デル
四十
おそ
食事
計算
ホテル
不安
今年
歯
大阪
皮
##ロン
カー
誘
よろ
記録
触
限り
酸
強く
なんか
どれ
参考
甘
撮影
利益
高校
努力
##ちゃ
草
なぁ
魚
促
微
史
伴
最高
q
望
年齢
発展
旧
まあ
##メージ
したがっ
包
群
関し
聖
戸
範
友達
富
ブログ
##リング
公共
##ザー
まる
監督
留
航
暴
運転
##ファ
請
発表
高く
フェ
張
##たる
進め
開催
〕
雪
至
〔
韓
グループ
新た
エネル
禁
ソフト
待っ
ひとり
執
改善
せい
宇
##ーカー
秘
開始
反対
確保
脱
わが
担当
きれ
暮
##の子
参照
刑
骨
##合っ
拡大
##こん
宿
既
##el
かた
ドル
大きい
エネルギー
住民
概
立場
泣
公園
##シャ
##it
しっかり
##タル
飛び
ポイント
農業
はっきり
肩
主人
翌
ドラ
介護
散
改革
ほしい
キロ
共同
##ウス
発見
たま
仏
刺
眠
様子
体験
越
##なわち
すなわち
払
結局
全く
解決
砂
製品
列
なさい
維
頑
調整
腰
目標
いわゆる
勉
##ロッ
ありが
支払
追い
向かっ
疲
アク
ウィ
読ん
減少
役割
##丈夫
##わい
タイプ
図る
>
少ない
過去
##レン
試験
##たら
回答
壁
迷
免
体制
旅行
養
祭
平均
残っ
週間
席
付け
##ぱい
'
申し上げ
藤
##ぶん
##000
動物
所得
全部
展開
圧
筋
腹
振り
病気
準備
迎
母親
通じ
ドイツ
抑
イメージ
将来
燃
波
範囲
スター
連れ
呼び
実現
近い
折
避
##しかっ
##込む
明治
路
デザ
災
郵
知識
友人
葉
携
敵
ぶり
##なみ
雇
資本
勉強
練
覚え
最大
地区
出す
もつ
もっとも
アップ
##組み
変え
受ける
権利
傷
弾
人気
希望
なあ
冬
認識
離れ
アド
スポーツ
無い
互
金額
いれ
パソ
しばらく
脳
学習
巨
材料
訴
われわれ
造
かかっ
##イド
##掛け
韓国
インター
人口
牛
##込ま
変わっ
特徴
##ズム
スペ
資産
置い
告
乗っ
分野
永
油
為
さて
否
##ニア
ジェ
パソコン
延
傾向
ヨー
海外
とら
##づけ
学生
##et
##ッグ
組合
チャ
トラ
いち
示す
防止
いくら
##取り
標
看
移動
##立て
戻っ
うまく
停
腕
細胞
費用
司
相当
信じ
##ーブル
伝え
行い
黄
モデル
あたし
勢
死ん
株式
国内
継
チーム
いら
天皇
輸入
▼
事項
メートル
栄
##オン
記事
^^
含む
無料
課題
##続き
職員
隣
ww
吹
##リスト
www
橋
かかる
アジア
##フォ
成功
おら
爆
大事
聴
距
大丈夫
本人
登場
当たり
組み
改正
宣
思え
##ナル
京都
##おう
やめ
応じ
密
カード
##ンバー
ジョ
マイ
態
維持
自ら
気分
勧
距離
飲み
角
ちゃっ
にく
人物
ちなみ
製造
照
##ソン
習
江戸
レベル
駆
頂
電気
米国
濃
係る
伸び
源
ヶ
終わっ
##ion
##替え
災害
予算
##is
よかっ
批
バー
詩
息子
寒
主張
とる
面白
反応
建物
ずつ
悩
祝
興味
大人
扱
形成
まるで
##ネット
幹
導入
作る
最終
##co
生徒
たる
英語
##ギリス
財政
ファン
ゆっくり
沖
z
いっぱい
もらい
革
義務
イギリス
含め
適用
定める
歩い
物質
地球
志
互い
in
皇
保健
以来
だれ
ハイ
辞
積極
星
割合
頑張
老人
到
ii
表情
_
↓
湯
門
立て
基礎
乳
シン
ドア
分析
規制
##サー
むしろ
頁
児童
支配
##やく
やが
ケース
サイト
増え
通常
操
請求
##しか
番号
ざる
要求
麻
即
とく
ブル
観光
議論
チェック
途中
機会
記憶
募
繰り返
緑
##つき
ファイル
元気
続い
玉
みよう
上げ
副
チャン
自治
##ワー
カメ
交換
備
丁
申請
工事
策
漁
控
臨
提出
神経
いかに
もらう
やがて
促進
聞こ
##ジェ
原則
卒
営業
とに
出品
ほぼ
結構
浮か
自体
##もと
深い
活用
授
帯
鳥
##ピー
挙
##切り
定め
趣
界
##ばし
倒
医師
鳴
##捨て
欲しい
事情
保存
済
有名
現代
上昇
字
訓
とにかく
携帯
終了
##ゅう
マル
預
難しい
核
仕方
##わし
でしょ
きっと
校
向上
強化
抗
荒
訳
援
故
まさに
罪
層
試合
かつて
入れる
耐
髪
ども
原子
##ニング
捜
毛
##スタ
工場
有効
民間
##フェ
##づき
攻撃
聞く
姉
##セス
させ
##モン
憲
版
婦
得る
甲
ひど
消え
食べる
性格
布
仲間
遊び
陸
画像
建築
》
尊
`
成立
賞
ちゃんと
書か
なき
物語
《
会場
尋
魅
ゲーム
##ディア
床
笑い
楽しみ
くん
板
開い
純
予想
大会
きっ
##ロッパ
差し
由
コミ
ヨーロッパ
良く
雇用
び
竹
辺
ちょう
探し
##スター
社長
がん
##ッセ
聞か
問い合わせ
鼻
ボール
逃げ
一定
機械
##ビー
##らしい
##ウム
夫婦
##んと
げ
̄
手紙
ありがとう
侵
##le
デザイン
用意
去
剤
うえ
崩
低い
疲れ
集団
取得
誤
測
ヶ月
低下
かし
クロ
白い
設備
htm
ya
空間
##直し
出会
##だし
生じ
選挙
模
印象
明る
庭
瞬
宗教
幕
売り
想像
乾
他人
安心
周辺
需
堂
煮
乱
現場
父親
おまえ
##思議
##太郎
含ま
締
教授
カメラ
弟
すす
幅
端
感覚
トン
笑っ
玄
ユー
迎え
落札
駐
##しくは
間違い
小さい
云
所有
##キング
とくに
飲ん
野菜
従来
後ろ
袋
うる
貿
慣
再び
貿易
困難
礼
亡
おお
関心
航空
筆
作用
##hoo
実験
しゃ
練習
ジュ
注目
##ur
知れ
実行
卵
##アル
ニュ
六十
記載
いえる
やつ
きれい
本来
切っ
不思議
##もの
輸出
ニュー
埋
終わり
いただい
秀
##as
◇
決して
衛
り
快
##テン
取っ
制限
まち
充実
出来る
##なし
働き
沿
図書
嬉
公開
マー
グラ
感情
祖
降り
譲
羽
交流
浅
番組
教室
##たん
批判
犯罪
通し
##ティー
##まい
見つけ
違反
電子
財産
小説
次第
開け
突然
たしか
招
女子
募集
yahoo
厚生
記念
メーカー
待ち
証明
態度
日常
##ずる
##上がっ
##ラク
半分
協議
##じめ
;
箱
処分
画面
##ろし
だい
ゼ
▽
訓練
サラ
多数
採用
樹
鏡
叫
協会
違っ
一体
ガス
わずか
前年
沈
会計
運営
賃
資源
美味
症状
ねぇ
独立
懸
スピ
涙
誕
##チャ
思想
競争
お前
平和
帰り
##まら
誕生
◎
奇
観察
ロー
劇
目指
##ウェ
##ネス
かかわら
ビル
##出さ
共通
スク
消防
##ールド
帝
##っこ
悪く
コース
ドライ
騒
##とし
予防
派遣
署
飼
不足
##ワーク
あんた
知る
たかっ
##レイ
あいだ
美しい
インド
時点
きち
昨年
ハン
進ん
忠
工業
発行
申込
塗
##ec
奴
おこ
##ぎり
ええ
ライン
徹
補助
##lo
井
援助
言語
インターネット
満足
球
##しみ
完成
つくっ
徳
##ーパー
役所
整理
肌
##ニュー
##クス
クラブ
レン
辛
怖
##グラム
療
住ん
生命
おそらく
##合う
漢
エンジ
異なる
引っ
地震
過程
艦
ちゃう
借り
キャン
握
猫
魔
卒業
弁護
古い
<
収入
深く
要素
女の子
捕
債権
回復
##海道
資格
失敗
中学
空気
うん
だし
保育
集中
つける
浴
to
飛行
議員
##エル
キー
債務
すぎる
書く
過ご
溶
宇宙
眺
民族
料金
手段
テーブル
池
狭
社員
震
サイズ
輪
ウォ
テーマ
衣
姿勢
まとめ
与える
カル
民主
ウェ
方式
さす
単位
にくい
##かえ
植物
ゆく
コンピ
全員
そば
魅力
求める
方針
感じる
理論
前後
長期
内部
黙
きみ
底
トップ
突き
結び
シェ
長く
html
世代
##ロール
さっ
適切
聞こえ
オレ
クラス
ビジ
##メン
生物
変わら
貧
焼き
40
止め
伝統
雰
##ばん
##囲気
豊か
チョ
岡
雑誌
雰囲気
##ンチ
背景
融
敷
如
再生
約束
##なく
とりあ
命令
ボタン
コンピュー
クリー
呼ん
かん
尋ね
周囲
陽
入力
送っ
桜
ザ
めぐ
晴
許可
美術
縁
アレ
地下
部門
抵
現象
イタ
##パン
柔
ちょうど
よろしく
##たす
案内
信頼
##らす
載
手術
かわい
盛り
兆
##デオ
##ッカー
ダメ
ベッド
分かり
##ro
瞬間
境
##ます
集め
候
##ュニ
地元
分から
矢
食品
妊
編集
我々
先ほど
たび
近代
保障
要する
真っ
走っ
続く
##ウト
やすく
あらゆる
にて
行か
舞台
添
憲法
染
恵
予約
需要
うな
衝
効率
##あい
供給
明確
荷
紅
世帯
男女
##ヴァ
残念
穴
出さ
勝手
水準
輝
防災
##ましい
やっと
##つく
ティ
文書
出版
陰
晩
ふたり
尾
##とり
推移
楽しい
迫
港
禁止
゚
相互
らしく
粉
怪
そろ
内閣
↑
念
多様
像
##ヴィ
看護
職業
欧
やや
勇
投げ
拒
しも
郡
かける
触れ
谷
##カル
審査
つくる
カ月
文学
要因
訪問
汗
企画
バランス
数字
詰
否定
暮らし
咲
一時
貯
っぽ
いらっしゃ
##かす
交渉
固定
かしら
秒
分け
保証
ようやく
圏
文章
州
勘
##統領
大統領
芸術
高度
坂
透
日時
季
ぜひ
おっしゃ
属
発売
##立っ
化学
##しょ
教師
設計
正しい
統計
郵便
善
除く
静か
湖
##こし
審議
連続
切れ
ズ
アー
宝
液
##ターン
##アー
ガン
提案
▲
きちんと
狙
##好き
大量
沖縄
異常
##えず
敗
戦後
双
炭
保全
シュ
ワン
哲
##ルフ
詳しく
執行
コミュニ
事態
幸せ
##上がり
梅
いろんな
肝
##デン
朝鮮
セット
始まっ
主要
続ける
タイム
##■■
決まっ
##セント
##ガー
装置
残し
上手
条約
走り
揺
もた
鉄道
現状
##ガン
太陽
カップ
なきゃ
幾
メンバー
会っ
超え
疑問
つくり
戦略
ママ
##ポート
住所
項目
##かける
助け
メニュー
削除
繰り返し
痛み
脂
さっき
潜
勤務
##ac
自信
各種
働い
負け
革命
政権
墓
普及
網
会話
##us
履
もともと
なくなっ
北海道
緩
##ショ
指示
́
##まし
小学
心理
吐
##あげ
とど
可愛
ネットワーク
初め
全て
ドラマ
あく
防衛
阿
きわ
厳しい
つぶ
##やし
泊
プログラム
バイ
レイ
スタート
フリー
藩
殿
プラ
雲
危機
霊
##かせ
捨て
ベース
レー
抜け
pc
恥
##ッツ
検索
抽
総理
伺
把
ロシア
両親
授業
諸国
経過
釣
クレ
形式
達成
ふた
周り
栄養
踏み
出身
残り
小さく
早い
##ヤー
国会
見つめ
(^
振興
カン
沢
左右
特殊
継続
変わり
旨
運用
いったい
##ジオ
話題
買う
確実
イタリア
解釈
##リエ
歩き
クリス
##ラル
実態
自転
訊
豆
##レット
空港
デジ
加入
一生
巡
珍
正確
かれ
成果
首相
若者
com
づけ
とう
エンジン
ベル
##んどん
##だん
ボー
後半
軽く
##am
とりあえず
知恵
##vd
##立つ
よれ
イス
こっち
##返し
観点
描い
枠
守る
広告
診断
バック
th
詳細
浜
形態
温泉
風呂
捜査
はる
センチ
選ん
##il
獲
立つ
送り
##取っ
メモ
##ナス
どんどん
##づくり
重ね
##上げる
本部
炎
##ティング
往
ガラス
全然
コスト
退職
出発
##ed
##つける
dvd
まわり
操作
設立
録
祈
意思
飾
ソ連
発言
じゃあ
##バル
顧
うれ
標準
認定
たとえ
毎年
##やり
駆け
さすが
眺め
限ら
挙げ
是
叩
すごく
以内
##ッジ
あんな
不可
限定
ホール
唯
接続
通っ
脚
書類
証券
生きる
初期
遺伝
かえ
##ジュ
活躍
証拠
かね
建て
渋
従っ
##ビュー
比率
##リック
野球
マス
緊張
あげる
思い出し
##ap
感染
すごい
いかが
連合
巻き
合計
プラス
納得
機構
感謝
モノ
作家
椅
休み
信用
硬
パリ
ふり
リン
##ヒー
遠く
##りゃ
椅子
懐
華
電車
別れ
##ティア
陣
取り組
困っ
複数
##ッキ
##ニック
殺し
尽
把握
暖
##かさ
##リート
ビデオ
死亡
取締
はじめて
##めん
カラー
表面
靴
st
づくり
つづけ
医者
広く
##シン
だら
少女
##ケーション
##ボン
入院
リスク
占め
すっかり
あき
犯人
遅れ
##ルス
駐車
こん
神社
奪
##なう
##ol
読む
##よい
時計
イベ
敬
闘
奉
ふる
抵抗
複雑
概念
緊急
青年
##ジェクト
襲
勧め
妊娠
ジャン
スタイル
算
封
##ごと
ヲ
スカ
占める
―」
景気
素材
返事
胃
徹底
踊
記者
mm
##ミン
設け
さし
挑
自宅
面白い
前提
起こっ
スイ
既に
転換
才
煙
有する
高速
亡く
施行
現れ
落ち着
定員
発達
確立
豪
トイ
申告
すすめ
ニュース
鈴
輸送
まいり
広い
向こう
剣
ハー
張り
##パート
##入り
コンピュータ
コーヒー
芝
##マス
わざ
意外
##アン
囲
刑事
ビジネス
##ッフ
回転
二百
暴力
視線
起こし
合併
紀
クル
しょう
銃
置き
配慮
追加
頑張っ
里
##とめ
基づく
当初
兼
疾
鬼
コント
旦
大好き
売っ
熊
アフ
ついに
もらえ
イベント
ぴ
アルバ
公害
滑
吹き
暑
秘密
規則
主体
のち
##ストラ
すら
認める
つぎ
季節
徒
##マー
##ent
報道
同士
肥
ブランド
生涯
##ow
さあ
ゆえ
更新
課税
展示
ひき
##トル
盗
場面
石油
##リーン
置か
バラ
##リーズ
象
だめ
講座
貼
刺激
忙
出かけ
##ぷり
フル
領域
気づい
日曜
##まで
##ミング
##ごろ
面積
宅
##ッション
交付
たぶん
測定
フロ
キリスト
##べる
掲載
一瞬
パス
唐
縦
該
香り
##ut
##リオ
##イズ
スーパー
議会
研修
露
##換え
会長
話す
給付
オーク
龍
コレ
ok
旦那
かかり
贈
様々
稲
苦労
あくまで
作ら
就職
並ん
##クロ
出演
##チン
安い
##いつ
^
呼吸
無視
軍事
##id
単純
ッ
便利
解説
医学
響
メディア
級
##かう
合理
干
巨大
ピア
破壊
手続
争
焦
近年
未来
放射
いちばん
誇
戦い
怒り
施策
マンション
レース
支え
該当
日間
加工
帰る
開か
併
##って
##ルク
ヴィ
驚い
しろ
築
見れ
##ッサ
ヴァ
おっ
言える
##チュ
先日
##立ち
行け
申し込み
##ッキー
術
フレ
動産
←
フラ
呼ぶ
分かっ
長官
機器
速度
玄関
せよ
スケ
狂
権力
##かれ
メッセ
妹
マネ
##ちゃん
##hi
使え
妙
いっしょ
慎
ビール
手続き
アナ
壊
札
当て
語っ
要請
わし
横浜
職場
森林
だろ
一応
世話
##..
最低
正直
泣き
ペン
理事
みれ
確定
現地
##らん
##切っ
大幅
スパ
浸
都合
伴う
##ーキ
でる
優先
虫
依頼
プラン
方々
(^^
##セル
働く
どうぞ
進行
##育て
シート
掃
実践
当たっ
総務
トイレ
基盤
階段
いきなり
##かん
券
笑顔
代わり
分類
致
##たえ
テスト
あつ
値段
きわめて
両手
縮
##兵衛
##キュ
跡
##ak
夫人
シャツ
貢
##越し
協定
人権
##らっ
動向
男子
演奏
理想
考慮
紛
慣れ
ますます
##ッシ
スピード
育成
黒い
わたっ
背中
すみ
到着
ぎ
ボラン
##re
貰
閉じ
均
ごろ
##たま
配置
##どり
せっ
掛け
摂
受付
結論
持た
教会
勝ち
実質
統一
ほんと
けっ
活性
子育て
ストレス
工夫
道具
ワイン
割り
おいしい
色々
達し
以後
支給
蒸
菓
まぁ
訪れ
習慣
座っ
調子
とこ
連携
会員
田中
廃棄
##ウンド
しばし
印刷
知事
通知
落とし
徴
奈
多少
菓子
脅
##込め
単に
おかげ
スタッフ
##ッコ
不明
氷
km
注文
定期
ふく
衆
##un
抱え
分かる
冊
経費
##ったり
##ag
ごく
tv
赤い
##バイス
映像
自衛
あて
反映
がち
騎
取る
面倒
混ぜ
オープ
だり
血液
じっと
許さ
織
足り
ふと
つれ
育て
専用
離婚
地図
##ニス
発揮
匹
取材
軒
繁
承知
いわば
避け
付い
大型
対処
うなず
すば
##レート
##もそ
フラン
パイ
変わる
灯
オリ
##リット
挨
会い
嫌い
重視
##プル
オン
挨拶
##はや
ことば
##セン
七十
やれ
ギャ
##^)
ルール
ボランティア
哲学
抱き
シリーズ
風景
##向き
ター
鑑
##もそも
始める
そもそも
拠
区域
地位
赤ちゃん
##がけ
オークション
登記
ダウン
新規
生み
日々
死ぬ
##揚げ
進む
普段
翌日
おもしろ
療法
容易
上がっ
控除
##わさ
婦人
糸
世の
スキ
孫
がんば
プレゼ
かぶ
向き
カウン
コメント
因
並び
天気
##ing
事前
優勝
掲げる
恐れ
どころ
代理
アニ
称
##log
始まり
きり
うつ
独自
一致
ちがい
貸し
ばあ
性質
汚染
温度
件数
良かっ
事例
海岸
恐怖
##わけ
##だい
基づき
2000
アラ
余裕
起こる
パーセント
支持
受け入れ
鹿
##バイ
各地
集まっ
差別
更に
定義
続き
きい
##ビア
語り
世の中
唇
畑
失っ
国土
クリーム
入札
郷
判決
極めて
寿
枝
膨
歩く
監査
どおり
ブルー
存じ
流行
かく
問合
宣言
パート
##クション
応援
備え
昇
賛
損害
古代
流し
流通
おかしい
人類
近所
ショップ
相続
##がし
喜び
凄
部隊
黙っ
飲む
かき
返し
湾
適当
か月
##クシー
停止
基づい
視点
訴訟
##ルム
創造
当日
株主
思い出
°
アプ
邪
兄弟
##クター
##まだ
カラ
##さっ
誠
連中
残る
いただく
亀
関東
従業
自殺
##コール
##分け
臭
殺人
感動
貢献
できれ
国立
もたら
誌
同一
炉
富士
将軍
どっち
之
構築
##リティ
舌
世間
引き続き
バッグ
のぞ
アドレス
強調
よし
地上
多かっ
一層
獲得
変動
遂
##さえ
強制
##わしい
ひどい
メッセージ
##um
バン
弱い
ヵ
絞
少々
##つか
貨
免許
依存
まだまだ
##マト
タン
ユニ
共産
金利
ベスト
刻
日記
支出
嬉しい
柱
見直し
コーナー
未満
手伝
エン
紫
パターン
若しくは
チャンス
伺い
愛し
##ot
##ジー
目指し
要件
ほんの
マーク
まつ
プロジェクト
ミニ
コンサ
バカ
迷惑
糖
親子
夕方
候補
びっくり
斜
こだ
両方
博士
適正
開き
##ig
ゐ
偏
闇
各国
変える
鍋
葬
賃金
選ぶ
膝
だん
直後
延長
走る
タイト
成り
果たし
##ad
本日
金属
##シャル
逮
ごめん
ローマ
多分
喫
もど
win
ナイ
過ごし
歓
阪
##びと
始まる
モン
逮捕
随
とん
燃料
期限
頻
寄せ
稼
はるか
略
短い
監視
掃除
主な
個別
慶
the
浄
庫
市内
ほんとう
滞
充分
##っぱ
保有
幼稚
ご飯
##os
承認
皮膚
000
一言
土曜
住む
勝利
記述
プライ
公務
届け
組み合わせ
##たび
修正
##引き
何故
##らめ
コントロール
淡
##ざし
収集
唯一
移転
教科
ダン
入ら
オープン
##プト
終え
趣味
虚
掛
蔵
イエ
雄
区別
綺
一種
作戦
##ントン
一切
融資
解放
不満
廃止
やさ
懸命
超える
本格
列車
プレー
先輩
帝国
扱い
##ずかしい
垂
##ダム
手当
応募
たっぷり
津
体育
顕
陥
匂
もはや
激しい
体重
素晴
覆
きっかけ
ゾ
問わ
ずい
国連
杯
牧
全身
久し
ショック
譲渡
九州
積み
訴え
鍵
仙
八十
好み
酔
カット
##そこ
勢い
##ッター
##止め
欄
##ter
自主
幻
シーン
予測
振り返
具合
前項
偉
湿
an
成分
しばしば
たて
踏まえ
次々
ゆう
##わざ
威
うか
##ランダ
水産
近づい
it
仕組み
鎌
##回り
化粧
窓口
題
偽
滅
恩
射
馬鹿
其
ラー
外交
嫁
低く
余り
ともかく
ヘル
綺麗
##衛門
筋肉
農家
あわ
付近
福岡
統合
至る
啓
アドバイス
増大
孤
やろう
毒
終わる
箇
優れ
我慢
同じく
デジタル
読者
高等
レスト
隠し
閣
机
千葉
黄色
##ation
限界
鋭
##ェル
下げ
動い
脂肪
たまに
とれ
山本
文明
重い
犠
##古屋
置く
男の子
秩
試み
根拠
立派
生理
##休み
タイトル
粒
常識
人材
##違い
丁目
出席
名古屋
越え
帳
対立
ch
行こう
勢力
アクセス
撃
開く
##フレ
っぽい
気味
策定
掘
進める
杉
blog
広島
脇
国務
削減
中間
成績
揃
方面
##回っ
車両
正面
幕府
大正
ひどく
もしくは
賢
##わす
##クラ
##ワイ
側面
恋愛
テロ
##ジャー
まさか
投票
プレゼント
傍
たた
切る
冒
殺さ
リーダー
農林
##しん
信仰
運命
##ースト
ずいぶん
駄
模様
犠牲
コピー
姫
竜
特性
##書き
合意
偶
##そろ
製作
ラジオ
id
粘
##下げ
挑戦
抑制
心臓
基地
扉
罰
解消
トレー
原理
指揮
散歩
##ねる
ミス
朝日
向かう
数値
ゴール
##受け
鉱
人事
拒否
ふさ
示さ
坊
右手
典
飛ん
怖い
菌
戻る
##od
忍
レコ
催
ノート
並べ
痛い
飯
へん
しゃべ
悩み
たって
テン
見事
つくら
戦闘
外部
引い
来年
記入
顧客
使える
繊
安く
ボックス
##だち
ひろ
儀
討
セル
▶
無く
リスト
噂
喜ん
挿
##よいよ
いよいよ
パラ
区分
パワー
中身
or
僧
意志
寂
努め
実家
語る
俳
振っ
ゴルフ
口調
無駄
ふれ
無事
銘
関西
##eb
ケア
得意
美味しい
##ch
##取る
##通し
向い
性能
寛
今夜
ハード
##ダル
##em
おと
一気
##がう
##寄り
明るい
ニューヨ
生じる
きょう
コンビ
衛生
##ay
栽
徐
支払い
##ログ
崩壊
進展
##てい
出来事
発電
東北
小屋
栽培
附
吸収
of
大い
##レーション
##コミ
一杯
スプ
河川
助成
大体
尻
居住
行なわ
亜
選び
ぽ
##しめ
@
##なら
##こと
あえ
魂
もらえる
真剣
ミリ
著作
ユダ
##ンドン
混乱
論理
伸ばし
ギリ
たった
倉
火災
ちゃい
レストラン
エア
本質
柳
口座
肺
プリ
体系
打っ
文部
買い物
伝える
出会い
論文
パパ
カレー
なるほど
##さら
動作
トラブル
鮮
がっ
ついで
倒れ
特許
乾燥
カテ
人数
意図
分布
仰
出産
ピン
##もう
見解
ニューヨーク
ウエ
佐藤
サッカー
抱い
楽しく
泥
分割
神戸
あわせ
微笑
トレ
趣旨
コミュニケーション
在住
象徴
##した
##ミー
太平
##ゲン
バル
エレ
信長
屋根
ソース
##ーフ
育児
人員
##きり
##ウル
コード
回収
いこう
##こち
合っ
汚れ
収益
ごみ
個性
階級
ヒト
権限
答弁
改めて
まえ
かぎり
自民
可愛い
恋人
堀
堅
人びと
粗
出現
漂
博物
軸
とらえ
アウト
浦
荷物
詰め
隆
##やす
せっかく
スペイン
##;)
肉体
みず
匂い
そろそろ
凝
サイド
売れ
かす
ピンク
講師
tel
ツール
洗濯
鈴木
##らさ
共有
同意
海軍
ホル
クリスマス
##切れ
残さ
主に
北朝
遊ん
させる
本書
上記
汁
決める
真実
間違っ
去年
公的
意義
##ou
ミュ
マイク
叫ん
〒
廊
拍
マイナス
##ok
救急
個々
狭い
ユダヤ
カリ
下り
実績
重大
取り上げ
##ッカ
必死
結合
棒
渡し
テープ
スペース
ボク
針
遭
消し
当たる
文句
図っ
埋め
描か
取り組み
票
テキ
思考
秩序
楽しん
撤
高級
総額
人形
急速
撮っ
族
北朝鮮
編成
釣り
あたっ
動く
酸化
耐え
大手
取れ
名称
##さま
##キシ
試し
##ティブ
廊下
自立
氏名
##どき
しめ
若干
モード
噴
早期
気持
##oc
彫
カナ
##イルス
屈
##キン
改良
ガイド
ケーキ
アリ
講演
上司
熟
畳
市街
##ッタ
五百
砂糖
勝負
タクシー
##がき
kg
当事
##じん
背後
##ve
受験
##エット
待つ
暗い
不良
ゆる
菊
なろう
旗
テク
貫
チュー
刀
詳しい
欧米
##もっ
おじ
豚
だんだん
両者
集合
扶
##くっ
##ゴン
幹線
悪化
##ブン
仏教
高め
先着
だいたい
有り
英国
ポケット
##ンダ
手法
コート
ぁ
ぱ
―。
##一郎
抑え
預金
拝
敏
水道
あふ
償
入学
首都
当たり前
ドライブ
拾
ヤフ
スープ
##づか
##あがっ
許し
払っ
漏
弁当
瀬
制定
遅く
あらか
興奮
浴び
途上
爆発
からだ
換
エル
衛星
謝
鶏
大戦
##次郎
ライト
##へん
商店
役員
##オル
つま
新宿
透明
##さり
##バン
##ジャ
店舗
次い
循
皿
告げ
選ば
##ex
炒
単なる
気配
遺跡
政令
激しく
ノー
リサ
後期
主婦
屋敷
診療
用いる
あんまり
いらっしゃい
会う
人工
疾患
アカ
##ディング
滝
財務
台湾
一日
循環
食い
訪ね
##がれ
驚き
失業
進み
蓄
構想
悩ん
##打ち
広場
トラック
##ちに
瞳
かい
ハウス
バイク
想定
吸い
折り
深刻
ショー
灰
iii
伴い
知的
##ナム
赤字
##ーズン
あけ
ピアノ
伯
ライフ
猛
武器
拘
身分
大陸
レンズ
愚
##ディー
ブレ
グリーン
##ッと
給与
先進
かわいい
祭り
弘
三百
微妙
税金
##ir
##っぽ
発想
##ぐり
天井
あいつ
弥
困る
委託
根本
あたる
功
載っ
ライブ
思える
排出
西洋
アニメ
婚
圧倒
ひっ
智
##ピング
あらかじめ
幹部
業者
乗せ
慎重
##im
克
出場
##〜〜
広がっ
ユーザー
阪神
わたる
漁業
無線
送る
##*)
緩和
柔らか
(*
決算
観測
農村
問合せ
前回
存知
広報
晴れ
路線
アパート
素晴らしい
半年
アフリカ
進出
フライ
信号
総会
##がみ
##カン
ロンドン
メン
品質
手数
身近
ぃ
みせ
中村
平等
法案
バンド
仁
分離
正月
^^;
##あっ
オフ
日米
##ダン
翻
カタ
##入れる
わざわざ
動か
報酬
プロセス
腫
ロック
調理
貴重
俊
広げ
彼氏
紛争
栗
限度
食べ物
命じ
小泉
漢字
□
励
情勢
時々
ないし
タバ
##こま
おば
致し
植え
前半
リンク
じつ
抜き
締め
駄目
戻り
##ーチ
徴収
覗
##トン
了
献
公民
##がえ
連邦
ジョン
ねー
丘
追っ
つながる
##少年
株価
メイン
なす
取扱
失礼
描く
田舎
##抜け
ゴミ
発送
素直
フィリ
おし
覚悟
##ッケ
鎮
復活
今朝
芸能
阻
泣い
金曜
at
さい
ツアー
劣
漫
ハンド
##かかっ
賠
満ち
##ファー
ご覧
じい
兵器
のん
至っ
還
缶
賠償
##ニュ
慰
リーグ
青少年
上下
控え
沢山
ニーズ
帰国
講習
##らえ
孝
軽い
寒い
ローン
大いに
偶然
学ぶ
##tion
冷たい
答える
##之助
ささ
##ほん
数学
##こむ
決議
着い
グラス
妥
サラダ
##タイ
初心
歌っ
従事
徐々
##まれる
見せる
ウイルス
##寄せ
内側
天然
長崎
亡くなっ
寸
勇気
実感
鎌倉
合う
留学
斬
たず
動かし
##がん
お腹
尽く
部品
分子
死者
とりわけ
銅
涼
物価
##より
体力
チョコ
夕食
感想
いただけ
ラーメン
スコ
ゼロ
刊
突っ
すく
反省
この世
減っ
半ば
手前
死体
シーズン
繰り
物理
トマト
重点
守り
##渡し
競技
先行
驚く
チーズ
かま
頼ん
もたらす
##すぐ
甘い
コンク
公式
毎週
豊富
濡
幼児
グロー
##ew
移行
プリン
格好
たいへん
タバコ
虐
たまたま
正しく
左手
とっても
狩
##ess
公表
食料
冷蔵
及ぼ
調達
ファイ
丹
##やい
修理
隅
素敵
見かけ
##おい
月曜
令
直前
##ヴェ
憎
行使
##まち
明るく
いまだ
シル
省令
オブ
モー
職務
部下
正式
##べく
毎月
外務
なるべく
##ーん
てん
収支
所属
オイル
ポン
人民
売買
本気
短期
向かい
踊り
塔
柄
##焼き
九十
務
棚
パック
法則
要望
搭
引用
健全
商売
最新
臨時
比べる
おそれ
イラク
拠点
正常
特例
秀吉
自覚
司法
坐
幸い
成人
溜
ぶつ
締結
##ングル
楽しむ
凍
ひそ
勤め
半島
商業
取り扱
目指す
此
優秀
当局
演出
異なっ
酸素
##クル
納付
うれしい
休日
通過
遠い
ゴム
箇所
##さと
吐き
苦情
地面
ヒット
べく
あた
行事
キス
ルーム
##ティック
味噌
気付
祖父
山口
ルート
風邪
捉
矛
##dow
茂
シー
売上
盆
ケン
制作
完了
友だち
##ッズ
帰宅
強力
ネタ
届い
前日
是非
耕
500
ワイ
砲
奈良
##ルコ
うけ
回っ
腐
不幸
不要
調べる
帽
共和
にほん
大さ
##そり
鶴
裸
##テナ
意欲
いったん
うなずい
##張り
気温
##ルド
避難
タオル
借金
会館
##エン
マスコミ
トリ
スキー
パンツ
相対
##リズム
ペット
##じみ
っけ
取り組ん
他方
給料
##ちこち
はいっ
岸
外科
就業
室内
##ッテ
乗る
大蔵
ヵ月
プレイ
接触
吉田
アト
談
##上がる
たろう
ダンス
中止
100
##じっ
うまい
##ne
たん
入手
セックス
流れる
正当
受診
武士
ホワ
暇
window
隠れ
優しい
まちづくり
所在
小型
山田
縫
##すご
光景
運ん
新しく
例外
表す
悔
かえって
提示
伏
サイン
あちこち
ストー
ふつ
せよう
ルー
学ん
燃え
相場
##トナム
めぐる
指数
海上
すばらしい
##回し
様式
異なり
嘘
届出
抽選
衝撃
豆腐
カバー
守っ
洞
マジ
大さじ
磨
現金
ホント
疑い
ベンチ
辛い
見通し
認可
取ら
業種
のせ
はな
寝る
コンサート
グリ
劇場
windows
披
つながり
司令
対抗
進歩
泳
##回る
合格
排除
官僚
取り出し
爪
##■■■■
おさ
補償
ステージ
域
条例
天下
血圧
アルバム
ダイヤ
上げる
召
##ウィ
ちがう
喧
しょ
##ぼう
基金
水分
そっと
ワーク
インスト
なれる
眉
陳
決意
そりゃ
##落ち
かかわる
##こみ
北京
高橋
回り
ブラック
唱
本物
イスラ
喉
急い
兵士
貴方
血管
かわり
護
ニコ
インタ
ワード
##グラ
たいてい
ホワイト
恐ろ
あそこ
のぼ
おや
分かれ
防ぐ
法的
二千
美容
農民
けっこう
絡
まん
法務
ごま
認知
もたらし
推定
清水
##くら
濃度
頰
##立た
筆者
##チック
桃
侵入
前述
救済
起動
##ワード
霧
先端
倫
幸福
開設
頂き
古く
沿っ
あえて
漬
##はん
すり
面接
付き合い
叔
没
ランド
不可欠
加える
⇒
裕
欧州
確率
担保
確信
およそ
ふっ
理念
##ラスト
巣
公正
攻め
苦手
抜い
生まれる
生地
謎
##かしい
振る
用語
運輸
いかなる
炊
学問
##フル
アマ
ガー
辺り
オフィ
##作り
邪魔
アス
オリジ
おっしゃっ
育っ
テキスト
大勢
新潟
なくなる
##ep
さき
銭
訊い
受信
関節
尊重
札幌
##スメ
払い
表し
衰
##差し
なー
つながっ
青い
どなた
苦笑
ポスト
増し
送ら
集落
宛
配布
開放
現行
薄い
##たして
##ーマン
受講
ヤフー
愛情
##ピン
冗
##ブリ
ふつう
ジャー
##った
オプ
殴
エコ
ココ
伊勢
描き
起こり
##シス
昼間
過剰
いける
グラフ
アルコール
持続
地帯
制御
活発
牛乳
寄り
##タミン
原稿
同盟
手帳
バター
死に
際し
クー
連結
##uc
哀
##いち
妨
客観
貴族
失わ
拡張
概要
フォル
おぼ
典型
##三郎
仕上げ
##ity
賛成
我が家
##ビング
スーツ
##たさ
述べる
滞在
説得
中世
小売
ブリ
地獄
関数
分解
泉
軽減
尿
渡っ
返済
数多
おこう
怒っ
被告
生かし
くわ
矛盾
香港
am
イヤ
手順
##そく
南部
##トリ
披露
済み
繊維
雅
元年
##起こ
web
属する
夜中
高める
動機
次元
保安
ブロック
悟
徳川
機嫌
陶
出張
圧力
トレーニング
イチ
大半
出会っ
洗い
おもしろい
飽
準用
後者
##当たり
ひょ
穏
熱い
叱
拭
文献
呪
李
バンク
永遠
##ロット
##びり
くら
対照
弟子
ソー
入口
##いま
独特
プール
##ジル
オランダ
菜
主催
モニ
リズム
諦
変換
持参
あわて
オペ
##op
睡
警戒
電力
架
エク
巨人
癒
入場
平気
##ニズム
往復
束
時刻
かたち
ほら
忙しい
伊藤
単独
実用
表明
拳
セミ
ホルモン
##遣い
##ライン
##ぐる
大声
於
円滑
##ip
臭い
シャン
伝わっ
シナ
全面
判定
収穫
回数
有無
図表
##ロス
イエス
大使
収容
伝達
珍しい
##ぶり
冗談
有利
メリット
##じり
らし
応用
共済
指標
数多く
喪
##st
米軍
申し訳
彩
奇妙
視聴
打つ
めで
宣伝
軟
住み
オーストラ
ランキング
出資
眠っ
観念
復帰
貨物
付き合っ
逸
磁
合成
タイヤ
双方
祝い
越し
▷
不況
宿泊
上がる
恒
学び
掲げ
数量
関与
オーストラリア
放置
細い
財源
農地
装備
句
尺
おま
行なう
落ち着い
知り合い
##ばす
##ik
グレ
藤原
キャンプ
慌
湧
叫び
陸軍
綿
定着
邦
押さえ
蹴
##ビン
##リアン
酢
依然
業績
消滅
オリジナル
培
数え
こいつ
保管
ただいま
反射
大衆
進化
宜
##だす
スカート
オート
下記
有し
極端
じゃん
レコード
商法
キャラ
皇帝
加減
見学
詐
エス
マグ
注射
翌年
康
いざ
丁寧
仕様
有力
渋谷
由来
船舶
著者
回線
ケーブル
レーザー
遅い
気づか
浮かん
##ーナ
容器
既存
##イクル
キッチ
貝
##当て
すい
就任
張っ
##たくし
##づける
芽
浮かべ
マリ
損失
真理
いらっしゃる
隔
ろ
##プス
ディスク
熱心
カフェ
細かい
なかろう
回し
美人
侍
##int
##ずら
##ピック
今月
作者
大気
##つめ
すま
計上
ミュージ
##トロ
##チェ
揺れ
金銭
卸
潮
見守
早め
##ルタ
##テム
才能
ダブル
埼
三千
厳しく
タイミング
すっ
##ul
長男
上がり
オレンジ
沙
##張っ
家事
一家
実力
軍隊
ものすご
スル
小林
深夜
すこし
虎
冷静
和歌
ファミ
あらた
過ぎる
##たて
勝っ
原料
フォー
確かめ
##抜き
##消し
##々しい
バイト
ふさわしい
伝説
載せ
懲
##詰め
大和
松本
乙
創設
##ポン
保持
嵐
鈍
##ハン
絶え
あらわれ
学年
鉢
巧
職人
現われ
##明け
フロー
嬢
正午
誘導
妖
じゅう
サポート
##ぜん
人格
ビタミン
再建
遠慮
ファッション
ar
同僚
快適
食糧
住まい
序
コマ
聴い
シンプル
軌
暑い
とたん
斎
降っ
電源
ω
不正
予備
道徳
布団
法令
真ん
荘
検察
教える
点検
解散
##ボール
跳
地点
投手
果て
走行
ベルト
一見
辞め
宴
明け
名誉
ハム
独占
記し
引く
ヌ
邸
スリ
シェア
上野
加藤
しだい
喋
くせ
迷っ
カウンター
純粋
ひい
倫理
証言
落と
浪
あや
三角
違法
みずから
害
「―
神奈
自慢
潰
同年
解除
よろしい
朝食
リサイクル
にん
下水
縮小
##デア
ベン
経っ
ナンバー
公演
デイ
枯
漫画
##さる
支店
銀座
賭
仙台
工作
クライ
##!!
ばか
前方
長野
おろし
がんばっ
ベトナム
錯
くっ
崩れ
生え
##ーンズ
##ぶし
葛
やむ
味方
居る
雷
おの
台所
スライ
増える
♡
ゐる
まこと
##まさ
ディス
神奈川
##せん
##マイ
##ローチ
フィルム
胡
民営
規格
カナダ
♥
非難
##しり
住居
業界
祈り
避ける
コツ
ヴェ
朱
植民
魔法
望ましい
ex
ゆで
王子
##ッパ
##よく
ヘッド
##ニン
##払い
寄与
帽子
追求
のっ
決まり
誤解
摂取
考えれ
律
濃い
アイテム
放っ
チケット
##ッス
れれ
##ストン
д
下手
貞
エリ
角度
けん
古典
がたい
楽しめる
よー
昨夜
オフィス
##でも
告白
たちまち
オプション
塾
とび
冷凍
容量
釈
構え
着物
翻訳
いふ
休暇
出力
戻し
起こす
班
挿入
鍛
配当
壮
台風
女房
銘柄
△
幅広
教員
母子
ハワイ
作曲
新鮮
短く
だらけ
昼食
オリン
真ん中
インストール
体調
まして
##寄っ
埼玉
トヨ
看板
評判
送信
ボディ
バリ
一貫
処置
##ドル
正義
投入
政党
結ぶ
いじめ
cc
接種
##さし
動脈
広域
広がり
スイッチ
飾り
ふたたび
しみ
家康
民衆
申込み
##さつ
占領
制約
芳
いいえ
クルマ
行なっ
##ッピング
隙
##キス
メル
ぅ
境界
添え
炒め
発明
サラリー
go
全般
搭載
キッチン
書店
濡れ
講じ
震災
lo
デビュー
##ジン
もて
頷
##ist
ごとく
##if
ドン
年末
故郷
税務
##....
支える
秘書
##早く
握り
再度
叩き
狙い
とんでも
投与
##ョウ
納税
出血
喧嘩
直線
遺産
つね
見舞
コンクリート
どうせ
アイス
いっそう
迅
##サン
高まっ
ときどき
ポリ
療養
##パクト
指し
ダイエット
征
沸
##ージュ
たずね
あきらめ
ステップ
##すり
握っ
一連
長年
日中
薄く
震え
マスター
物件
##合わ
おな
今週
受賞
決勝
疎
盛ん
養成
煙草
貼り
蓮
起きる
敷地
機種
クリア
大分
消化
周年
下がっ
任せ
加盟
チャー
仲良
サラリーマン
昆
果たす
上海
周波
東洋
福島
記号
##ia
止まっ
かあ
ヘリ
免疫
品種
##面目
洗っ
見当
わたくし
冠
tr
上位
広がる
イオン
検診
##んやり
##ケート
察
##らみ
##チャー
争い
苦しみ
十字
睡眠
おとな
秋田
夏休み
##ロード
ン
##サイ
指針
マウス
学者
アタ
##ンドウ
こんに
飼い
##ウェア
わり
リア
悲しい
##通り
少数
and
急激
##バラ
任務
石川
美し
##ボット
##戻し
デュ
水質
静岡
##らり
こし
含ん
囲ま
年代
経緯
アンド
手伝い
完璧
トンネル
恐ろしい
早速
レンジ
出せ
包み
検証
留守
ミルク
取り入れ
儲
すき
扱う
##ジュール
1000
とうとう
合い
配分
集会
受け付け
蓄積
除い
まっすぐ
猿
up
中華
塗り
服装
トヨタ
五千
図り
警備
##アップ
おなじ
わたり
パネル
ジョージ
日程
著しく
到達
電波
祖母
##しむ
電池
おかしく
詩人
迎える
ハリー
##ましく
コンビニ
no
どん
みえ
景観
インタビュー
公平
曇
商工
某
幼い
マルチ
冷え
詐欺
ぜん
受給
何処
通貨
井上
祝日
臨床
記さ
ブーム
コミュニティ
ペース
炭素
焼い
発し
##ショナル
刃
議長
むずかしい
合わ
懸念
迅速
沈黙
誓
後悔
回路
売却
壊れ
虐待
pro
技能
スクール
トラン
探す
運び
話し合い
勿
心身
尚
夜間
署名
効力
余計
##捨てる
背負
ぐる
招待
卓
童
均衡
展望
腸
有機
気象
禅
ふん
やわ
組ん
恵まれ
ワシ
最小
的確
ブレー
馴
よば
わき
繋
パト
やさしい
笑み
出入り
酵
なつ
聞こえる
##ub
悲しみ
落ちる
##ージョン
謙
商人
発足
登山
たまら
ススメ
リード
集まり
##ラクター
粒子
ランチ
##ろい
体質
推測
歯科
縄
参り
最適
しかた
代金
志向
潤
蛇
一面
民法
立た
##50
整え
おっしゃる
キュ
惜
俳優
尊敬
揚げ
弓
##どん
de
国境
棟
休憩
同法
挟
レシ
国鉄
適応
##ガル
アイデア
##ドウ
ゆき
大根
女優
遂行
音声
おまけ
羊
腎
眠り
is
いさ
苦痛
調節
響き
あふれ
アプローチ
北部
溶け
呆
##ばい
接し
放棄
殺す
##ザン
子宮
いたる
##カス
##がかり
##切る
歓迎
飲ま
ひたす
半身
課長
在庫
行方
易
沼
ミサ
決断
同居
固有
校長
バブル
売る
両国
及ぶ
##どころ
懇
##付ける
しまえ
直し
ブラジル
獣
土産
権威
擁
ねん
ジャパン
##パク
本体
目覚
各号
在宅
ml
##っちゃ
イラスト
加速
保守
四百
文庫
通る
##くる
##さか
はじめる
卑
市販
渡辺
##われる
シュー
衝突
任意
迫っ
にくく
カロ
体操
侵害
手間
武蔵
空き
ブラン
録音
クロス
イスラム
適合
国籍
育てる
ひたすら
取り組む
憂
欲望
つかん
##age
次回
うしろ
オーバー
会見
移っ
穏やか
受け取っ
摘
愛知
sp
黒人
##スティ
##ソリン
望む
社内
奨
いで
サム
スー
云う
女王
考察
観客
##ce
須
##ばり
##り返し
カッコ
ガソリン
こぼ
中山
太郎
笑う
市長
暫
エピ
南北
想い
去っ
つまら
庶
動かす
為替
外側
##シック
痛く
諦め
歪
xp
オリンピック
前者
半数
解明
蘇
鉛
##帰り
##ver
こめ
家屋
昌
##去っ
くり
ポジ
寄っ
本社
new
大名
移し
入り口
##_^
しき
捉え
バイオ
幽
慌て
##替える
気軽
現れる
ベー
狙っ
ind
結ん
フード
まとも
愛する
いただける
愉
##ine
最悪
証人
フィールド
##ケル
遺族
階層
ナイフ
マッサ
##ab
堪
嘆
おど
たど
郵送
##ge
駒
re
ワールド
##ue
役人
りん
勧告
バレ
分間
振動
カイ
景色
アルミ
エリア
噓
新設
相違
見送
間に
崇
伴っ
国道
土壌
家具
マク
徒歩
省庁
ストーリー
えっ
知人
3000
##のぼ
味わ
洋服
枕
##まま
キム
交差
ロード
ぴったり
袖
餌
al
外出
せめて
麦
舟
国語
払う
海洋
くださっ
フォルダ
奏
憧
益
那
願っ
パーティ
##びる
夢中
扶養
美しく
ショート
親切
##ばっ
ダム
格差
ジャケット
調和
直ちに
##ねぎ
##直す
神話
たば
細菌
綾
##カメ
マラ
順調
##っちり
##シップ
のんびり
##とっ
絵画
メカ
一覧
東西
闘争
##セット
兵庫
##げん
##美子
座り
温暖
用途
デート
傘
きか
片手
休業
感心
木材
火山
通勤
東南
焦点
要領
おかし
ダイア
立ち上がっ
吾
最中
苦しい
牡
##ソー
千代
姉妹
税制
親戚
そちら
繰り返す
務め
恐らく
届く
かすか
##据え
摩
究
移植
振り返っ
マッサージ
殆
容疑
解析
おもい
#
結成
聖書
ばっかり
生成
返っ
公益
数十
##こり
ヘン
動画
国有
素人
芝居
もどっ
やわらか
或
堂々
週末
警部
込め
##クタ
エイ
リング
##and
レジ
都会
除去
膜
こっ
外し
間接
八百
##tr
前掲
そいつ
むろん
悪魔
渡り
講義
しゃべり
##フラ
回避
##ックリ
仕掛け
##がめ
公団
警官
頼り
貰っ
こなし
一環
凄い
応え
リアル
こころ
筑
##ビリ
意気
一族
つらい
済ま
生存
##アウト
##タイン
フロント
不法
収納
##っとり
テニス
呑
pr
タレ
フジ
平安
ポート
ジュース
不当
ドレス
及ぼす
##ice
革新
セレ
たどり
真面目
ぇ
扇
隻
##々木
倒産
亭
褒
やろ
家計
重く
かり
トゥ
っぽく
つづい
浄化
熊本
画家
はがき
マット
割れ
パートナー
平日
##リュ
##ーブ
偉大
過ごす
##ネシア
さっぱり
遮
##ズミ
旅館
演じ
開示
##落とし
呟
縛
ネック
イー
ウチ
木村
開ける
合わせる
識
咲い
for
騒ぎ
あー
すむ
品目
妥当
戦前
鹿児
押す
うどん
触れる
わざと
鹿児島
キャリア
正解
産地
誇り
食堂
ウィンドウ
惑
bo
代替
望ん
やっぱ
##th
剛
如何
##ail
順位
順番
ピーク
mg
定年
立てる
ドライバー
苗
よそ
付加
会談
同条
浸透
瓶
##これ
掲示
食物
におい
ディー
実証
かから
分裂
##ウェー
カウンセ
コト
単語
通行
##ラリー
オーナー
絞り
艦隊
##カラ
演技
##ペン
免除
名義
返還
郵政
始末
そっくり
会合
真似
負債
パーク
他者
異議
絹
肯
##ノン
主題
反発
強烈
照明
重量
細かく
引き上げ
悠
楽器
送料
支払う
プリント
ハリ
古墳
##ミア
おは
##ピア
たの
うっ
名乗
宮崎
だいぶ
かまわ
アレル
媒
怠
暗く
運ば
##右衛門
悲鳴
掘り
頂い
本件
アルバイト
べつ
空い
視野
通商
武田
収録
あつた
5000
やう
無限
私立
##あわせ
##シング
なめ
対話
オール
よほど
ピース
優しく
ヤマ
ラブ
何事
診察
頼む
こんど
スパイ
##売り
利子
歩行
間隔
間違え
にぎ
ナン
慈
エジ
ゴー
薬物
歩み
頻繁
加わっ
ぼんやり
##ウント
##リーナ
溢
すん
リハ
交代
薬剤
ギター
##ッキング
簿
地理
浮き
造り
##モンド
付属
累
酷
奴隷
歌詞
補正
配偶
##シウム
フレーム
俗
改造
水曜
系統
黄金
発信
出かける
葬儀
遊ぶ
申し出
堺
疲労
経由
絵本
街道
近づく
##テーション
##せい
##ろす
包ま
チラ
器具
大将
きの
タブ
修行
立法
たばこ
パーツ
ボード
咲き
小麦
貸付
かかわり
廻
閲
分担
焼く
マシン
飛び出し
がる
孤独
本文
##ずり
余地
見つかっ
澄
刊行
拘束
凶
小児
教養
パーティー
指す
算定
##ベット
恥ずかしい
吊
##プリ
iv
世論
信託
店員
踏ん
照らし
##るい
四五
走ら
適し
年寄り
蓋
ゃ
右側
東海
歌手
##デー
ビン
復興
更生
悪かっ
見つける
ボトル
タンパク
峠
庄
##レンジ
アンケート
##ークル
か所
貯金
すぐれ
なさっ
磯
舎
リュ
刺し
喫茶
等々
頭痛
未だ
読め
買え
(^^)
堤
歌い
浮気
##立てる
知らせ
尽くし
云っ
庁舎
飽き
ごはん
ほっと
仕方ない
左側
焼け
答申
高まり
孔
だす
赤く
岡山
排水
##フィー
なくし
ペル
履行
統治
##じょう
鎖
きく
皮肉
個体
大地
水平
##起こし
スタンド
ありがたい
ぉ
柴
人種
期日
ようす
上場
漬け
##??
思い出す
フィリピン
##av
分泌
増殖
語ら
類似
##ニール
サル
ドリ
出土
コーチ
訪れる
じっくり
ブレーキ
洪
同期
逢
にゃ
レス
蘭
詞
体内
登校
##ラックス
救い
議決
マイクロ
冒頭
勤労
こども
閉鎖
アプリ
インチ
珍しく
叩い
当面
デー
心地
手の
柔軟
##メートル
肢
陛
寿命
紅葉
呉
キャラクター
カ所
サブ
デス
ホイ
提起
木曜
競馬
貸借
嚙
赴
正規
読ま
##ぜい
##net
オル
瀬戸
移り
陛下
##取ら
並ぶ
守ら
つぶやい
ひょっと
しら
喫煙
アート
セール
享
イスラエル
泡
先頭
歌う
浩
情熱
清掃
宜しく
あらためて
上陸
グローバル
中期
前条
ロボット
##しま
実務
座席
レシピ
学園
曲線
##ジット
見込み
呼びかけ
坪
関わる
とい
イイ
調停
泰
一行
仮定
支障
##コー
内訳
増進
身長
たつ
得点
恨
うら
せん
ばら
小田
現に
食材
天使
読書
ボーイ
見出し
腺
こま
望み
いささか
同社
閉め
マニュ
目立つ
シャワー
中古
判明
扱っ
遺言
こな
侵略
残す
軌道
グラム
スポット
後方
マリア
けっして
なくなり
話しかけ
べし
スム
チン
主導
国王
観音
預け
ゲスト
一歩
発音
親父
負荷
カーテン
岳
再開
学級
斜め
生態
閲覧
桂
いと
公社
斉
##並み
どっ
染め
こんにち
猪
封筒
小川
ポール
##チョ
通用
開拓
稽
騒音
##シャン
欲求
∀
##ギュ
##com
複合
##ッキリ
あっさり
##四郎
ファミリー
掌
のり
金持ち
##est
##カリ
検挙
水素
かっこ
##フォーム
as
明記
独り
頼み
ツー
名詞
花火
貧乏
(*^
達する
惨
##めき
同項
指名
連載
這
とて
勿論
特有
##バリ
##おし
入浴
卸売
移民
誘い
陸上
レッド
小さじ
健診
写し
小野
社債
補給
インテ
はっ
意向
稽古
パイプ
ジャック
|
派手
火曜
理屈
着く
味わい
ふれあい
##ゾン
通報
手元
白く
馳
##殺し
##ate
必然
橋本
登っ
解体
中継
価額
公衆
沿岸
ジャーナ
ダウンロード
贅
en
再現
欠け
##ソード
マッチ
いえよう
サークル
慢
儀式
眠れ
枠組み
林業
ウイン
郊
##ばさ
しの
救助
you
岐
独身
##ライト
##イム
アミ
カト
コメ
手形
糖尿
食欲
高原
果たして
##越え
内線
沿い
牛肉
現役
豪華
綱
不快
碑
顎
剥
嘉
##ん坊
悲劇
日光
示唆
ため息
やる気
レポート
痴
辻
買わ
あいさつ
苛
生ずる
チェーン
失う
総裁
きめ
喪失
検出
肥料
買収
しつ
つら
直面
鋭い
除き
寂しい
##返す
ダー
入金
有料
軍人
リボン
ワシントン
po
キャッチ
零
役立つ
したがい
##ゼル
形状
無効
##サス
仲良く
取り付け
胎
中年
メガ
アレルギー
判例
特集
##ひとり
やりとり
託
克服
庶民
郊外
資する
##むね
さっそく
茨
##ホン
はり
固め
立地
##にく
##ノー
##切ら
進学
トルコ
筈
次いで
盤
三菱
償却
先週
毎回
気づき
塚
fr
ヤツ
但
倭
惹
有害
履歴
破綻
開業
渦
撮り
気候
潜在
表記
論じ
房
介入
実情
率い
スロー
マーケット
スケジュール
殺害
領土
彫刻
理性
エレベ
おおむね
オス
圧縮
存続
怪我
関わり
ドラッグ
インドネシア
トロ
努める
セミナー
きき
来週
wor
癖
収め
当選
財団
##シェ
太い
宮城
打た
本能
増やし
##パス
##ベツ
こい
啓発
ボート
エジプト
エピソード
甚
つる
改め
見逃
親族
##ッシング
チャレンジ
フリ
引退
はた
併せ
長谷
ロマン
協同
工程
限る
おなか
マクロ
おこなわ
##グル
##リエーション
割引
##ミット
エイズ
付ける
劉
主役
池田
足元
野生
##あう
探偵
ポー
二三
がた
怒ら
自社
寮
助言
外れ
密度
接近
科目
ふだん
みえる
分散
役者
窮
釜
事柄
寝室
抗議
脅威
任命
問う
山崎
添付
脈
##がす
とめ
ショット
やま
シミ
速い
暮らす
##art
ハル
メス
上級
ローズ
モニター
翼
一斉
給食
統制
サンド
遣
キュー
ミサイル
楽しかっ
戒
怒鳴
継承
配達
止める
しん
助手
著しい
##ぐれ
ad
並み
良好
見上げ
奪わ
深め
プラザ
山形
殆ど
輝き
ズボン
逃げる
ネコ
白人
##々しく
法定
ストック
キャッシュ
こだわり
支部
かわいそう
祐
co
パウ
役目
特色
##ばら
電流
すっきり
運行
陥っ
##20
##イア
ヤク
移住
まずい
生き残
前進
ロング
地形
夫妻
押さ
死刑
転じ
ぷ
墨
##ひら
変形
支所
行列
警視
##ロジー
きび
ルイ
酵素
##左衛門
イラン
取り除
集まる
動詞
比例
警告
むき
モチ
故障
顕著
うた
店内
マルクス
マニュアル
憧れ
物体
視覚
無し
種々
評論
セキュ
飲食
##ボード
数々
蒸し
通路
部長
備考
集積
##あがり
アクション
##イオ
発掘
##ージー
飢
鑑定
##ずみ
上っ
上り
下落
中旬
投稿
めぐっ
##uk
セント
気づく
トム
所管
頑張り
睨
股
##心地
衣装
貯蓄
己
un
オペラ
行ける
流動
##まわし
海水
誤り
マンガ
レート
決まる
be
あか
ふえ
源泉
信じる
倉庫
好意
幻想
斜面
木造
舞い
そっち
タンク
淳
出生
寺院
戸籍
着手
##ボー
がら
分配
爆弾
限っ
菅
契機
密接
直径
とれる
ドーム
カロリー
エド
ヒロ
決心
##ールズ
##ーキング
サイクル
撫
##けん
のび
忙しく
あれこれ
六百
巻い
税額
##サル
##五郎
節約
損益
熱く
群れ
もとより
ヒル
四国
##らう
さか
てっ
送付
カテゴ
ビニール
滋
勝つ
##プター
干し
切り替え
##よっ
##ラミ
処方
戦場
石炭
ごらん
##ボル
勘定
区民
叔父
##ジョン
スイス
思い浮
もったい
##入っ
拡充
襲わ
ピッチ
難しく
ボン
包括
普遍
佐々木
癌
##cal
ノン
公立
誘っ
貼っ
運ぶ
はずし
上手く
物事
con
##フォーマ
聞け
飛ぶ
ハート
プラスチック
著書
論議
ペーパー
溝
っぱ
下旬
井戸
チップ
摑
桐
放出
スタン
そうそう
so
借入
源氏
目撃
ゴールド
チャンネル
##デス
執筆
条項
課程
##かえし
慢性
逆転
アーティ
バージョン
窒
よぉ
経路
追わ
つづく
pa
デモ
催し
情け
チョコレート
はん
タマ
##70
出勤
武装
歩道
納め
負傷
おしゃ
##スタント
めでとう
主流
審判
敗戦
無言
見積
首脳
手作り
汽
##プレ
死後
妄
かぎ
予感
平野
ha
規範
随分
フランク
っこ
中毒
利害
後退
復旧
相性
録画
頼ま
sho
タッチ
結核
キング
レモン
ゆったり
アレンジ
胴
##テク
メロ
川崎
次郎
決済
王国
贅沢
返す
華やか
穀
さり
一目
入所
早朝
演説
着実
肯定
難い
躍
on
っと
一流
##生き
##ort
オオ
脱出
浮かび
おはよう
ロス
一同
動員
参入
メモリ
##80
前期
大胆
キャベツ
姑
(>
ひび
スミ
デジカメ
##つり
##ぱら
ケイ
乱れ
出荷
出願
破産
輝い
連盟
過失
##ルター
追いかけ
醤
##めい
体温
創作
変数
マナー
まじ
優位
酔っ
入居
入社
待た
花粉
選定
食っ
駅前
クリニック
硫
##やき
##振り
セリ
推計
通産
売ら
振替
天才
性別
東大
ヒント
たか
はなし
アラブ
コレクション
上部
力強
図ら
戦っ
部位
とどまっ
雌
久々
塗っ
永久
ブッシュ
##まず
うす
乗車
制服
工学
書け
狼
##イラ
##ニャ
##ルツ
幸運
賃貸
つとめ
っぱなし
##ーー
保つ
青森
この頃
index
揚
##ata
アピ
内科
吸っ
砂漠
ずれ
下着
太鼓
ロビー
##加え
かみ
ソロ
提言
替え
航海
頻度
##田谷
成熟
折れ
日数
留意
はずれ
ゆとり
週刊
面白く
薩
水面
種子
サロン
捨てる
##の毛
分科
系列
卿
餅
欠かせ
捧
ろく
参画
簡易
絶望
目安
高額
スタジオ
##イヤ
耐震
##ただ
一千
国々
しょうゆ
スムーズ
##ive
刑務
醤油
##暮らし
キレイ
下ろし
##の間
アキ
イカ
後継
町内
福井
西側
菩
さわ
原作
反論
敏感
拓
##ぐっ
おび
先祖
合同
品物
書面
歳出
融合
表彰
カネ
コス
処遇
守護
所要
抜く
新人
膨大
若く
麻薬
##リーブ
忘れる
落とす
##<)
##さく
ワク
垂直
奉行
意地
着る
引き受け
兼ね
心得
勘違い
槍
##なえ
cl
のど
活力
運送
訴える
麺
実習
片方
積ん
危ない
カップル
北方
終っ
蒸気
速く
需給
大豆
見つから
栃
指先
表紙
財布
エッセ
##ジメント
持て
被災
飼っ
めざし
ポスター
そっ
カツ
メイ
出所
育ち
200
##付い
つづける
##向い
岡田
然
了解
滑り
世田谷
鮮やか
国産
外来
弁済
横断
遺体
ラッキー
##io
蜂
円高
戦う
渡る
ビッグ
はめ
ドレ
医薬
ソウル
ハンドル
ヤン
何十
##ニウム
まわっ
赤ん坊
##久保
失い
衆議
つめ
めい
経常
エレベーター
圭
租
##レル
聴き
センス
向ける
##締め
ほっ
区画
マネジメント
咳
太田
ホット
錦
##くみ
##ケン
代謝
困り
担う
末期
歌舞
眠い
結ば
総数
##ならず
査
##ガキ
家賃
##ディオ
まかせ
まつり
おもちゃ
茎
広大
通訳
かならず
##ぐら
##焼け
ドキ
両側
強度
犯し
茨城
引き継
メカニズム
アプリケーション
鋼
##ペーン
代わっ
自家
ストレ
裾
##ッハ
ボス
来日
生れ
養子
笠
##ントリー
##ざす
もらおう
ファースト
泣く
フライパン
##10
レク
冒険
包ん
日経
込み
ギリシャ
コンピューター
則
ぶっ
休ん
及ん
管轄
上回っ
##ージャー
空中
若手
迷い
風俗
椎
##ロウ
##盛り
相撲
かぶっ
痩
ぐっ
取組
武力
西部
和歌山
満たす
フォーク
混合
貨幣
##チュア
着替え
主任
退院
タウン
急増
省略
自国
茶色
リース
届け出
コル
言及
##30
##れん
##ナン
傾け
方策
##スキー
はじまっ
アブ
宅地
##ard
たぁ
っす
ぶら
初日
抽象
有る
検定
##っとも
噛
国防
アピール
デパート
コウ
大国
見下
訂
賑
中枢
##ベース
あがっ
やめる
せいぜい
##じて
担い
放り
流さ
選任
##やっ
##らぎ
寄付
引か
装飾
鳴っ
##ベート
シングル
予選
国債
欠点
風味
風土
ベビー
明かり
稀
原油
非行
持ち主
##to
コロ
官庁
愉快
数百
端末
部会
中途
区間
集計
キャンペーン
神秘
マイル
猶
ラグ
改修
シルバー
ぺ
乏
熱帯
症候
税率
##ッティ
map
上回る
因子
安保
##キシコ
パフォーマ
使命
加熱
在り
書記
嫉
くれれ
取扱い
上流
出口
切ら
大島
還元
上田
さほど
おしゃれ
港湾
見知
親友
防犯
髪の毛
いちいち
つた
届き
裂
ミー
厳密
地名
新生
負う
閣僚
高知
##ッスン
圧迫
漏れ
算出
肝心
隙間
コーディ
α
呈
パル
率直
おぼえ
##行き
称し
対決
短縮
質疑
##バート
キリ
西欧
前向き
##過ぎ
三重
変革
厄
岐阜
従う
イライ
ティー
さっさと
point
日付
満州
県民
ランプ
無かっ
リラックス
辰
かっ
着用
調味
手入れ
終わら
紳
中核
真っ赤
眼鏡
麻酔
##かろう
書物
突破
装着
野郎
ふるさと
思い浮か
靖
##付き
vi
仮説
##ポール
ディズ
バナ
強め
民事
心がけ
手伝っ
レッスン
トウ
全力
惑星
採択
清潔
石原
ジャズ
##せつ
##ドリ
肝臓
リンゴ
##ぎれ
みそ
ムー
ヴォ
庭園
甘え
コール
抑える
生き物
引き出し
##ベス
ロン
刑法
##リアム
詠
割っ
喰
盲
ジム
ドロ
帯び
建造
批評
映っ
織田
##ッパー
戻す
洪水
もろ
父母
英雄
周期
メジャー
恭
##降り
ウイ
年々
やたら
インフレ
リビング
修復
原価
届か
忍び
抽出
見物
ジョー
kcal
乳房
以て
修道
採取
損傷
液体
##ウェイ
黄色い
スマ
甲斐
鑑賞
高価
座敷
連帯
顧問
目立っ
曖
メタ
戦車
ロープ
一昨
咲く
隣接
ブラウ
持ち物
通じる
ブラウン
カルシウム
唱え
曖昧
ショッピング
動揺
太っ
対面
断り
暮れ
罰金
大きかっ
##ベン
五輪
人件
必着
農産
朗
キラ
内外
史料
推薦
なじみ
プレート
クレジット
##チル
リゾ
会津
逃れ
書き込み
同行
名目
如く
##じい
##ers
ほほ
食器
鳴り
メキシコ
ものすごく
##ヨン
従い
訂正
##起こす
なにしろ
ストレート
##ガイ
##バス
こわ
ぶん
ヘア
会え
周知
据え
検事
繁栄
うかが
覚える
##ie
敦
ふい
大坂
果物
無数
データベース
##ud
予報
八幡
性的
農薬
グッズ
ヒュー
##メル
ターン
マップ
取り扱い
##ゼン
一口
結晶
農協
テクニック
by
順序
顔色
〓
論争
タレント
ディズニー
パフォーマンス
##リラ
日頃
騎士
接する
受け取る
コーディネ
羅
リンパ
引っ越し
受け入れる
峰
同情
旅客
腫瘍
黒字
仕入れ
押しつけ
アシ
ちがっ
奉仕
頷い
ギリシア
嫉妬
手足
歌舞伎
##クリ
信念
和田
欠陥
水戸
支払わ
くつ
少量
追う
院長
取り巻
アーティスト
臓
##かも
感触
編み
リハビリ
婆
交際
居間
懐かしい
吟
拍手
樹木
発症
みなさ
city
鐘
合衆
染色
輝く
まする
傷つけ
共感
占い
フォーム
##ect
マスク
醸
##幼児
好奇
手首
改定
本店
荒れ
乳幼児
クマ
抱く
近隣
飼育
グラン
テント
鳴らし
残高
うーん
々
憤
琴
畜
学術
幹事
曲げ
物資
起源
飲料
キャンセル
籠
均等
寿司
##ずかし
堆
##まん
##干し
不利
実体
隠さ
うるさい
##ウハ
伊豆
利息
垂れ
特権
福田
贈与
##ざり
よみ
休館
聴取
イライラ
加算
協調
撫で
突入
柏
脊
騙
揃っ
教材
違和
防御
モスク
諮
##また
##ジョ
天候
照射
特異
色彩
レンタル
##モノ
描写
浅草
こんにちは
妄想
生ん
##プラ
初代
たいした
##津川
ハマ
名簿
演劇
ビックリ
分か
強盗
済む
ビュー
do
反し
四角
皇太
目覚め
含み
強引
伝わる
##ッケージ
遠ざ
##ドキ
提携
石井
親指
しきり
幅広い
ストライ
横た
れよう
積み重
切手
師匠
灰色
気付い
飲み物
杖
ac
qu
ウル
感性
承継
朝廷
老い
集める
パッケージ
おち
##ッピー
もらわ
メイク
消える
##蕎麦
ひね
レオ
働か
バッテ
てい
施工
##ノール
囚
主演
笹
ふき
ふし
プチ
団地
部落
パスワード
傑
忌
アダ
一括
光っ
打撃
正体
こたえ
ハガキ
ポルト
なぞ
合戦
認証
濁
がり
在日
細く
自我
反する
##タス
##ial
対外
気の
法制
通話
めぐり
辿
喜ば
整形
村上
##あげる
暖かい
vs
中高
弱く
翌朝
のぞい
くださる
フルーツ
生み出し
萌
##ぎっ
視界
ニット
温かい
##ごし
##クシ
さぁ
たけ
作れ
回る
無償
発射
青春
刈
##トー
イル
用心
要し
篠
##カチ
ひら
再編
差異
撤退
果実
阻害
満たし
搬
あぁ
不意
公庫
習得
養護
シティ
##ストリア
もっぱら
##ai
抹
##んじ
セイ
追放
飾っ
##ドン
みつ
不在
半端
立体
ロール
やさしく
衣服
誘わ
誠実
コップ
ソファ
綴
##構え
##ell
停滞
守備
自律
##ナルド
##聞かせ
姓
付与
天国
指輪
月額
覗き
桁
##サギ
断っ
犯行
縫い
ただちに
##たか
尽き
応答
松井
馴染
クール
グレー
下がる
受け継
ソフトウェア
不倫
培養
局面
年数
捜し
揃え
##アンス
カール
モンゴ
##__
##ださ
##ナイ
中部
嬉し
責め
転職
近藤
##くれ
前田
変身
擁護
枯れ
発現
阻止
符
##ノコ
ほめ
創業
天文
子孫
後日
払わ
野村
青山
(^−
エビ
受話
神田
返信
##かかる
桑
箸
えー
三浦
担任
水田
解答
##オケ
境内
怖く
県内
解剖
##ft
##iv
わい
乗客
乾い
本音
響い
聴く
尼
鼓
元素
頂点
いたずら
剝
かさ
五六
次男
濃く
発注
辞書
##っこり
下げる
ストップ
全額
たたき
##az
中島
残業
おもっ
バナナ
ランク
貧しい
受け止め
僅
低迷
反面
忠実
プロデ
はね
ログ
不能
塗装
成年
戸惑
つない
アンテナ
セキュリティ
爺
ウソ
モーター
宙
承諾
##ステル
たまっ
気の毒
カラオケ
ライバル
ダイアログ
はげ
##合わせる
##pe
篇
分別
計測
づける
大した
筒
pl
是正
流出
露出
ナイト
塊
クイ
事由
待て
めった
減らす
錠
促す
戦国
飛躍
レイアウト
ピク
入国
干渉
ブラシ
冴
##マル
カレ
ボロ
一員
百姓
緑色
郷土
クレーム
##ナミ
sh
下っ
追及
養育
むかっ
高まる
芯
ベイ
工芸
減る
誤っ
ヘリコ
たいする
丈
タグ
営む
貧困
ならび
ショウ
パンフ
尖
カ国
新築
車内
ゾーン
シャッター
構わ
シャー
委任
定番
平面
群馬
類型
##クトル
まくっ
サーバー
固く
望ま
用事
取れる
##惚れ
たれ
ワタ
くわえ
上空
到来
四方
成田
ブック
結びつい
##ack
キン
一帯
主力
多発
オーケ
しい
運賃
仮面
償還
受注
弥生
役場
片山
足音
道場
##イナー
ネズミ
苦しん
乗り越え
佳
ヒー
年上
拍子
長女
むかし
生み出す
鷹
スズ
撮る
沈ん
のばし
かかわっ
旭
遍
jr
愛さ
皇后
素朴
連鎖
見守っ
曹
家電
味わっ
設ける
あたかも
爽
坐っ
岩手
豊田
負っ
(^^;
ジェット
プレーヤー
##ht
讃
##アイ
マツ
七百
下車
寒く
悲惨
カーブ
##ies
ap
何者
受容
平行
指令
換算
高値
はさん
離れる
一人ひとり
きら
乱暴
名刺
招い
法廷
シフト
##コモ
会費
発酵
贈り
出会う
##んぼ
属し
治安
衝動
除外
ウィーン
しつこ
減らし
##出せ
よん
機動
発作
登り
金沢
ポーズ
瓦
学力
とらえる
鬱
##ずく
吐い
土木
地主
早々
しかる
速やか
庵
##ハラ
##ide
やん
上映
同級
洗う
若年
進ま
関税
申立て
旋
よけ
必須
ラウンド
##向け
とろ
面し
つなぎ
カレン
あふれる
もたらさ
サウ
内臓
特急
痴呆
##ネラル
##ッシャー
##がた
はし
宝石
対戦
拒絶
分ける
当ては
##リューム
まとめる
ジーンズ
かぁ
所見
生育
築い
通う
しぼ
入会
内面
実在
就学
究極
賭け
銀河
##ークス
のぞき
増やす
玉ねぎ
悦
##言葉
いす
ひざ
東部
蕎麦
くさい
ディレ
##ッティング
只
中野
佐賀
渋滞
解雇
おいしく
##ギリ
次官
皇子
途端
スカイ
聞かさ
態勢
清算
老齢
難民
##ピオン
レコー
アイコン
インパクト
勃
鳩
中断
地中
告げる
憶
ニン
奨励
私的
精度
諸島
まじめ
デザート
キツ
別々
小沢
ラップ
片付け
オブジェクト
塩分
捜索
時価
長寿
附則
##se
##カイ
出世
楽しめ
伐
##一人
疑わ
骨折
デッキ
砕
##クサ
##ートン
##のり
――
元々
気力
減額
退屈
##エア
供与
年収
接着
猶予
思い切っ
抄
シア
ドゥ
予言
外相
好調
復元
急性
連休
交わし
アジ
傾斜
光る
めちゃ
まちがい
栃木
高温
あっち
リリー
##レーター
みち
向っ
生む
アクセ
スライド
嗅
崖
フー
与党
斎藤
選考
##笑い
操縦
##プライ
##ラップ
まさしく
フォント
ストレッチ
紅茶
防火
きつい
そろっ
さる
伝承
奇跡
終戦
質量
転送
##フォル
エクス
ガード
##どい
ぶち
切断
営利
電圧
シンガ
ストロ
ライオン
デン
三井
不審
山頂
放題
水中
細工
維新
満たさ
等しい
ネックレス
くす
所持
王朝
紀元
襲っ
鳴き
おかしな
ジャンル
一人一人
紐
促し
初頭
拾っ
ラスト
inter
ポジション
カウンセリング
シカ
併用
同等
抱か
摩擦
狩猟
news
σ
おろ
まき
作物
合図
臓器
高山
そこそこ
エアコン
スクリーン
##ぺん
##返り
##ill
うろ
付く
列島
紳士
通い
つかっ
薫
再発
四千
所定
暗殺
願望
デスク
浮かぶ
おっしゃい
##ure
不便
友好
甘く
痩せ
近江
イング
ブーツ
背負っ
##じゃ
利点
日の
渡す
疾病
##ゲット
つかみ
水槽
エラー
重なっ
文法
あず
国税
梅雨
##フォード
オーストリア
梨
my
信者
溢れ
知覚
都心
酔い
##ざん
##返っ
##ome
とけ
サス
坂本
球団
電磁
##まわり
仕立て
同志
流す
わかん
勾
滴
煩
蒲
ねぎ
吉野
将校
足ら
路上
よさ
分化
坊主
婚姻
巧み
隣り
サンプル
拙
##だっ
##モア
勝て
新型
##ウッド
くらべ
なさる
支払っ
##ib
##up
##こえ
##ニコ
ナチ
闘い
集約
##まとめ
ジャンプ
バッテリー
不信
起訴
まわし
起こさ
リゾート
振り返る
op
まな
下部
内心
孤立
自発
ポンプ
話し合っ
ボリューム
紋
うわ
告知
田村
脚本
かかえ
冷たく
##暮れ
宮殿
斬り
サンタ
立ち止
コマンド
##ld
大佐
導体
常時
担っ
##クソン
ポップ
ベルリン
##ぶら
プル
上品
中立
傷害
喜ぶ
通す
##ンジー
下がり
しゃべっ
カブ
乗用
詰まっ
##され
##ジラ
##ュン
##抜い
あう
両面
##フォン
コロン
奮
矯
##合せ
ノル
主観
窒素
遭遇
みなす
##トラ
青木
食卓
蒼
賀
##チナ
任期
吹い
こっそり
##ゴー
##着い
外見
転移
##リンク
関わっ
data
(−
墓地
待機
納豆
資質
##放し
下請
富山
感激
昆虫
##ドー
マシ
中略
##ずかしく
マイケル
主権
小松
排気
添加
売り上げ
##こめ
##ぶる
##嫌い
クン
シロ
スナ
ネイ
学歴
提唱
誇る
警報
親しく
柿
化け
通学
叙
翔
蛋
蛍
><
そそ
トル
三郎
話さ
##チャン
のう
標識
エッチ
強かっ
ステーション
##とる
案外
火事
さらさ
たいして
オーダー
叶
賜
厚い
市川
拾い
禁じ
細川
頂上
ひそか
コンセ
フェア
汲
注入
豚肉
隊長
##ヴァー
パレス
飛び込ん
デザイナー
シンガポール
宏
##レンス
アルファ
パンフレット
##og
釘
アロ
経理
西武
\
招き
生息
疑っ
討論
つまみ
スペシャル
聡
詫
抜群
注い
オーブン
##tc
萩
##プー
手軽
混雑
迫力
とどめ
買える
北条
及ば
ハーブ
##ンジャー
ギャラリー
カビ
呟い
降る
みせる
素早く
クラシック
##ぐさ
友情
肥満
願う
十津川
飼い主
スケール
欲し
礼拝
蛋白
宋
拉
##ウリ
参謀
液晶
職種
##バシー
取り戻
親しい
藍
ナポ
丸い
ビーチ
堕
丈夫
保っ
再会
前記
後輩
潜水
薩摩
つなぐ
チューブ
ライター
プライバシー
淀
舐
包丁
戦時
ピーター
チャンピオン
##ニスト
みなし
エリート
ヘリコプター
一旦
察し
繁殖
きのう
叫ぶ
都内
art
見舞い
唄
淋
##巻き
扱わ
連想
作ろう
にんじん
スキャン
槽
##ゲル
le
ピエ
労務
士官
座る
石田
織り
隠す
##ジウム
##ベリー
オリーブ
受け取り
フィリップ
旬
##遊び
弾力
エリザ
ホンダ
##〜〜〜〜
##もち
##ヴォ
うそ
ガリ
ネク
伏せ
帰ら
モンゴル
いただけれ
刷
##高い
にわ
マニ
丸く
教訓
明示
見い
##ルトン
篤
なだ
六条
各社
早急
流域
こもっ
ゲート
いっさい
ぬい
租税
立ち上がり
たえ
減税
点数
静脈
あたえ
たがい
見よう
sc
合唱
補強
プロパ
ドキドキ
妨害
対比
機体
消す
物品
狭く
異様
相応
褒め
鉄鋼
##ージャ
むこう
ディスプ
即し
方言
##ティン
カテゴリー
譜
##いき
入門
去る
矯正
さくら
りんご
美味しかっ
弦
##十郎
すて
ゴル
不全
山中
書房
書籍
礼儀
彦
##ile
ポチ
地盤
超過
柔らかく
洩
烏
痕
合流
宮廷
覗い
選出
ser
##みれ
se
ボケ
停車
硬化
路地
おいし
ウラン
トライ
シンボル
差し出し
##っ子
増減
減り
異性
識別
カメラマン
まね
エロ
主務
地価
地味
小倉
閣議
さかのぼ
まれ
ロゴ
冷や
拡散
拳銃
真相
解約
説い
##あれ
創出
在学
鉄砲
シナリオ
ポルトガル
##洗い
上限
沙汰
温め
生後
iso
インス
##ごう
##end
基調
天王
婚約
覚め
きゅう
ガイドライン
了承
住人
収縮
##エンザ
ソニー
リク
久保
奪い
手配
格子
##ウハウ
皇太子
アイドル
迄
霞
##モリ
僅か
先発
落下
大久保
##uction
ちょうだい
明白
神宮
身の
騒動
高かっ
ノウハウ
モスクワ
グラウンド
緒
鋳
印鑑
大家
大小
学会
流入
辞典
開幕
陽気
##ment
ジャーナリスト
ちら
役務
指紋
映し
水域
開花
おやつ
ぶつかっ
手のひら
柔らかい
##もん
##押し
そん
服用
爆撃
相関
##フィン
##ーマル
ぶつけ
らしき
言い訳
勅
駿
##ハー
ふら
他社
原爆
快感
カタログ
##モス
##騒ぎ
あお
モル
加害
国庫
増す
推理
死な
気管
発する
組み立て
見つめる
凡
空襲
規約
##かえる
##とめる
スウェー
喚
##ain
はさ
オヤ
帳簿
民俗
神々
##レード
つっ
みや
密着
高田
inf
うれし
さよう
エンド
渓
##くろ
即座
穀物
魔女
ちまっ
ラテン
励まし
スコット
##之介
八千
off
尋ねる
インフル
##グリ
うう
セク
名人
小物
就労
曇り
洗剤
繊細
診査
野党
離し
仔
琉
よら
コア
山下
年次
施し
有価
眠る
あちら
レディ
グランド
漆
充電
商事
家畜
店頭
林野
マック
抱える
ぜんぜん
スウェーデン
効き
遂げ
順次
プライド
やせ
ガラ
応急
暗闇
竹内
麻痺
瑞
##ダイ
##置き
下痢
儲け
念仏
気圧
通称
トーク
##ンズ
もみ
ハナ
浄土
発動
進路
たどっ
はは
ラム
技法
格闘
民生
馬車
##ードバ
眺める
くり返し
梁
土砂
念頭
拉致
かまい
みじん
わが家
長谷川
##ずっ
人的
名物
汽車
秘め
言動
諸君
蝶
##ぐい
あし
アホ
ゲイ
狙う
終結
茶碗
許せ
テンポ
##チャード
ゲル
マリー
キロメートル
##落と
カミ
勧誘
整っ
書式
買おう
降りる
殻
##ワン
アサ
何百
敷い
身内
リストラ
絆
##ごく
債券
支度
敗れ
注ぎ
証書
運搬
いよう
なくっ
ゲット
こしょう
猟
##ant
仮名
向う
平凡
スタイ
行ない
##pl
即ち
小山
東方
配列
鍛え
羨
一段
疑惑
out
怪しい
##びれ
イノ
原点
資材
ニック
冷やし
ファンド
ベランダ
戯
##茹で
一角
人体
司会
大野
救う
消火
##テラン
##っぴ
ポル
予告
公営
後見
方形
読売
##ベルト
サーバ
塀
棄
いそ
官房
年賀
未知
本土
阿部
##ドイツ
さりげ
積み重ね
しり
但し
症例
重力
金庫
pho
すわっ
##ジュアル
##40
##aw
磐
頬
ウン
近世
##ザード
ひっくり
むけ
効く
定款
暴走
汚い
泥棒
硬い
名づけ
ハンバー
落ち着き
ぎり
どー
公明
内蔵
出動
キット
少なかっ
君主
家内
宿題
暗号
海域
説教
みごと
セリフ
マラソン
インフルエンザ
##すれ
大抵
奪っ
幽霊
当り
ボーナス
##オス
伺っ
係数
増強
老後
スプーン
一郎
三島
土日
外資
好評
パスタ
飛ばし
原田
外観
妥協
恨み
精密
ドキュ
##チア
##植え
スチ
参戦
救わ
楽天
油断
裏側
##ストロ
テクノ
嬉しかっ
(^−^)
醜
##だて
傑作
求人
col
挙げる
プレミア
打ち合わせ
##きっ
大腸
抑圧
浦和
キーボード
囁
エサ
参議
歳入
こりゃ
カトリック
##起き
いの
アウ
反抗
愚か
教職
有用
洗面
石垣
菩薩
##センス
さがし
真っ白
##キスタン
スタンダ
思いがけ
コンパクト
亮
凹
暦
松下
浮い
アント
##ポーター
##シュタイン
渇
##ゅん
##ッポ
##乗り
##ory
一向
処罰
少子
跳ね
##ロイド
##苦しい
うつ病
フィン
##90
ウラ
幾ら
戦力
新品
藤田
コンタ
パチン
マレー
助ける
莫
母乳
かわっ
ターミ
ラベル
売れる
##レオ
おう
ゴロ
牧場
百貨
禁煙
アイル
メダル
越える
紺
##どう
前線
有限
本章
揉
##キャ
六千
嫌わ
視察
つくし
シール
マーケ
プライベート
つり
まぶ
デリ
便秘
優良
山岳
起因
##らしく
そろえ
切り離
ロケット
au
せれ
ウオ
会わ
御所
生体
線路
おかず
たがる
やがっ
プロテ
取り巻く
垣
帆
##ばた
##レム
しわ
テイ
暫定
狂っ
脱い
##マーク
取り消
サウンド
##歩き
嚙み
岩波
済ん
返答
##ンチン
##掛ける
コンセプト
ストリート
喘
大工
嬉しく
さわやか
呼び出し
##フォルニア
ターゲット
パスポート
リチャード
##ぱく
##ーい
ur
ゆか
事案
明瞭
無用
抜ける
ヒトラー
ユニーク
##ff
br
へえ
上旬
亭主
余分
判ら
厄介
告発
妊婦
海底
##まわっ
フット
曲がっ
講ずる
恰
儀礼
兵隊
漂っ
めざす
バレー
##らわ
なで
ねじ
中川
土佐
直す
触っ
試算
##ッタリ
タワー
一夜
優し
ことし
づらい
思いやり
##ase
排卵
西郷
混ぜる
ベテラン
襟
カモ
七千
書簡
鉛筆
錯覚
##ペット
エディ
ミスター
##ブラ
##張る
##500
俳句
商社
噴火
嫌悪
戦術
カラス
ユーロ
ユニット
##ネーション
擦
##こっ
##去る
山梨
にんにく
ドラゴン
マジック
乃
はか
むい
ペア
四季
##出そう
net
アミノ
ファクス
##スリ
か国
セー
並行
亀井
愛想
産ん
##エンス
ビジョン
ホン
後藤
航路
飲め
ともあれ
ベンチャー
日系
謝罪
欲しく
娯
珠
薦
(≧
女神
消毒
演習
ヘクタ
ヘクタール
敢
ノリ
バタ
多額
惚れ
換気
被疑
間近
##換える
チョウ
芋
##^*)
〜〜
付着
前面
平方
慰め
散策
こぼれ
##ロリ
01
mb
今季
覆わ
巻き込ま
繰り返さ
パイロット
カム
ビー
懇談
話せ
はじまる
引き下げ
##くわ
##ソル
介し
後部
苦し
許す
鋭く
##チュー
##ニョ
倒し
多摩
帰れ
悪口
絞っ
食わ
##かせる
おもう
アカデ
ウィルス
サミット
ダメージ
取り戻し
漠
牝
蚊
かゆ
オム
ジン
チュ
ドー
衰え
飼料
指さし
トランス
mo
安打
怒る
愛人
断層
貯蔵
日ごろ
見つかる
カリフォルニア
けい
広範
船員
転倒
鮮明
はたら
ちっとも
ヽ
儒
he
そら
ピカ
メソ
内海
協働
安易
師団
衣類
車体
馳走
ライス
##リティー
モチーフ
祀
包装
物流
諮問
ケータ
受けとめ
穂
妨げ
本名
頭上
食う
##pr
μ
スモ
仲介
家臣
抵当
本番
部署
はじまり
##ぶっ
##もや
##シル
##トゥ
しる
懲役
淡い
##ンジェ
やれる
おこなっ
##ガラ
##ore
かな
戦線
招く
知能
見かける
マヨ
足し
ミラー
恥ずかし
面白かっ
##はだ
##はは
##all
召し
変っ
案件
アメリカン
舗
##出る
##調べ
)―
おに
ひく
心情
破っ
解き
##ショウ
##ータル
伸ばす
はたして
オーディオ
##くじ
中日
拠出
敷き
##エー
セラ
マフ
中東
帰属
本線
校舎
隊員
##っしり
通り過ぎ
険
##ヘン
個室
琉球
病室
伸び率
ro
タコ
和解
文芸
無縁
笑わ
絡み
育つ
議事
ネーム
雛
わか
其の
起こら
こんばん
見つかり
##iz
ぼう
受刑
学院
経歴
表れ
頭部
たがっ
フロア
ブドウ
上京
各々
悩む
規律
##おろし
たいし
東海道
きっちり
ネクタイ
落ち込ん
パチ
自作
##エスト
##分ける
ファー
##ディアン
ダイヤル
ドクター
妃
アテ
ハチ
優遇
哀れ
山地
数千
新作
日向
汚濁
河原
海面
詫び
黒く
キャプ
たびたび
ゝ
ナス
他国
復讐
成る
松平
脅迫
茹で
響く
近づき
マネージャー
梶
漱
##紀子
湧き
ダイヤモンド
柵
##コロ
なま
イケ
ラク
娯楽
滋賀
異動
要約
踊っ
かぶり
ホッと
カジュアル
シャンプー
スピーカー
交響
偏見
手袋
知性
粘膜
配信
のぼっ
牢
ヒマ
動力
化合
厳格
太子
捕虜
義理
泊まっ
しょっち
知り合っ
也
##舞い
あそ
化し
好む
平ら
造成
##apan
しめる
アイヌ
イデオ
きちっと
ものすごい
しょっちゅう
唾
謀
メア
何に
偉い
情緒
染み
顔つき
##フィック
手がかり
伯父
供養
淡路
無難
破れ
赴任
きもの
ウェブ
ゴールデン
遥
勘案
後述
敗北
有難
燃焼
##かえっ
ヘルパー
マーケティング
趙
##すっ
僧侶
刻み
四半
屋外
昆布
漱石
int
つかむ
とらわれ
はたらき
考えよう
挫
窺
##ツェ
##ber
いり
やけ
背筋
貰い
頼朝
##くちゃ
コラム
ヘッジ
片づけ
##がな
##渡す
博多
叔母
図形
扶助
考古
重複
##ンダー
牽
蜜
##ゆき
アポ
オバ
グロ
コラ
下し
切符
受理
来月
満た
ポンド
アラビア
スティー
漸
##つぎ
優雅
兵力
独裁
はまっ
エース
クロー
伸びる
ギャップ
ミネラル
##くし
##アム
出雲
浅い
おさえ
チキン
見込ま
抱きしめ
ウォーター
楊
上方
冷戦
化石
木々
本願
毎朝
要員
##ージェ
近づけ
##ディスク
肘
##流し
シリ
保ち
練り
襲い
領主
みどり
ホスト
取り消し
確かめる
結びつき
β
濃厚
登る
羽田
船長
誘惑
たまり
フォト
ワイド
ガンダム
おとなしく
却
弊
メリ
メー
余儀
安堵
所長
探検
暗示
根元
裁量
迫る
生かす
アイルランド
ぢ
ブー
リス
云々
共存
北側
専業
春日
##あがる
ちょい
撃ち
静止
馬場
mar
目立た
晶
中性
ポーランド
稚
虹
巡回
年始
粘土
頭脳
微笑ん
ケータイ
乞
##弥陀
ラス
一挙
借地
写っ
留め
駆使
こだわっ
クッキー
##とん
##ネギ
なみ
寸前
新株
青空
ひそめ
ウィル
またまた
##りん
回す
磨き
神殿
筆記
##ロギー
ウェイ
チベット
photo
##ax
頸
##タク
下位
天地
模型
sec
ドコモ
あげよう
まとまっ
エクセル
セールス
##ガス
先駆
園芸
山村
残ら
裁定
親王
おおい
カスタ
プレス
親しみ
欲しかっ
厚く
小柄
悪質
捧げ
気楽
終始
虚偽
許容
味わう
止まら
惣
艇
握る
祈る
良心
近畿
飾る
盛り上がっ
糞
##たけ
##one
創立
規程
バリア
終える
つきあい
アッ
エー
使者
征服
海賊
熱し
あいまい
ブラウザ
インテリア
##ビエ
ジー
新年
方程
誘拐
追跡
ウサギ
加わる
シュート
スプレー
ライダー
美味しく
イデオロギー
##und
mp
戦死
うっかり
怯
##ドロ
交互
尋問
放映
申す
終り
重症
##!!!!
燃える
パチンコ
##■■■■■■■■
鴨
##むい
we
冷却
最強
松山
根底
えらい
ねらい
エリザベス
厩
罵
##ズル
##残し
しな
現物
迫ら
すくめ
ヴェル
ハンカチ
ホイール
引っ張っ
突っ込ん
可哀
断言
炎症
舐め
##サリー
シミュ
もとづい
マフラー
##稲田
モデ
両立
器用
声明
大王
葛藤
##イルド
##スタン
駆けつけ
アクセント
##まき
城下
泳い
産物
着目
バックアップ
レクリエーション
薪
##キア
##ツィ
##ハハ
バケ
先月
先物
媒体
移る
吠
萎
##のめ
兄貴
参拝
癒し
胎児
鉱山
パンチ
色んな
岬
賄
ピー
ホー
ワー
加賀
快楽
絶滅
チラシ
モダン
思いつい
芦
国保
惹か
模索
段落
マネー
ワープ
##ベーション
##パラ
チリ
上演
大山
ターミナル
ポテ
公安
専念
構図
自給
電灯
引越し
ドリンク
メーター
##使い
不動
受取
大橋
宇治
来い
水路
高層
##込める
ストア
ヒール
結びつけ
gp
ケガ
商標
屋上
晩年
ござり
重ねる
乗り出し
けが
愚痴
抗体
探る
株券
焼酎
稼ぎ
美女
高木
all
イチロー
プロバイ
##まう
ルネ
原産
因果
年下
武家
芸人
いのち
とっく
借りる
引き起こす
キミ
公認
残酷
決着
腫れ
高松
##ーマー
レギュ
スタンダード
##........
☗
##ねい
##洒落
万一
占有
四条
攻略
治る
無知
自在
雑貨
ハーフ
固まっ
##デンティ
イスラーム
##もど
##ニカ
宴会
山脈
挟ん
本田
見極
そなた
ぎりぎり
さらなる
ジュニア
肖
はや
凄く
凍結
別途
図面
時折
沸騰
減量
無休
積立
高野
ごとき
出来れ
カレンダー
穿
艶
##らせ
神道
補完
適度
ハードディスク
##めえ
エキ
パブ
単価
多彩
購買
##ーっと
スクリ
ワゴン
情けない
##,3
##祭り
シテ
南方
咲か
遠征
##テンツ
ともなう
アンダー
ょ
函
足利
しかめ
ふしぎ
アナログ
アイデンティ
ばん
人影
品川
店長
浮上
陽子
(>_
ムード
モーツ
持ち上げ
くず
事犯
吊り
水泳
移す
葬式
血糖
キック
早稲田
##ゼーション
獅
##ごい
##ニク
こえ
ひも
みろ
リモ
差押
心境
排泄
渡さ
球場
薬局
##レオン
2,3
切れる
フィルター
塞
玲
##いや
##酒屋
容赦
握手
浜松
狩り
習っ
etc
ビット
フォン
居酒屋
遡
台数
病棟
競合
開館
めっちゃ
ァ
くじ
一刻
不振
慶応
拭い
漠然
義母
重み
しくみ
パーソ
リフォーム
##≦)
胚
##アス
##トコ
##ハイ
エプ
低減
測量
薦め
譲り
エキス
コーン
セブン
ノック
すばやく
サンダル
思い出さ
申し上げる
受託
大物
尺度
本屋
病人
##グルト
##ッポン
オヤジ
止まり
ゎ
臣
徳島
敬意
補佐
面会
首長
##リーム
演じる
繰り広
がっかり
ディスプレイ
梗
眩
麗
ガキ
五郎
幼虫
慣習
苦悩
補充
軍団
アダム
乏しい
できよう
働きかけ
auction
コネ
外貨
如来
##ジアム
ブロー
##アリング
ウエスト
リーダーシップ
代行
動け
漁船
耐久
聖人
衰退
辞任
##づかい
レーダー
##ガリ
一律
劇団
本年
ながめ
ソング
笑い声
言おう
負ける
パニック
##かわ
##ノス
問屋
後世
愛用
支那
飾ら
高騰
いらし
下さっ
及ぼし
ミックス
問いかけ
プレイヤー
ヨーグルト
##中学
事後
何時
全集
四郎
導き
戦士
著名
足跡
##ンドル
コーラ
くっつい
ひとこと
プロパティ
##ロコ
わる
デニ
神聖
day
たたい
担い手
オーケストラ
##qu
##迎え
ゲー
感度
連日
##アント
##モニー
ベルギー
ソウ
ミラ
水上
長所
コンテ
わがまま
バラバラ
japan
##――
褐
シベ
交易
北陸
双子
好ん
市政
理科
赤坂
##かしく
##りつけ
あがり
パール
夜明け
##クトップ
キャスト
ローカル
ワクチン
テンション
胆
エミ
チビ
ツボ
刺身
叱ら
根源
フレン
頑張る
キャップ
持ち出し
烈
はあ
ニヤ
別荘
対等
幕末
膨張
いっそ
はかる
度合い
##じょうぶ
あきらか
ハッキリ
ロバート
カワ
仕え
土器
急行
新羅
昼寝
木の
箱根
##あたり
ドラム
いやいや
スタジアム
躊
##かつ
##去り
さび
ナル
九百
命名
差額
種目
通達
かげん
にわか
ウィン
にっこり
##ロイ
##釣り
##食い
タカ
ダニ
ラウ
吸う
街路
##キュー
はなれ
深める
##ューサー
love
成り立っ
##ルー
##町村
こみ
にこ
予知
出店
柔道
じょう
バット
侮
硝
当分
祖先
紫外
おこなう
だいじょうぶ
楼
作動
細長
過激
すてき
わかれ
緩やか
やり取り
窯
遵
dl
トー
人柄
対日
年月
形容
東側
総長
スキル
デスクトップ
コム
威力
最上
海老
疑う
酸性
マニア
モニタ
止まる
##ぶれ
でっ
はぁ
んで
コク
仲裁
あたた
おやじ
重なり
割り当て
秦
##ズマ
##der
さけ
室町
寂し
税込
##ヴァン
かわら
ピラミ
##グマ
さも
原始
大尉
社交
躊躇
##変わり
定数
実効
履い
肖像
踊る
リット
別れる
曲がり
ヒーロー
im
ビス
右翼
報じ
海峡
メガネ
仕上がり
バスケット
##yo
焚
紡
##ぬけ
##びら
##ウォ
##バタ
ふざ
アム
ベネ
医院
拝見
改訂
日銀
樹脂
溜め
おのれ
##トリウム
効い
器官
回想
直ぐ
良質
テラス
仕方なく
スラ
同日
固い
既婚
降伏
露天
box
ジェイ
広げる
整える
繫
ge
上着
乳児
原型
土台
彼方
梗塞
樹立
配合
附属
スピー
フレー
##もろ
さう
っ子
浅見
硬く
立証
近郊
過度
url
わるい
##漬け
名護
大西
恩恵
目玉
長州
じゃっ
メリー
(>_<)
冥
あざ
たー
工房
新興
漁師
考案
透析
キャサ
何しろ
彰
柚
##げさ
伊東
暖房
洗練
飲酒
きまっ
作れる
ささやか
なおさら
搔
##ウマ
##ドゥ
cr
外食
教団
漢方
##ブルク
ミュージック
楠
潔
##オー
##テス
一元
同性
蛍光
観戦
豊臣
min
##sp
##上っ
##割り
いじ
傍ら
吹く
金色
頼っ
関わら
間に合わ
ウォーキング
ナビ
同伴
専務
巡り
新田
炊き
睨み
肺炎
怨
##チー
サマ
マガ
丸め
右足
熱中
牧師
緑地
貸出
うらや
おしえ
##ざめ
##取れ
##送り
##ary
万全
刻ん
方角
祈っ
評議
市町村
##ングラス
トータル
キャサリン
剃
こた
危う
名所
抜本
毛利
煮る
しつけ
リッチ
教職員
ピラミッド
##かた
不服
借家
処刑
法学
腹部
見な
説く
造ら
ボウル
くち
ひか
佐野
獅子
罰則
落語
しがみ
比べれ
まー
リベ
丁度
無人
生殖
産み
茶屋
##ショナ
めんど
ウィリアム
パッ
ミル
年長
消去
町民
留保
##らかし
取消し
シャープ
狐
女中
寸法
救命
暴行
木製
雑草
##んなり
応える
生き生き
コンテンツ
イモ
ゴマ
力学
多量
導く
常勤
故意
様相
画期
真珠
襲撃
覆い
錯誤
##vice
カンボ
ミステ
フォロー
##みる
##ワシ
##二郎
bl
カス
ソン
叩く
恰好
要ら
寡
殉
##ach
利便
心中
振込
書紀
洗浄
猛烈
獲物
祝福
似合う
大きめ
持てる
ピーマン
ゾウ
怪物
##ight
ったら
よけい
ポテト
混じっ
page
リリース
##ご飯
ソナ
ヨン
封建
柴田
浪人
湾岸
照れ
立案
飢え
ケンカ
つかまえ
ていねい
クリーン
髭
##ちょ
各自
合法
呆れ
鶏肉
##インド
取締り
見直す
ガーデン
賦
デカ
上る
請負
##むき
##ast
あさ
崩し
次ぐ
##ガリー
メモリー
覇
信玄
先ず
単一
困惑
昇格
キムチ
パウダー
打ち上げ
落ち着か
ヾ
##とき
##ルル
##ロフ
##強い
伝送
当方
戦艦
着せ
秋山
脱ぎ
野外
金子
鳥取
読める
丼
##まか
##継ぎ
分量
功績
安田
現存
総称
縄文
自力
選抜
高揚
まいっ
あらわし
引き出す
成り立つ
##be
逐
##ある
イヌ
堆積
大塚
至ら
鹿島
クライアント
##af
##払っ
控訴
日産
白書
腐敗
藤井
##ァルト
##フラン
##????
ダイオ
持ち帰
苦しむ
きっぱり
取り出す
思い出せ
##動き
うさ
カク
ボル
分ら
太刀
標高
画質
発覚
色素
講談
駐在
こわい
ほほえ
かんたん
思い込ん
偏差
制裁
善意
対称
戸田
特典
申出
着工
累積
視力
親分
oec
当たら
ハッピー
搾
淫
むす
効用
南西
呑み
英文
連動
離脱
騒が
プロデューサー
オイ
円形
小島
まくり
数える
閑
##ヌス
ip
一様
堪能
昨今
インク
ポット
幅広く
トレンド
引っ張り
##ステロール
臆
かの
ドメ
初回
吉川
抜か
青色
項中
##替わり
アリス
出せる
見送っ
フォーラム
引き起こし
##〳〵
カプ
バグ
出入
原告
同然
壊し
新車
毛布
消極
どうし
グルメ
スカー
スミス
スロット
☖
謄
##がさ
ワケ
低温
余暇
処女
受精
将棋
査定
治癒
題名
##ンドラ
shop
##そば
せき
のべ
亡命
変異
夕飯
成し
真田
黒田
##ルーム
カート
葵
##ura
待遇
現われる
西ドイツ
##離れ
さぞ
反動
天正
留置
着け
農場
キノコ
シリア
モーツァルト
##らま
##バチ
##仕事
##曽根
##諏訪
先住
共生
心筋
滑走
甲板
県立
遅滞
##らせる
##わしく
こなす
アクセサリー
##ix
##プロ
八重
堤防
映る
歴代
民家
焼却
盗み
通告
##タリー
ing
すぐさま
パキスタン
汝
##だれ
憶え
薄暗
親方
クイズ
コレステロール
曰
##うつ
##タリ
乳首
先程
入園
分権
天神
簡潔
路面
スウィ
大騒ぎ
頑張れ
少なから
ナトリウム
擬
棲
fm
ひる
ムラ
事象
保た
喋り
ガール
ベージュ
コンタクト
窃
##が一
危惧
平家
延期
発熱
誘発
騎乗
##フィア
くだら
サクラ
シルク
万が一
プリンタ
斑
##エフ
スギ
中庭
冷め
反乱
香川
なおし
oecd
ディーラー
##ビル
ハロ
宮本
富ん
小声
建っ
濃縮
相殺
薬品
かねて
やすみ
インフラ
リットル
奔
##おっ
##ang
##ink
てら
ネギ
漂う
複製
訊ね
馬券
骨格
##ったい
転がっ
打ち出し
思いっきり
寅
##もる
だぁ
村田
舗装
花見
質的
転勤
ねがい
うれしく
おにぎり
ナポレオン
##入る
国旗
執着
尊厳
左足
帰還
年報
炭酸
自営
##ティス
vol
あては
捉える
レイヤー
咽
溺
わら
丸山
休む
原発
断念
明細
欠く
湿度
町田
随時
おくれ
つぶし
貼り付け
さりげなく
##ぷら
me
ガル
ネガ
休養
安価
川口
護衛
部族
配線
領収
風潮
##寄せる
おいしかっ
イングランド
勲
全長
和平
年中
極力
解ら
となり
オウム
##寄る
##造り
カシ
土方
抗生
湧い
##ッセル
ゼリー
傷つい
註
##エイ
##コト
つぐ
ダル
創刊
探索
整合
通算
遵守
##ネーズ
シンポ
ロッテ
part
かたわら
##dr
##ギス
##ッソ
##ーっ
ハズ
代官
南京
学科
専攻
洞窟
筆頭
耕作
肝炎
##テージ
##ディン
ゆかり
贈り物
うなずき
ついつい
芭
##開い
きる
乗れ
公債
刻ま
投下
救援
消耗
経つ
被っ
途方
陽性
##起こさ
はやく
##スタイル
餃
##深い
メラ
弾き
所蔵
時効
毎晩
逃亡
造船
ヤクザ
こだわる
鞭
##ばせ
##ボロ
タラ
上杉
出典
南側
台詞
史上
挫折
断定
莫大
餃子
のぼる
スコア
出掛け
活かし
とどまる
フラワー
pm
クセ
ピザ
削り
可決
好ま
島田
水源
遂に
配備
とどまら
トレード
一人暮らし
灌
##思い
あこ
オマ
用紙
秋葉
輪郭
アルゼ
カンパ
マザー
当てる
苦しく
クリップ
シベリア
ダイニング
##ばる
はみ
カサ
学期
暴れ
正し
諏訪
軽蔑
##ウィン
シンク
スケッチ
巫
##っか
万葉
北西
左翼
鳴る
コイン
泊まり
横たわっ
##cr
##ick
修了
入試
弾圧
祖国
開通
やわらかく
輩
郁
じき
下流
屋台
愛媛
春秋
歳月
緊密
見習
さかん
膳
埋葬
増幅
弾い
雨天
驚か
##メット
会える
値上げ
ウェイト
クーラー
笛
わん
即位
定形
星野
空白
築き
軽量
なんぞ
ことごと
さんざん
たんぱく
榎
鞍
てく
カギ
在勤
明石
林道
聴覚
転落
##つぶし
代わる
フォーマ
戴
##との
gr
sy
元来
地裁
大谷
浅野
畜産
直感
誘う
##ガイモ
グレイ
デニム
ギリギリ
付き合う
プレッシャー
晋
作法
多々
大木
山々
未熟
歩け
解り
遠藤
さきほど
轟
##だか
##よそ
##man
分岐
合間
引け
応接
着陸
移籍
空想
計量
調書
近衛
##止める
ジャム
かんがみ
セーター
パレスチナ
シミュレーション
##ite
一大
地表
本国
食塩
おさめ
セクシー
ワープロ
アイディア
クッション
##むけ
##ゅっ
くさ
カニ
全米
利潤
多大
大宮
大石
射撃
恐縮
美濃
見地
重心
##ps
壺
##やさ
##ass
対価
温室
神父
選べ
ちそう
阿弥陀
乗り込ん
立ち上がる
##ace
アセ
二の
伐採
単身
小笠
滞納
由香
題材
##受ける
まぎれ
アーチ
ビーム
ラリー
日本橋
見回し
うんざり
##本木
拭き
甲子
甲状
##り込ん
##ンジン
##テナンス
home
ことごとく
フラッシュ
暁
たこ
アオ
昇進
月間
横山
浴室
総督
このごろ
ともなっ
もとづく
立ち上げ
琵
##もし
丸太
分っ
厩舎
塗る
学説
波長
習い
農耕
##シズム
あげく
おこっ
いまさら
$
伽
##オク
余っ
天狗
当人
悪意
治っ
琵琶
百合
総括
頼る
jav
おこし
はいる
セーフ
デフレ
バトン
売り場
step
チェンジ
ベーコン
ジャガイモ
哺
援護
断片
栄光
河口
番地
白髪
這い
みつけ
ブライ
味付け
フェリー
かげ
ろう
実例
宣告
散ら
白色
芭蕉
藩主
香水
##ラント
エステ
アルゼンチン
シンポジウム
弔
陵
##ノキ
##ith
パク
ポツ
定額
恐る
なんに
られれ
花びら
##ぶき
##ペラ
##ムシ
人道
比重
空洞
精力
魚介
shi
はっと
フィー
帰ろう
遅れる
しっとり
##カナ
公布
函館
判事
懐中
羽織
通ら
難し
養殖
おいら
ととの
ウイス
バトル
率いる
word
ホームズ
一節
享受
喋っ
国外
導い
由紀
皇室
降下
man
かなわ
スパゲ
##ウンサー
##te
肛
##きわ
広東
痛め
脅し
腎臓
越前
##ぐるみ
##サイト
##ンサー
orz
ちゅう
エッセイ
アマチュア
##くん
##ぽど
##開き
中田
分業
岡本
或る
熊谷
現況
芝生
麻生
おのず
務める
閉じる
レギュラー
##つら
人目
供述
司祭
合致
忠告
活字
緑化
若き
表さ
見受け
よっぽど
ふみ
日野
補足
手当て
(^_^
##gr
播
##つま
##リル
―「
あせ
免れ
属性
精子
覆っ
くわしく
##バレ
ビザ
今晩
先方
放し
画素
足首
小笠原
目立ち
ノーマル
唸
衿
##のけ
##シカ
何千
到底
安倍
巡査
師範
思春
断面
発芽
細部
##掛かり
カウント
クローズ
センサー
逃げ出し
呂
##読み
##ime
##our
ちび
ちり
戻ら
議題
顔面
##かみ
##ぐし
##サミ
オカ
悲し
易い
桜井
訊く
とある
馴染み
シューズ
クリーニング
住友
学部
島津
悟り
文脈
製剤
還付
##イング
まんま
アンナ
ピアス
リフレ
捻
"。
ぬる
下宿
伸一
原文
片隅
肛門
mus
名付け
見れる
パトロール
串
##スコ
はて
キレ
シド
便宜
光線
古来
封じ
弱点
戸口
救出
身元
ヴァン
溶かし
取り戻す
メンテナンス
蒙
;;
変容
就い
急ぎ
推し
暫く
浜田
硫黄
隔離
龍馬
##飛ばし
one
オリエ
ゲリラ
掛かっ
マヨネーズ
アナウンサー
延べ
書斎
松江
活気
##カンド
ダイナミ
ニコニコ
厭
坑
##ペル
タケ
プー
両足
並木
代々
公募
口腔
放つ
政務
断る
衆院
野田
det
よみがえ
積み上げ
ウイスキー
##ーニ
##須賀
さな
全域
同人
実物
通販
通院
メイド
知らさ
##ースター
付け加え
立ちあがっ
殊
##連れ
展覧
建立
治り
織物
長老
セラー
出そう
リクエスト
アイデンティティ
隼
あご
一心
代用
内務
山城
本庁
血統
運河
にらみ
六本木
立ち直
##チュラル
フォーマット
中将
公判
別名
制し
少佐
有線
熱湯
生前
バレン
ロイヤ
##ニスタン
取り扱う
振り向い
謹
ギル
トシ
水気
磁気
責務
蹴り
遭っ
##キシン
取り締
振込み
横ばい
覚せい
θ
めん
イレ
便所
劇的
未然
釈放
電動
ケイト
物語っ
ブレイク
あたりまえ
##−)
椿
##たれ
いな
ざっ
もれ
よき
イニ
暑く
空腹
突如
部活
exc
mic
かよう
小遣い
ひっそり
ワイヤー
乗り換え
無理やり
##ぼし
##サラ
両腕
信濃
地蔵
市立
方位
池袋
法師
ハイド
預かり
とりあげ
ストーン
ニッポン
恥ずかしく
魏
うむ
てれ
やく
越後
つまん
バケツ
千代田
うれしかっ
煎
祥
##歩い
##着く
ヒラ
反復
情景
探っ
正統
開会
アフガ
揺れる
つぎつぎ
ブリッジ
畏
##orm
ぱっ
ロマ
右京
奪う
減価
観る
適宜
##ラーリ
こんばんは
ニュアンス
##ly
籍
##now
北上
宅配
打者
歓声
病床
相模
鉱業
涼しい
墳
遷
モモ
代議
冊子
水着
端的
紫色
貰う
くらし
すさま
ひと言
やばい
葉っぱ
まつわる
てらっしゃ
φ
國
##ign
上体
丘陵
完結
対人
放火
甘味
病状
盗ん
褐色
造っ
門前
きつく
日焼け
##きん
##すじ
##まく
##厚い
##醍醐
##ank
人質
判っ
媒介
往来
欠損
点滴
目録
稼い
艦長
都度
##キット
シェフ
スルー
タイル
ナチス
ミクロ
投げる
アフガニスタン
##ピュ
##決め
##ple
ひな
よこ
モテ
予期
再婚
和風
報復
殴ら
澄ん
熊野
聖堂
見本
解け
試行
バラエ
マルコ
気付か
ライセンス
醬
マド
死傷
残留
窃盗
靖国
ぐあい
とおし
べから
ビーズ
しつこく
ボストン
##アラ
##集め
ムカ
今更
侵攻
半径
売春
巨額
朗読
爆笑
組む
缶詰
行進
近辺
サプリ
引きずり
滲
##たた
##ube
壮大
連勝
##かかり
##ディス
##ブック
かぎら
トランク
##ae
仇
杏
玩
##キラ
##・)
やあ
ミシ
伊達
宛て
座標
慣行
採算
此の
武者
異質
継い
騎手
##ファン
いたっ
見知ら
亡くなり
繰り広げ
アカデミー
スターリン
些
樋
##ごみ
グー
上人
広間
思惑
改札
日露
服部
続々
動かさ
強まっ
うなずく
スイング
生きがい
(^_^;)
ε
##倒し
かぼ
マカ
和尚
啓蒙
増設
天体
折っ
捕獲
敬語
最善
森田
武将
満点
破損
語学
遮断
配っ
みやげ
ソビエ
うかがっ
なめらか
ウォッチ
パレット
##てん
##めく
労使
哺乳
掘っ
治す
短歌
細め
車種
頑固
ほんま
建てる
あゆ
せり
ラジ
交替
伯母
地層
旅人
日韓
未婚
虐殺
酒井
##イッチ
##シスコ
ループ
悩まさ
がんばり
ブラウス
ミッション
アニメーション
ie
光り
内陸
厚み
厳し
厳重
反撃
吐く
官邸
探り
粘り
通帳
陥る
電報
飛鳥
##っぴり
レバー
疲れる
##ナショナル
サングラス
煽
(・
タダ
原動
松田
武道
電機
##やみ
前夜
感受
水溶
造形
エプロン
移さ
絶好
鶴見
##ごはん
きびしい
##go
##じま
##ガタ
作文
外人
安藤
局長
番頭
端子
細か
締切
##_^*)
トレイ
出迎え
コンクール
フェスティ
棺
蔓
##すら
ph
シマ
乙女
伯爵
傾い
##ストル
##テール
いっぽ
大げさ
##ルタント
いっせい
ソビエト
ヘンリー
チャールズ
(*^_^*)
service
##pm
匿
嘔
##シエ
##トウ
##上り
土手
大雨
容認
河野
淡々
町長
矢印
ペニス
加わり
微笑み
爽やか
つくづく
マガジン
入り込ん
コンサルタント
毅
##ロニ
万能
半額
寝台
朝倉
根性
欠如
税理
誓い
はさみ
流行っ
裏切り
ハリウッド
##覚え
20
丹波
小僧
撮れ
断ち
病原
納入
親密
過言
金魚
ちらり
とっさ
命ずる
表わす
ライフスタイル
##ニヤ
##ens
ばれ
デメ
ナナ
夜空
意匠
操業
満喫
着き
義経
草原
誠意
豪雨
起業
避妊
魔術
しんど
シカゴ
リレー
ラッシュ
甥
##ボウ
##引い
すえ
すこ
三田
泳ぎ
滅多
潰瘍
熱意
航行
遭難
開店
食用
カエル
モデム
モール
うかがえる
ハンガリー
##おき
##辛子
af
そー
テル
ロケ
取消
呆然
多め
工藤
煮物
瞬時
遥か
靴下
マント
助かっ
暖かく
目当て
チャット
痙
諭
鷲
##勝手
ギア
切除
南極
寛永
御殿
忍耐
極東
殴り
湿気
生計
精霊
純正
老化
谷川
軍艦
陰陽
シーツ
ヴァイオ
くりかえし
カウンセラー
デコ
包囲
多角
法華
特質
痛む
風情
##ヴェル
しるし
みかん
楽しま
見逃し
まなざし
カンボジア
##積み
##ond
フン
削っ
大河
殿下
河内
算入
補う
親鸞
観覧
長屋
手渡し
見守る
4000
フォード
撒
##しき
##ーラ
##ian
さげ
ネー
ブッ
下駄
回帰
賢治
障子
騙さ
##がいも
イチゴ
エアロ
ぐるぐる
スッキリ
ニンニク
兎
オモ
マキ
京子
尾崎
欠い
水野
目前
福音
解く
辛く
重度
騎馬
##ープル
でかい
とまっ
備える
長生き
つくろう
ナショナル
##ネン
きつ
亡き
交え
休ま
体型
口元
変遷
川上
条文
醬油
除け
飯田
おどろ
っきり
のぼり
チャイ
ワタシ
輸出入
コンプレ
思い浮かべ
インディアン
凌
ds
判り
妖精
幸子
弱者
至り
製薬
車検
ウェル
スーパ
捕まえ
プラント
キャプテン
且
##とど
##ミナ
##ヶ原
##助け
のけ
台帳
宝物
導か
弊害
従え
招か
接待
標本
統括
par
ツリー
スライス
結びつく
##とら
##薔薇
"(
レア
光学
均一
大師
大津
最期
老婆
きめ細
ならん
細長い
預かっ
使い分け
申し立て
ティッシュ
コーディネート
##60
壬
ed
リヤ
巡礼
祭祀
種別
縁起
駆除
利回り
とうてい
じゃがいも
##cc
旺
30
カマ
崇拝
思案
故人
本拠
脳裏
腰痛
過疎
##っとう
ぶどう
捕らえ
重なる
引き寄せ
できあがっ
##ぎる
ミツ
主治
吉原
搭乗
洋子
自閉
見失
スティ
ダート
ボルト
上がら
シルエット
半日
合体
年配
脂質
薄れ
誘致
トーン
日帰り
ファンタ
向こう側
##ディション
憑
晃
杜
##ナギ
たべ
信心
堪え
審理
稼働
絶妙
あたら
コック
コンパ
出よう
取り囲
##estion
エンジニア
コンテスト
インターフェ
亘
嗜
##びき
05
右上
呈し
団子
怯え
戸数
終身
##ッサー
##ence
sex
なくす
レタス
欠ける
打ち明け
ちょっぴり
ナチュラル
取り上げる
瞑
誉
ぬけ
ひた
一変
古今
本心
本郷
構い
辛抱
##下がり
ふざけ
田んぼ
升
庇
瘦
躰
##ツジ
dr
伏見
団結
屈辱
荒木
討議
ぶつかり
ドロップ
プレミアム
インターナショナル
碁
粥
云ふ
共演
営み
懲戒
撤廃
救っ
注ぐ
空母
議定
送金
カント
スマート
立ち止まっ
ドレッシング
蝦
##サム
##セイ
イヴ
ボウ
一端
寄附
店主
栄え
硬直
羽根
能率
語源
賢明
雨水
##ヴィス
プロポ
もてなし
分かれる
罠
##テイ
中原
停め
偽造
前出
失点
客室
往生
直結
配給
頂け
うわさ
かたく
レイン
レール
炒める
突き刺
フレンド
見当たら
おもしろく
question
燈
##バナ
wh
くそ
ずる
ちん
デル
出番
噴き
如き
指向
暮し
満載
産む
縛ら
##レージ
あっけ
スリー
取組み
小田原
震わせ
あっせん
入れ替え
ピリ
創り
子犬
学童
格別
白菜
開口
##出せる
さらし
クラン
ズーム
薄切り
チャート
##グロ
ナシ
ノブ
仕草
休止
効か
存分
村人
決戦
結末
見栄
馴れ
##ットン
rec
しまわ
ルイス
辞める
ハイテク
##ational
疼
竿
霜
るる
イザ
サボ
人前
出家
施さ
譲っ
野口
##ベルク
つづき
はいり
いっぽう
ユーモア
フェスティバル
嘲
##がわ
##ノフ
ケル
フッ
一二
不妊
充足
定住
本誌
涼子
百済
顕微
たどる
はかっ
ステン
締め切り
あらわれる
##ヶ谷
スン
ロイ
不調
多重
島根
持株
有能
浴衣
滅亡
漁場
返品
ユーザ
盛り上がり
##bo
たし
下降
内緒
切開
参っ
在籍
安値
当社
愛国
有益
にぎやか
げん
ガイ
中南
断ら
隣人
高岡
きこえ
チェル
ディーゼル
慕
##ake
使節
募金
山道
悟っ
新婚
法規
津波
きのこ
ふるえ
下回っ
力強い
パケット
取り除く
呻
逗
遼
##テー
##伏せ
うず
よび
ウー
バチ
ホモ
夢見
急ぐ
恵み
手本
焼肉
玩具
痛感
舞踊
農水
陣営
預言
ほしく
プロダ
唐辛子
裏切ら
(^^;)
瑕
##スキ
##楽部
はら
公示
塩基
実戦
対談
常連
既成
曰く
激化
田園
皆無
真空
眠く
談話
遠隔
電球
食後
エスカ
称する
プログラ
樽
ほの
クオ
囲ん
御前
有罪
没収
海運
異国
諸表
たまご
ピック
デバイス
##ロメ
##led
さめ
刈り
口頭
吠え
地質
定価
愛好
架空
申立
言論
髪型
wat
控えめ
美味し
mail
あらわす
作り上げ
デメリット
厨
麓
##ラマ
びん
ガム
下町
中隊
入館
基幹
家来
屋内
手話
松尾
気質
簡素
納期
貴女
賃借
連隊
##テリア
メソッド
インスリン
径
畠
##べり
##ゃく
##支え
修業
敵対
##ージン
アール
ノイズ
染まっ
溜まっ
好ましい
持ち込ん
クリスチャン
##好み
##植物
ざわ
ミズ
作為
坂道
本堂
消失
近頃
野心
##デント
すべり
真っ黒
いち早く
つけ加え
ダッシュ
パトカー
取りまとめ
淵
##ヤン
まり
カジ
ハラ
ユウ
実業
恐竜
東亜
産卵
買物
辿り
##レクト
ござる
フェル
今さら
マッカー
レジャー
ロイヤル
##ah
凛
拷
鞄
##がね
##とい
##コク
##渡さ
##ord
オナ
ユリ
一途
吟味
寄生
常務
社団
編纂
遊園
適量
str
know
ステーキ
マネジャー
謳
いも
にい
ヘッ
マサ
事物
光沢
拷問
掌握
描画
機材
沈み
消印
父子
隠居
can
なおかつ
ばらばら
ニュージー
ディレクター
##混ぜ
づつ
ジル
リバ
一条
信州
出向
命題
忠誠
斉藤
津田
派閥
西田
騒い
##サイド
##込もう
こらえ
クジラ
色合い
あこがれ
ニュージーランド
##もれ
##ock
佐伯
例年
嘔吐
宮内
宿命
宿舎
小石
憂鬱
手口
松浦
目線
陰謀
##こもり
##ナップ
##マイチ
はかり
よろこ
名乗っ
真っ暗
しみじみ
セカンド
ミッキー
サーキット
言い聞かせ
サンドイッチ
鯨
##ダラ
##ッホ
##iss
中尉
北米
大綱
張る
強要
迷う
##ケース
atm
わりと
ベート
イマイチ
組み込ま
倶
##ばく
トキ
バッ
仏壇
作詞
借款
受益
右腕
役職
恒例
所収
波及
薬師
風習
みりん
ハロー
皺
##ぶつ
スワ
ミミ
仰せ
剣道
大金
残存
生姜
論点
鉱物
黒木
ドック
一人前
吐き気
見送り
言い分
梱
漕
そび
ふふ
三木
密か
混ん
無論
輝か
##タウン
書ける
スポンジ
心地よい
##ッヒ
##ish
08
もも
ラフ
利休
劣化
大脳
植木
満開
発効
のせる
悔しい
見分け
フリーター
マレーシア
ゞ
墜
鼠
##コリ
##嵯峨
##ult
コリ
内装
北東
失望
志望
成っ
片岡
痙攣
覚醒
訊き
酷い
##ナード
かわし
こすり
つなげ
行える
らしかっ
ピッタリ
フェラーリ
出来上がり
獄
眞
##ギン
だる
刺さ
粗末
##ロック
めまい
応じる
look
テクノロジー
桟
##ext
ミキ
梱包
綾子
胃腸
赤色
##ッチリ
##リュー
並べる
供する
叫び声
埋める
手助け
うかがわ
ビートル
フィット
言い換え
##、3
##コフ
おだ
ヘイ
ヵ所
出れ
平田
本家
河合
##下がっ
2、3
クルー
メロン
話せる
見合わせ
引き上げる
detail
俵
##なん
##ぼみ
##遂げ
やき
吉本
推奨
撤去
毛皮
気体
落葉
補修
銀色
食感
あける
まわる
ブレス
つきあっ
まとまり
置き換え
##ぼけ
##直さ
人参
国営
増額
大井
標的
溶接
破滅
##バード
あがる
すごし
マクド
ミシン
落とさ
##デーション
スポンサー
侯
挽
甕
絨
##下り
ぽん
むか
出費
口実
姫路
熱狂
発育
解い
記す
##えもん
アイン
フェミ
付き添
動植物
夕暮れ
つぶやき
申し入れ
粋
##タケ
##デュ
##ネー
えび
アパ
代え
合金
問答
変ら
天台
家出
御座
採り
表象
込ん
not
ウォー
スイカ
tube
翁
でん
ゆり
初夏
構内
永井
混同
燃費
田辺
痕跡
遅刻
鳥獣
##リップ
こよう
じぶん
燃やし
ディナー
プロフィ
申し込ん
レコーダー
##ハム
はき
下方
公告
多種
大内
大喜
応対
核心
独創
興行
適格
##めよう
##ニーズ
キープ
フロン
中南米
アンサー
イエロー
グリップ
無くなっ
食べよう
荻
中絶
向く
嵯峨
所詮
##ウエア
おそろ
スキン
唱える
天ぷら
ごまかし
エージェ
思いだし
ストラップ
ところどころ
##まあ
きん
ホウ
ムダ
乾杯
争う
合宿
国費
女将
悪夢
死去
管内
義父
起用
跳び
辞退
かろう
祖父母
0120
しまおう
ジェーム
サポーター
テロリスト
##ブレ
##代子
##直ぐ
むり
一筋
代り
傾き
判る
噛み
孔子
愛犬
末端
秘訣
紙幣
ばあい
目つき
ゆるやか
アクセル
突き出し
見上げる
めちゃくちゃ
桶
さよ
上層
呪文
平然
散乱
荒廃
量的
音響
いらい
かぼちゃ
思いつき
##ショナリズム
バリエーション
傲
盃
##ざさ
##ずん
##つぶ
しっ
じみ
ケチ
元禄
受領
大田
弾丸
悪性
教諭
横田
津軽
浴槽
産出
白鳥
要綱
解任
軍備
フレンチ
見下ろし
かろうじて
##ゴイ
ハハ
個所
匿名
名残
建国
政界
瑕疵
致命
農政
居心地
立ち向
しゃべる
サプライ
チャーリー
##むら
##飲み
わぁ
ナマ
ヘー
定休
従わ
採集
旺盛
本州
来れ
砂浜
稼ぐ
築く
薔薇
西方
面影
get
あきれ
ダーク
手持ち
うかがい
ニンジン
窪
頓
中堅
吉岡
大理
旗本
芸者
あした
よろし
懐かし
いまいち
おっぱい
きゅうり
キラキラ
ミーティング
蟹
##のび
ばい
人手
名作
執拗
居宅
憎悪
技師
書士
##ウェル
ソナタ
掛ける
まあまあ
プロバイダ
脆
匹敵
唐突
太く
対岸
尋常
尾張
打て
東欧
特産
目の
藤沢
通さ
##edia
レント
使おう
fl
ぬく
木戸
貸金
跡地
食道
かぶせ
プラグ
任せる
勝てる
段取り
貸付け
##ンジュン
かたまり
ブルジョ
ベートー
ソーシャル
鵜
コカ
ユキ
乗じ
修繕
左近
抗争
焦っ
管制
腐っ
草津
試料
賢い
長岡
駆逐
##かさず
##ジャマ
##レール
ひらい
ウッド
メタル
ヨット
悲しく
さながら
すかさず
エレクト
振り返り
齢
##セリ
##ブス
##沿い
むだ
即時
楽団
湖沼
発散
花嫁
苦い
議席
転用
##なかっ
うたっ
仕事場
鳴き声
ハンバーグ
ミュージシャン
##oh
##どっ
囚人
延々
滑稽
田原
おこる
立ち会
見舞わ
ドメイン
握りしめ
疫
貪
##むり
##ama
よせ
ツケ
リカ
云い
台地
忙し
摑ん
教官
明快
致死
##テッド
(^_
なかば
よけれ
中高年
エンター
持ち帰り
生み出さ
落ち着く
話し合う
晒
##ヌー
##ポー
##ョー
あな
つや
よぶ
呼称
大別
慶長
伝わり
足もと
そりゃあ
セクター
ピストル
ヤフオク
スティック
待ち合わせ
駈
鮎
##小路
ズレ
中居
内的
妖怪
尾根
尾道
巧妙
憲章
暴露
書庫
絡ん
青く
たまる
マグロ
レンガ
広まっ
サンフラン
##ier
どす
サバ
公然
囲い
嫌っ
最判
村山
横顔
満員
焦げ
虫歯
開戦
キャロ
フィル
モラル
ウィーク
カクテル
ランナー
サンフランシスコ
逝
##ost
ぐい
カウ
仏像
安静
血流
開場
アタシ
埋まっ
手がけ
飲み会
comm
ストーブ
パレード
フィート
##とれ
##メス
おふ
ネジ
客席
来場
##まつり
##ビッド
##抜ける
tok
トリック
オートバイ
##ll
ひげ
まぜ
共鳴
右下
新潮
松岡
梅田
真夏
造作
閉塞
ヤマト
憎しみ
java
くっきり
〜〜〜〜〜〜
〃
纏
釧
変貌
宇都
幾何
推論
点灯
草案
開演
尽くす
泊まる
アルカリ
限りなく
ジャングル
##ては
##むろ
##彫り
##邪気
##隠し
お陰
つん
ムシ
半減
同国
告示
山野
態様
払え
本町
決行
玄米
破り
称さ
要点
過大
力強く
無邪気
食べれ
コンテナ
##ium
付か
信子
入賞
天保
履き
従前
抗弁
断固
格納
熱気
的中
究明
童話
良し
負わ
静寂
##セージ
もたれ
コイル
ステキ
ベンツ
ためらい
スナック
##ry
クエ
セロ
恐慌
盗ま
盛岡
直轄
蝦夷
金田
音色
バンコク
姪
##割れ
##増し
##投げ
##are
バク
下る
主宰
凍り
奉公
委ね
快速
満了
老舗
貧血
##がらせ
シーク
##ities
ひいては
ほしかっ
##sc
{
##泣き
下級
仮想
余剰
南ア
帝王
慶喜
文面
本尊
水辺
熟練
税関
財閥
陳述
##ちゅう
うさぎ
がかっ
思い知
見知り
パジャマ
洛
餓
##なれ
##飾り
体格
果た
混入
病理
空海
離職
##しゃく
しぐさ
区切り
守ろう
ウエイト
追い込ま
ソーセージ
リハビリテーション
##いる
##もも
##稼ぎ
アバ
備蓄
名門
宝塚
強行
性欲
群衆
解さ
駆動
##しめる
res
ギャン
ユース
抱っこ
##つかしい
申しわけ
ジャーナリズム
迂
鎧
##働き
おご
こじ
たき
もり
ゆー
レフ
上院
含有
採っ
極め
献立
異例
石灰
空軍
耕地
(__
グッド
アレックス
コンセント
アルミニウム
藁
ty
テー
ポロ
休息
側近
古事
国交
外す
夜景
工法
有給
歩ん
無罪
等分
紛れ
術後
討ち
説き
道中
##ヴェン
ドット
バレエ
ヘルプ
ルーズ
売上げ
真っ先
はなはだ
作り出す
錬
おむ
ひじ
大村
弱っ
用地
立方
街頭
首位
##ルトラ
おもに
ひかり
手すり
##しかかっ
soft
プロレス
やわらかい
替
湘
##屋敷
##蜘蛛
とげ
上達
同調
国体
多岐
定食
平穏
木曽
終る
蹴っ
音波
##ギング
##ンスター
キューバ
excel
カルチャー
##su
枢
襖
##かき
##八郎
##aki
あす
一息
今頃
代償
住職
内需
包む
向か
挿し
木綿
本市
東山
泣か
用法
瘦せ
##コース
##下ろし
パンク
スペック
リターン
生き残っ
スコットランド
祇
鯉
##恵子
(_
サク
マメ
冴子
地平
境地
接点
本性
物音
石器
罪悪
谷間
贈ら
退治
##ical
かしげ
こぼし
漏らし
おだやか
つぶやく
エクスプ
貸し出し
グラフィック
ドキュメント
曽
##々し
##ちん
##でん
##レア
##袈裟
うご
ニャ
傷病
南下
南米
多忙
愛着
感慨
教習
時速
沢東
白石
請け
賞金
高島
早かっ
浴びる
comp
いきいき
フラット
嫡
大夫
左上
癒さ
紙面
誓っ
金剛
かえっ
かしこ
アテネ
マリン
乗り物
可愛く
震える
アインシュタイン
曜
鮫
おん
クビ
ワル
当番
格段
現し
破棄
破片
私学
筑波
過ち
##がける
##ゼルス
りっぱ
アンチ
(__)
ソックス
ベクトル
##塗り
じん
ツル
乱用
事典
吸引
岩石
本位
狂言
稲葉
蒸発
託し
謄本
軍勢
くつろ
チェン
パラダ
ブリー
##ムス
くい
バネ
凄ま
台頭
因み
定型
悔し
疎開
系譜
##シュー
##レータ
per
レザー
障がい
ひととき
##だら
##シイ
##リヤ
##レラ
スロ
ロウ
倍率
別居
有様
甲府
算数
脊髄
##ごたえ
たたえ
アセス
ビルマ
石けん
等しく
欺
罹
こら
まゆ
今井
例え
入荷
名声
年少
悪臭
接客
本陣
賛同
オーラ
シェル
日差し
眼差し
たいせつ
値上がり
曾
汎
##ざっ
上述
劣ら
和え
和食
壁面
大黒
屈折
機内
歪み
漁港
線維
解凍
謙虚
電信
##バーグ
そなえ
だまさ
タスク
リーチ
静まり
アトリエ
##,5
≫
偵
掴
縞
膣
##奈子
##求め
##麻呂
_)
vo
える
ゆだ
反響
在留
大江
局所
歌声
物権
発せ
発病
華麗
試練
軽快
農園
釈迦
陶器
題し
##ンドロ
##ashi
4,5
かえる
アーム
オイラ
ヤード
おしっこ
プロフィール
##ふれ
##ust
きゃ
ブタ
中等
仏法
内田
山林
恵子
最良
果樹
海辺
発進
磨い
立花
##まえる
あげれ
かんじ
たんに
天王寺
##ただしい
スイート
コロンビア
督
袴
##どろ
##ハッ
オア
両端
九千
喚起
大寺
川島
打線
投じ
書状
毒性
道理
鈍化
領事
##コット
こまめ
仰向け
覚まし
##ショップ
ヒロイン
プレゼン
マックス
持ち込み
##sl
灘
##メラ
##九州
##ean
主語
事変
去り
叩か
宣教
彼岸
極度
深川
祈願
税収
脱退
誤差
調印
金髪
##ニオン
いやぁ
ターボ
北九州
ワーカー
パーソナル
ミュージカル
郭
od
くま
乗ら
休め
定か
対馬
山内
歌わ
溶液
突い
返さ
間柄
防除
やさし
クレイ
リップ
リトル
怒鳴っ
耐える
##press
##ジメ
##走り
卵巣
外的
好感
支局
歩兵
測る
無断
目黒
稲作
課せ
車線
車輪
返せ
那須
陶芸
驚異
##チェル
足りる
サンデー
ドラえもん
昂
櫓
蒔
##ゴロ
っつ
オシ
ハヤ
一概
一転
伝染
修学
各人
国政
平常
当っ
西村
鳥居
##ッサン
##ヴィア
##0000
ちまう
ジュン
恐れる
温かく
ほうれん
アンティ
ファイン
瞼
##つん
むし
乗組
小平
岡崎
民集
芽生
車輌
##ッカリ
つかめ
サイレン
スタンス
痒
##ぼれ
##去ら
##留め
ダウ
ヶ所
全土
内藤
実演
東急
決し
減速
総体
蓄え
##くわく
##バリー
いれる
オゾン
改める
見張り
アダルト
アリバイ
スケート
ソファー
塁
##ame
ne
ネオ
功労
参院
尻尾
従属
撤回
文言
極楽
能登
製鉄
訳し
達人
おおよそ
わくわく
ウルトラ
}
崎
##カミ
##チラ
##ラト
オッ
スネ
タテ
トコ
搬送
本山
身代
離乳
すがた
ボンド
大喜び
大嫌い
引き締
セクション
デンマーク
嶋
紗
郎
##刈り
偵察
先制
凶悪
別表
同感
大平
家人
密集
尽力
美化
行革
貯め
超越
青白
骨盤
受入れ
表わし
##ich
〳〵
けり
すし
シラ
タル
一団
介助
噴出
延び
式典
強固
悩ま
日高
曹操
有権
監獄
相棒
遺物
きらめ
トーナ
バルブ
ピンチ
充てる
含める
with
いっぺん
いつごろ
アップル
カセット
リフレッシュ
斗
燕
##ニエ
##ワク
##応え
へた
大神
宗派
少額
抗原
結集
釧路
##メール
ウォン
下さる
見極め
立ち寄っ
踏み込ん
アカウント
当てはまる
橘
##ire
マタ
在来
志賀
慰謝
新入
硫酸
行え
試作
貫い
頼ら
##ルトル
がまん
アラン
帰り道
またもや
シチュー
思い込み
出来上がっ
auctions
##いれ
##ざい
##ズラ
ほお
ババ
ペプ
伝記
体積
凝視
山手
後年
放課
殴っ
水銀
渡来
進捗
いやあ
ダンナ
ヒップ
宇都宮
られよう
スピーチ
仕上げる
言えよう
ヘルメット
##みつ
##ゴス
##ica
上段
付さ
光秀
大賞
察知
巫女
気合
環状
臨ん
菊池
首筋
いちご
掛かる
賑やか
コンプレックス
##さき
##アリ
ゴキ
一世
初級
利か
原宿
太宰
女史
書道
有田
横尾
無名
目下
社外
聴衆
荒川
補導
贈る
遺憾
dis
もどる
コンド
シニア
メディ
教わっ
うっすら
ひとまず
ウォーク
ブルース
切り出し
スクリプト
トーナメント
マッカーサー
屍
##磨き
##act
"、
なァ
カ年
労災
嘆き
定時
暗黙
極限
玉子
##上がら
怖かっ
book
がんばれ
しあわせ
ダイオキシン
マクドナルド
ナショナリズム
##ぬき
##ドア
##日曜
##飛ん
はば
二条
併合
平坦
強硬
当地
後援
揃い
服従
死ね
水温
深み
遊ば
雇っ
##取れる
##ance
つぶれ
セルフ
中曽根
振り向
行き来
ェ
嘱
##ずき
##ノミ
##ics
シグ
ピル
参道
味覚
売店
夕日
暗黒
渡航
無念
粉末
踏む
連立
防ぎ
ツイン
ホース
生かさ
遅かっ
くれぐれ
ドライバ
受け継い
ぬいぐるみ
##ug
而
##のう
##添え
##返さ
うね
がけ
まか
アワ
便り
労組
岩田
招集
案の
母体
用件
皮質
石段
良き
走れ
風船
##ビット
ナース
パラメ
レンタ
慣れる
押し寄せ
さく
じっ
なべ
一揆
三河
励み
南海
和室
団塊
次女
水晶
王女
白井
祭壇
組成
臆病
詩集
離さ
ペダル
最寄り
ノーベル
取り込ん
すさまじい
レントゲン
朴
##じろ
はち
中火
光子
常任
愛撫
生死
盗難
起床
追記
野中
鉄筋
##ラルド
のぞく
横須賀
つけよう
錆
##王子
##ara
サザ
三四
供え
凝っ
合掌
好物
弘前
搔き
歌謡
清原
産品
起っ
頂く
##ジャン
soc
ひじょう
成り立た
魯
##eck
##per
まへ
カキ
利家
同化
寛容
競売
解読
輪島
那覇
bar
ヤング
つき合い
インディ
クリントン
ギュ
主席
佐渡
健在
和泉
定量
恐い
投機
授乳
根気
物産
腹筋
裕福
電線
青葉
すくなく
よくよく
アンジェ
思い切り
フィンランド
##ca
茅
##ナラ
##届け
##更津
かわ
優勢
史跡
同棲
塩化
定例
平衡
弱火
後遺
本多
椎名
炊飯
血球
連発
適性
頭蓋
##ーチェ
けんか
木更津
ものごと
パンプス
引き返し
##ザイ
##リヒ
##走っ
##oku
出陣
別人
工具
称号
近鉄
選別
酸味
露骨
駿河
だまっ
やり直し
たす
オト
コブ
ニセ
探査
暖か
来訪
水俣
理学
磨く
音量
コマー
ポイン
##ーーーー
シドニー
振り込み
閉じ込め
δ
けし
ぞう
はぐ
れん
ツイ
体感
図式
境遇
就寝
弾く
汲み
治し
泳ぐ
裂け
まみれ
みつめ
大通り
案の定
苦しめ
インテリ
スタンプ
盛り上げ
バレンタイン
はく
オジ
ララ
一室
供用
暴動
木下
機密
殺到
狂気
聴か
謝っ
逸脱
運航
道筋
高台
##ローラ
ひっぱ
乳がん
引き金
武蔵野
アリスト
##ードバンド
micro
モニタリング
ブロードバンド
##ァー
どき
サリ
山間
強大
有償
終点
遅延
##グアイ
##パール
ジェニ
昼休み
薄暗い
しいたけ
メアリー
ラグビー
読み書き
ギャンブル
スローガン
ダイレクト
弄
##スン
人情
伝票
外傷
模範
海苔
溜息
稲荷
間伐
スニー
プロモ
人差し
入ろう
助かり
助かる
名乗る
携わる
ニューロン
啄
据
茫
鮭
##チオ
##トレ
##張ら
##後日
ハブ
優越
勃発
堅い
左下
志願
枚数
没頭
洞察
献金
田畑
町人
直観
等級
聞え
開封
##落ちる
オーガ
コリン
ハッと
書こう
浴びせ
逃れる
うるさく
すっごく
##きら
##当り
ヘビ
争っ
佐久
倍増
容姿
待合
志士
戻れ
採掘
握ら
散っ
ひろげ
##ledge
カレッジ
ボロボロ
読み聞かせ
括
葦
##ニラ
ダラ
一手
人脈
光明
堀江
巻く
必需
料亭
本棚
激減
総量
重宝
魅了
##切れる
ひねっ
パルス
腰かけ
##キュラム
ダイナミック
埃
煉
##討ち
えり
くみ
ベタ
司馬
在職
撃っ
浜北
海中
生け
ましょ
町並み
見据え
cent
入れよう
差し上げ
スニーカー
オープニング
カリキュラム
##がく
##ソク
##合え
##残さ
クワ
下腹
天野
密教
成就
旭川
束縛
模倣
次期
湿っ
管財
締約
花壇
調教
##モロコ
her
おもわ
スノー
フェイ
亡くし
添える
しなやか
ピッチャー
壇
閃
##むく
##利き
ニー
モス
三国
下地
失踪
小包
村落
欠席
消さ
筋力
築地
騎兵
たけれ
後ろ姿
しょうが
##メーション
ビートルズ
堰
##やけ
##デイ
##ヒル
##iro
みす
些細
係長
半月
堕落
彩色
村長
概観
殺菌
##タール
エント
ゴメン
選べる
##ゆく
##ドラ
ナー
ボイ
ヨガ
一味
三好
助長
司教
念願
未遂
永田
米子
雇い
set
サンゴ
ドッグ
役立っ
日の丸
##ヴィッド
ボディー
抜け出し
しがみつい
榊
##アナ
下層
信徒
公爵
同種
土間
壊滅
大作
帰し
揺さ
潮流
無力
甘み
真意
約款
網膜
血行
陸奥
駈け
vii
つきま
マギー
メタボ
ちょいと
もろもろ
葡
鄭
##uki
ちい
列挙
始動
家光
抑止
母音
深々
要る
進入
##ゼット
sup
コロッ
シック
ジャイ
7000
傷つける
ファックス
##のこ
##付く
とつ
ゲン
培地
天守
官吏
日比
晴明
有意
比し
神学
股間
臨む
軟骨
飛騨
かけら
だらし
ろくに
スピン
ペルー
倶楽部
埋もれ
捕まっ
カタカナ
グローブ
投げかけ
間に合う
##ードバック
ウインドウ
コマーシャル
フィードバック
かご
ハウ
ヨハ
中井
出頭
刑罰
増税
太り
振ら
曜日
最古
材質
装っ
造る
##ッケル
かなっ
戸惑い
##フォリオ
キュウリ
サーカス
ペイント
レビュー
大いなる
ランニング
##はっ
##タキ
##深く
",
万事
岩崎
持分
推察
次長
潜ん
牡丹
王者
返却
降ら
陥り
あきら
おんな
たてる
もぐり
チェコ
凝らし
心構え
親しま
訪ねる
身動き
##モロコシ
ipod
うっとり
ことわざ
よかろう
突きつけ
落ち込み
ビジネスマン
かず
わっ
シネ
催促
帰省
授与
楽譜
歪ん
民謡
現職
病変
突起
##ンジャ
おわり
すっぽ
まぶし
オード
ポーチ
見合い
やめよう
グレード
ドリーム
作り出し
ステンレス
レイチェル
##エム
つば
イブ
グッ
ヌー
代物
供し
分譲
家中
小豆
悦子
横綱
青銅
高圧
仲良し
かわいく
取り引き
アセスメント
≪
上等
付し
和ら
城主
外界
急遽
東証
楽観
背骨
豊島
豪族
軍縮
遠方
##けりゃ
##ロッコ
だまし
もどし
パーマ
ブース
リフト
呼び名
閉ざさ
メロディ
受けよう
見まわし
プレビュー
スキャンダル
朋
殷
藪
##レナ
やみ
ラマ
主食
冷た
前々
墜落
小鳥
直行
軽視
迫害
隆盛
##まわる
もらし
カバン
カルテ
ギャル
サイク
ポートフォリオ
鞘
鷗
##ung
ぜい
のこ
ぼろ
ザル
一撃
判別
反転
歓喜
牡馬
蜘蛛
貴様
転載
##のまま
##ーバー
うずく
ちらっ
パンダ
寂しく
携わっ
head
タマネギ
真っ直ぐ
芥
##エネ
##her
むく
サッ
兆し
冷房
北斗
原案
営ん
国分
多用
府令
生い
突進
配属
飼う
館内
馬力
鳴い
あから
##リッシュ
カーボン
リュック
##ラクション
咬
楕
檜
粟
艸
##だつ
##甲斐
##ans
##omo
倒す
労力
口径
壬生
奨学
抹茶
接合
産生
空け
血清
軍部
閉店
##っこい
おろか
リーズ
コスモス
ありのまま
ミステリー
トウモロコシ
弧
##ナマ
##遠い
フタ
力士
外壁
学識
律令
盆地
紀伊
##ステス
まとっ
名乗り
ブロッコ
リモコン
♂
゙
##ずい
##グレ
##ノム
ぬれ
供さ
偽装
初歩
囲む
型式
塗料
夏目
死因
積雪
老朽
被爆
館長
##リーグ
あらわ
イルカ
上手い
勤める
キュート
コンサル
エンジェル
ジェンダー
◉
##九郎
イソ
刃物
勘弁
区内
喘息
失調
探究
楕円
浅く
裏面
mat
たたく
とてつ
明後日
行き先
ささやい
ロッカー
##ツキ
##ラフ
##儲け
##回す
##_^;
ノア
不運
保温
却下
天草
宮中
本塁
治ら
特約
直撃
贈っ
踏切
過酷
野原
防備
霧島
##ガード
こない
そらし
ビート
役立ち
いっこう
アーサー
エリック
マスカラ
サプリメント
愕
蕾
##ずし
かー
出走
変態
太夫
家政
彫り
新井
渓谷
肥大
解っ
誇っ
速報
部局
鎮静
##しょう
pre
すすん
せっせ
ねらっ
やがる
ラック
みるみる
コミック
フライト
スプリング
ホームレス
ヨンジュン
取り入れる
≦
棋
濫
ソバ
平地
性器
慈悲
撮ら
格安
漬物
連覇
酵母
fre
ルーツ
乗せる
総じて
酔っぱ
##クトリア
じっさい
とことん
ダイビング
引き受ける
浮かび上がっ
##瑠璃
##長期
エマ
ケネ
三条
上原
中西
体外
啄木
域内
大口
好か
小雨
愛称
磯子
祇園
競走
紅白
隔て
##チョフ
おかみ
メーク
ロサン
早起き
##ストリー
エントリー
斯
砦
##イプ
下す
分断
地道
塩素
木立
楽章
激励
無茶
葡萄
郷子
配下
阪急
##がれる
##こもっ
##ードル
くぐり
さかい
ひらめ
やめろ
ゆうべ
バース
パセリ
パッド
決め手
滑らか
見なさ
すんなり
ずーっと
変えよう
書き出し
語りかけ
あからさま
ファンタジー
knowledge
##ma
ィ
峡
どろ
ふわ
リム
伝言
余談
信条
共用
北村
小西
巡る
県庁
移送
竹中
花束
表題
託児
車庫
養う
##ジング
##レッジ
うける
しから
ねずみ
コラボ
フロッ
妨げる
おさまっ
ソフィー
ハンター
§
##抜く
ガタ
一色
人称
仕入
元本
嗜好
土俵
妻子
少将
新婦
来客
浸水
消息
測っ
自負
萎縮
貸与
賀茂
遊女
トーマ
レター
ロッド
仕切り
大まか
驚かさ
ゴキブリ
ロサンゼルス
##77
凸
##並び
##歩く
##部屋
er
ke
―、
すげ
キル
ニワ
ノイ
云わ
分娩
反日
採点
断然
満期
異論
着信
めがけ
ベリー
下回る
できごと
タイムズ
引き継い
折り返し
振る舞い
アシスタント
叡
##ais
左腕
抜粋
無謀
融通
隅田
##ータス
que
ためらっ
シャフト
フェイス
ボーダー
マイナー
÷
杭
##ぎら
"“
ドミ
傲慢
八郎
創価
古川
国歌
憲兵
採決
星座
朝刊
段々
潰れ
甚だ
終盤
親類
迷わ
##ウンス
##ケード
すすめる
イースト
取り消さ
カーペット
宰
攘
萬
##コツ
タネ
タリ
ハネ
制覇
大川
学芸
年内
幼少
注が
湘南
漁獲
灰皿
胸部
覆う
試食
軍国
農作
配送
すわり
分かち
有難う
あいにく
ヒーター
フレーズ
持ち合わせ
セッティング
娼
索
諜
##エラ
##直っ
if
らく
一門
傍聴
先手
切実
声優
大字
度数
挑発
有数
榎本
沈む
滑っ
焼か
病態
種族
落し
負い
貼る
郷里
附帯
鳩山
##ティヴ
pol
ローラ
せっせと
クイーン
ワックス
インスタント
##ef
孟
朽
膵
##ッペ
##伝え
##衣子
つと
カゴ
不尽
優待
全盛
呑ん
強姦
文体
氷河
減免
電位
##合える
fax
ver
いつ頃
ぜんぶ
パット
膨らん
クリスト
プラット
ふさわしく
レンタカー
##なす
##セロ
##テラ
公家
吸わ
定理
投棄
牧野
石鹸
給水
脱却
街中
見聞
隼人
零細
##バイル
ちなん
とかく
転がり
カントリー
タイムリー
†
鯛
##よせ
##サキ
##ネコ
##回さ
ヘタ
ポケ
企て
冴え
同書
威嚇
摘発
灯り
装い
途絶
ううん
ややこ
バード
或いは
載せる
##フェクト
きらきら
アイロン
ステロイド
ヴァイオリン
##po
揮
盾
##チド
##強く
##−;)
とま
ムリ
利根
地場
大森
官能
対峙
怪獣
改築
白川
紛失
線量
転ん
連関
遠野
##やかし
ありゃ
でかけ
ココア
リサー
宝くじ
ときおり
ぶらぶら
コットン
タイマー
キャンパス
エージェント
##ek
えん
トモ
儒教
児玉
利得
勾配
困ら
夕刊
攻勢
月経
点在
賞味
逗子
##ッスル
##テレス
つまっ
ひねり
アンタ
試みる
いきさつ
こたえる
取り寄せ
持ち帰っ
送り出し
メロディー
ベア
安置
張ら
微か
心底
快く
旋回
異変
白衣
解禁
org
ハット
奥行き
芽生え
いらいら
てっぺん
オリエン
ワクワク
始めよう
##,4
扁
湊
##セー
##揃え
めず
催眠
凝固
出撃
利率
変質
尾行
思ひ
急が
昼夜
沈下
牽引
狙わ
瞑想
鎮痛
##ital
3,4
ばっか
クーデ
ポピュ
倒れる
溢れる
トースト
バタバタ
味わえる
悶
##シマ
##ナリ
##ラブ
##ヶ岳
##和子
##ash
kb
中盤
乳母
先般
力量
嘱託
学長
文子
日立
末日
計り
貰え
辞職
遊牧
部員
長嶋
黙々
##じゅう
##リアス
うなぎ
まくる
八王子
処する
出向い
裏付け
結びつける
ウィンドウズ
アルファベット
##34
喝
曳
##カツ
sm
ほし
わび
アユ
ピュ
人身
冷水
家々
帯域
月給
有馬
片側
真宗
矢野
知見
胴体
son
もとめ
ドリル
似合わ
寝かせ
生き延
good
spec
おどろい
プリンス
持ち込ま
書き込ん
牙
##すぎ
共犯
在る
小指
悔い
揺る
散り
月刊
沈め
激し
版画
破裂
続出
顕在
黒髪
龍前
たがら
寄せる
準ずる
道のり
##ハイマー
スカーフ
ユニバー
カンパニー
##進め
久留
任さ
探求
月日
準じ
焦り
照会
眠気
経ち
ぐるみ
コーポ
ヘルス
ペリー
ラング
見出す
ぶつかる
コショウ
メンタル
亡くなら
まく
らん
れい
劉備
呼応
布告
建つ
投球
授け
換え
擦り
東郷
火の
立入
節目
終焉
耐性
背広
血中
貝塚
集い
からみ
つくれ
ひろば
ルーマ
見張っ
見捨て
論じる
途切れ
テイスト
好ましく
卯
較
##さび
##ほう
つう
中佐
攘夷
未定
柳田
潰し
茶道
装甲
訊か
起点
送迎
遊戯
量産
麻雀
##ラビア
お好み
エコー
カラダ
サマー
ミセス
不可解
聞こう
お好み焼き
ルーマニア
##ya
廟
飴
##awa
ヒゲ
ボブ
ヨリ
子猫
曇っ
異端
返金
きまり
しかけ
はしゃ
気まず
講じる
いちおう
カスタム
ブルック
身の回り
バレーボール
##ual
ロジ
半角
固体
守れ
山荘
希薄
強み
永住
無礼
秒間
絨毯
脱走
葉山
衣裳
解像
講堂
迫り
量販
長安
関白
降水
障壁
##ワット
##ワール
うんと
ためし
ふるっ
キャス
トンボ
ペイン
ポリス
ライヴ
行き届
顔立ち
こないだ
カーソル
ステレオ
ニーチェ
フロイト
おとなしい
ポジティブ
モンスター
ピックアップ
ブロッコリー
##ri
俯
粛
##なめ
##のコ
##よし
##ドミ
ねェ
アザ
不備
世俗
交番
大砲
耳鼻
草木
##り返す
あはは
かわる
ほとり
みゆき
フェニ
四角い
裏返し
コーラス
恐ろしく
盛り込ま
watch
できあがり
乖
剰
糧
##あん
##買い
北野
単行
教義
敬称
沿線
波動
筑紫
驚愕
ミラノ
損なわ
かっこう
バリバリ
苑
パロ
三宅
卓球
即決
未練
概ね
眼前
祝儀
編入
鑑別
電化
鷗外
じゃま
可哀想
##レンツェ
ケネディ
シャルル
素晴らし
##dd
##やる
すず
アソ
分り
夏場
小隊
山陽
形質
放浪
母性
結束
観賞
貸す
貼ら
鈍い
陣痛
##飛ばさ
おむつ
キリン
トルク
フック
交わす
値下げ
省エネ
ホステス
吐き出し
遠ざかっ
フレッシュ
混ぜ合わせ
##me
禿
鳳
##やま
##井沢
きょ
もめ
ペイ
円盤
批准
投影
改装
散布
特攻
登別
開港
どっと
ふるい
アロマ
キッズ
ステイ
尽きる
納める
軽井沢
亡くなる
world
キログラム
咎
##ぼこ
##津子
ワラ
不定
中傷
傘下
同月
大麻
小口
恥じ
感嘆
腹痛
薄め
送れ
集権
##ナント
mem
rep
かえり
はずす
ふれる
曲がる
足取り
ことさら
もしもし
アトピー
スパイス
モバイル
思いきり
エドワード
栓
毀
##ぐん
##どく
##戻り
##use
いん
ほろ
ネル
万博
不平
不眠
充当
市営
座談
挑む
救護
根幹
概算
歪め
浪費
浮世
猪木
献身
盛っ
盛大
老中
##チレン
##ッシー
##ナート
##落とさ
戸惑っ
geoc
しんどい
取り決め
飛び降り
じゅうぶん
アリストテレス
##あて
##ぬし
##ゥー
##ラリ
##踊り
ださ
ねこ
デブ
バツ
伊予
出火
呪い
多面
洗礼
洗顔
申さ
足場
郡山
重傷
闘う
領地
くすぐ
つかい
ガレージ
タイガー
チャネル
引き締め
geocities
##ww
佇
踵
##比べ
サビ
レバ
侮辱
出馬
大原
封鎖
序列
淀川
滅び
無機
窮屈
竹下
逃避
頂戴
およぶ
にらん
ふくま
危うく
8000
わいせつ
イレブン
##レツ
伝導
異物
課さ
釈尊
野良
震度
##ダント
##ホール
あそび
かくれ
こすっ
ふまえ
もどり
キャピ
スズメ
長かっ
いただか
さよなら
カラフル
サルトル
スチール
ディープ
ハイキング
ワークショップ
##マド
##持っ
##日市
##ann
」―
こぎ
とじ
三振
人文
加齢
十二
大方
安芸
島々
疼痛
真弓
続か
##クトリ
##苦しく
des
おもな
ずらし
ふり返
ほこり
ミカン
煮込み
美味い
解する
type
あとがき
コロッケ
ダイエー
盛り込ん
モジュール
氾
膀
詮
##でる
##ぶた
##亡人
##着き
##ont
##son
db
つづ
ぶる
ビュ
内戦
打開
提督
本場
短所
祝う
絵図
継ぐ
縛り
縦横
脊椎
荘園
身辺
造林
高官
sty
おおき
さつま
キツネ
タブー
ヤバイ
未亡人
いたって
たずねる
リサーチ
取り込む
受け継が
生まれ変
こんにゃく
壱
弛
糾
##かぶ
##みち
つど
トカ
ブツ
ポア
一線
付随
城壁
定石
日陰
絶叫
良さ
##下げる
##合わさ
ひとし
シャイ
涼しく
くるくる
ぐったり
ふっくら
♀
先導
刺す
協約
召集
土屋
建前
徹し
所沢
更年
本丸
福沢
膀胱
趣向
過敏
野蛮
陰性
##セイン
##ator
mod
ぞっと
ふくめ
もうけ
淋しい
##ファルト
アリーナ
カプセル
ハンディ
アスファルト
##ササ
七夕
不祥
乖離
嘆い
新郎
王妃
脳内
西暦
触る
邸宅
陳列
##5000
おおわ
トニー
ルーク
分厚い
取り外
由美子
真理子
cont
とつぜん
ひろがっ
アレクサ
取り扱っ
生き残り
刹
巴
般
賊
##マリ
##府県
##通っ
アベ
ナノ
三味
国別
坂口
変り
校内
毒素
無職
物的
発泡
短大
階下
##サンス
##落とす
もてる
スズキ
備わっ
日の出
ありさま
アタック
ピエール
取り込み
踏み出し
彷
曙
畔
##ぎわ
##だり
##ear
あぶ
あま
せつ
ツバ
レト
動態
叙述
大判
天理
奮闘
時分
暗記
杉山
材木
松原
森山
治水
洋風
洒落
##フェン
たやす
エリス
寄り添
惜しい
痛かっ
ディスカ
取り消す
差し支え
イタリアン
テレビジョン
婿
中級
出く
割当
吐息
市税
後頭
比喩
毛穴
練馬
自白
西川
語句
通わ
道教
##がえる
ちょこ
アナタ
ペンキ
中長期
かけがえ
アスパラ
切り離し
引き揚げ
押さえる
組み換え
アナウンス
クリスタル
醒
##けさ
##にゃ
さば
よじ
ナオ
ユン
リキ
円安
割る
壁紙
大軍
大輔
嫌う
望め
本命
浅井
産後
砂利
繁華
荷重
農用
長身
頑丈
##stem
ゲノム
まちがっ
ダニエル
トーマス
ペースト
待ち受け
追いつめ
スペクトル
モーニング
γ
吞
掻
##タラ
##リコ
のめ
ふむ
シバ
不吉
効能
卒中
古本
堅調
安楽
常用
本数
氾濫
流布
直角
紙袋
素子
美貌
耳元
道端
醍醐
電電
黙り
##グラフ
##チョウ
カイロ
チョン
引き取っ
′
酪
##ジロ
##ヴン
(;
ec
手放
木工
正に
歩む
発車
短編
銃声
離島
高崎
##がろう
##ヴァル
きらい
カツオ
ジェフ
歯磨き
近かっ
おふくろ
ヤクルト
##ph
ヅ
ひま
一因
争議
共助
同胞
摘出
歌劇
歩か
狼狽
累計
至急
船団
長者
雅子
風水
##ットー
ほぐし
カワイ
ガット
コンソ
ロビン
切り裂
恐ろし
聞き手
見合っ
....
食べもの
さかのぼっ
うらやましい
フィレンツェ
ベートーヴェン
櫛
瀕
##おる
##めし
##ナウ
##参り
えさ
ルビ
亀裂
前走
剰余
占拠
唾液
家老
居り
当期
探せ
敬遠
断熱
新書
松坂
発祥
義姉
菩提
行程
議院
酒造
##ュース
##line
あの世
買い手
ニワトリ
凄まじい
ボクシング
剪
琢
藻
##ニシ
##ベイ
##ミュ
かる
トス
ビラ
内野
否認
夕刻
大差
宮沢
広々
持家
旨い
景品
曲名
演算
炭化
発砲
百科
自称
菅原
評定
諜報
配管
##散らし
##icle
ますれ
サーブ
タイガ
国内外
泣き声
6000
アルプス
カッター
ゴロゴロ
凧
湛
##キビ
えら
しむ
つゆ
八木
同窓
天上
廻り
惨め
愕然
感傷
撃た
日報
概況
横目
此処
浮遊
清盛
火星
白根
破る
磁石
語彙
防水
##まぐれ
あかね
いそい
エール
マダム
引き裂
感ずる
ともない
ひときわ
シアター
ウィザード
睦
諫
##逃げ
じり
ソル
ミヤ
下段
光ら
宇佐
山麓
広め
整数
新曲
昇っ
昨晩
男児
結城
緒方
脱毛
財界
連行
駆り
##たてる
del
おでん
アンプ
パッチ
何もの
害する
格付け
険しい
クラッチ
キャラメル
ルネサンス
コントラスト
レコーディング
............
糊
膿
##ぞろ
##lec
##ong
すけ
むら
一寸
二郎
倭人
健一
全開
刹那
歌人
現像
直通
符号
給油
老年
茂み
起算
通夜
鉄板
開閉
高尾
鳴く
##リウス
car
ふくら
アンモ
エレガ
カリス
付け根
歩ける
近寄っ
ウォール
暮らせる
コーディネーター
樫
##ノイ
ゼミ
ナリ
一足
付録
前身
助産
勃起
勇敢
堀内
山の
強気
強風
日清
柚子
溺れ
漫才
白黒
終末
配り
防護
電荷
んかっ
ガッツ
ニャン
傾ける
安らぎ
降ろし
がんばる
ハンセン
めずらしい
プレゼンテーション
姐
##さて
##ふら
##らぐ
##ソウ
##知れ
##que
こね
亀山
劣る
単体
単調
多年
寄る
寝床
小切
悪徳
拒ん
整然
東芝
洋画
無形
片道
続行
船橋
苦難
落合
講和
週休
酒場
醸造
陸地
電鉄
音質
ケリー
ネイル
仕える
如何に
知ろう
飲める
カテゴリ
フセイン
レーガン
差し引い
佃
妾
蔣
##そか
##ザル
##崩れ
##返る
##row
南東
坐り
威厳
家系
想起
日和
明言
暖炉
確固
舞踏
西南
質感
退去
遠山
鼓動
いたす
ふわふ
コンボ
バグダ
費やし
シリコン
ラウンジ
扮
##ブズ
##荒れ
カボ
人為
伝来
嗅ぎ
委嘱
室温
山陰
広瀬
思ふ
旧約
模擬
牝馬
界隈
競い
軌跡
いたい
パズル
久保田
伸び悩
腰掛け
責める
鳴らす
取り調べ
嫌がらせ
ジェームズ
ソフトウエア
塵
甦
軀
##あわ
##ピカ
##マツ
##メイ
カカ
同席
天子
奉納
炭鉱
生駒
監修
築か
襲う
難易
高貴
アレン
先行き
入れれ
小さめ
play
ふわふわ
シグナル
セレクト
ブレンド
ポピュラー
##ra
准
楯
##つる
##むっ
さー
みの
カズ
侍女
布教
戦隊
摘み
校庭
派生
熟成
狂い
磁場
移入
解る
近親
重臣
闘っ
面々
##プリカ
##リード
こだわら
ぜったい
思いきっ
申しあげ
箕
鄧
##飼い
チー
五条
今治
伊織
内定
出羽
北欧
参詣
各省
小人
廻っ
指図
損金
日用
有っ
母国
煙突
煮汁
石橋
雑談
骨董
おびえ
よこし
アース
ヴェネ
振る舞
静けさ
見積もり
いらっしゃっ
##,2
±
亦
舵
##セフ
##見え
交配
勲章
地代
官公
容積
恭子
抹消
溶岩
立川
総統
羽目
貫く
車掌
遺書
##オール
##ルダー
1,2
いわく
インプ
ピット
ヴォー
手書き
見立て
埋め立て
廉
淑
##きび
##越す
##ade
)"
ウマ
カチ
コケ
兆候
勝頼
口紅
土浦
塚本
孤児
常陸
強迫
文様
満月
犯す
献血
登用
紀州
赤外
近似
野鳥
量子
雑音
who
くるみ
だし汁
ひさし
ホタル
マルク
手早く
from
オールド
ショパン
ムービー
思いこん
羨ましい
ニュートン
緯
##おれ
交感
傷口
免責
内在
参列
反感
命中
押収
杉浦
湯気
球根
睨ん
秩父
米ソ
納言
賭博
頷く
##ボーン
まぶた
ルソー
小切手
軟らか
##スタンス
ネガティブ
フロッピー
イノベーション
プログラミング
寧
掟
腱
##ホー
##芝居
位相
公約
古賀
右肩
常磐
当主
後任
所轄
松前
水族
発端
自尊
行儀
邦人
##まみれ
doc
くるり
ふくれ
##ition
ジャンボ
メッシュ
ルーター
レーニン
ツーリング
切り替える
スタイリスト
組み合わせる
プロテスタント
狸
##こい
##カム
##茄子
##ech
em
のろ
オク
一所
下さ
伝播
全滅
別個
博昭
心拍
煉瓦
着色
神仏
積ま
電器
養老
##able
しっぽ
まいる
パウロ
ヘレン
大して
存する
引上げ
adsl
line
time
ただただ
つかまっ
ステッチ
チョイス
アクティブ
スウィング
アンティーク
##∀`
翠
陪
##プン
ざま
トク
ブス
ヘロ
ボト
三昧
両替
保留
凝縮
千秋
卵黄
塗ら
大男
打席
時給
流石
逃走
逢い
##トリー
##ベール
mas
いとこ
すれ違
たけし
メトロ
出稼ぎ
照らさ
風呂場
ドキュメン
ピアニスト
帖
櫻
膠
駕
##おの
##ョロ
イェ
モリ
リピ
中指
信任
先天
再三
医科
半球
実地
徹夜
感知
浸し
湿地
片栗
笑え
編ん
胡椒
重役
高裁
##ングラ
ひと口
ゆるめ
ジュー
こしらえ
ひまわり
びっしり
むき出し
ジェイム
マーカー
取り替え
投げつけ
system
チューリップ
##ji
臼
螺
##仮名
##anc
仰天
城山
始終
宇野
敢え
深層
混在
網羅
線香
触ら
転入
通則
##ハウス
おぬし
なじま
ケチャ
停まっ
思い描
掛かり
クルーズ
シロップ
生まれ育
見下ろす
ハンバーガー
茜
##ミツ
##矢理
##ife
ゴン
ザン
中京
乞食
厨房
当る
心細
教皇
段差
沼田
海藻
激怒
目印
福山
美学
胸元
芥川
頭取
額面
##ower
くずれ
似合い
散らし
重たい
ふりがな
みっとも
アフター
引きずっ
無理矢理
##ぼす
##ぼり
##晦日
ハゲ
ブナ
不断
乳酸
仮称
体勢
入団
冬季
壁画
字幕
束ね
欠落
次項
火薬
範疇
聖職
蔓延
要旨
エッジ
サント
儲かる
勧める
大笑い
##リットル
オルガン
セクシュ
ワイルド
成り行き
生きもの
##ぼろ
まろ
ゆず
シワ
三成
人命
分る
吹っ
微量
改変
昔話
杉本
正日
水色
神楽
節子
自助
血栓
西口
見よ
醜い
閣下
難波
飽和
##ッテル
##ヴィン
おこり
さわっ
ルータ
通ずる
飛び交
書き換え
フットボール
メッセンジャー
兜
柑
##くち
##抜か
かが
わく
働け
先代
勝敗
印紙
告訴
大義
大隊
小室
断絶
月光
水量
法要
獣医
監理
県道
眼科
草花
藤岡
雄大
高熱
##バッグ
たたず
オタク
レトロ
うつむい
インセン
踏み入れ
通り抜け
queid
サイエンス
##ろり
##負け
##oma
エゴ
ズル
メダ
中々
偏っ
制圧
台本
否め
奈々
学派
実勢
寒冷
波形
洗わ
現世
絶大
被験
##んなる
##ーティ
gre
すすり
ならっ
バッハ
リン酸
引き離
気付き
温める
見返し
たんなる
ふくらん
キャット
スカウト
バスルーム
ディレクトリ
壕
袁
##ari
クモ
乗船
励ん
合弁
喜劇
応力
捕え
新報
新橋
期し
末尾
溶解
細分
組ま
軍用
逃し
通説
駐留
##ギュア
##ワーズ
ぎゅっ
しぼり
バーン
ポルノ
右衛門
指差し
揚げる
明け方
産まれ
身振り
ふらふら
バスター
コンドーム
プリンター
リアリティ
あだ
ずく
上質
不変
伴わ
凶器
博覧
図鑑
廃墟
従兄
必至
揉み
物凄
縁側
老女
舞う
##インズ
##ナーズ
値引き
取調べ
敢えて
明日香
肩こり
ささやき
ふんわり
ジェリー
フェンス
話しかける
##オロ
##リダ
##払う
##ork
こー
リオ
会釈
便器
党派
公使
勾留
宛名
弾性
情動
日ソ
明子
晴美
気道
河岸
聖徳
蔵書
集結
##テイン
big
fin
いやー
ひびき
冷やす
片栗粉
繋がっ
行き詰
軽やか
閉まっ
飛び散
##フェンス
しつこい
カリスマ
プロデュース
##ラシ
ab
ギン
スッ
催さ
十郎
卑怯
封印
常備
支柱
散々
田口
突出
荒い
防い
ウェア
ガーゼ
交わさ
切れ目
思い当
控える
くっつけ
なけりゃ
やむなく
シナプス
セメント
ノートン
引き取り
楽しもう
近づける
クーデター
パブリック
##vi
14
ビオ
上洛
上皮
下山
下関
創始
嘲笑
密室
小生
惹き
敵意
断じ
新法
次条
監察
縫っ
聖地
衰弱
謙信
野々
##ろうろ
##ラック
にやり
のぞか
スチュ
タップ
久留米
手抜き
横切っ
見渡し
頂ける
うかがう
うろうろ
チェリー
ストローク
赦
##にこ
##乗せ
##崩し
##組ん
じか
ちか
クソ
ノミ
党員
反則
同封
固執
平静
度々
引受
松葉
江東
治験
白紙
竹村
竹田
美智
諸々
離陸
##なおし
##リカン
##ヴィル
ケージ
ハサミ
ヴィル
先取り
垂らし
捧げる
ライフル
さかのぼる
タイガース
ロマンチック
鍼
顆
##ろさ
##ッピ
##黒い
ho
ルナ
内政
勤続
千鶴
受動
和子
平原
有志
栗原
案じ
樋口
毎度
漢文
白馬
盗聴
胡麻
脆弱
苗字
苦戦
血縁
退い
陽光
mac
すまし
シップ
テール
ワタル
##ハッタン
スナップ
取りつけ
巻きつけ
トレーナー
プロダクション
廣
##臭い
##酔い
##ser
たわ
てろ
ウク
伊賀
凍っ
地殻
夕べ
山上
弁論
排他
本業
桟橋
殊に
涼し
渦巻
濫用
稼動
花屋
豆乳
養生
##ッチャ
##リッド
すくい
崩れる
やすかっ
取り残さ
ユニバーサル
##いっ
##リイ
しく
やか
クォ
ハツ
全日
団長
嫌気
対米
新選
有明
楽園
炊い
病名
監事
精製
脱落
言説
過労
酪農
銃弾
雇わ
##ちがい
##ックル
(−_
おろす
だんな
イント
キツイ
ソープ
ヒステ
取ろう
天引き
太もも
##ement
ありがと
カーディ
積み立て
落ちつい
##エーション
asean
マンハッタン
蠟
##比奈
ゼン
佐世
内地
利権
前髪
吉宗
吹か
周防
巻末
献上
男爵
疑念
砕け
精進
職権
脱水
解し
説か
面談
##ニティ
##ローグ
かかと
つかう
てめえ
ビーフ
ミドル
ヘッダー
思いつく
キャンドル
セッション
フィギュア
≧
##やら
##app
##chi
##low
=3
こり
イワ
スレ
ヒモ
ヒュ
公費
好い
富裕
旋律
満洲
激突
爆破
真摯
競り
邪馬
配し
飼養
高麗
##おこし
##わろう
##チャク
##ラーズ
おめえ
しびれ
まじり
アシュ
アルツ
ノット
バーク
ビリー
マーガ
効き目
朝比奈
組合せ
胃がん
青白い
しゃがみ
まっとう
インナー
シェイク
バッター
ヘルシー
マラリア
10000
ストライキ
ハムスター
臥
躁
##ほか
##shi
di
のし
今川
偽物
元帥
包帯
専制
彩り
徴兵
或は
断食
明智
書院
求職
流産
特製
追悼
退学
通れ
駆ら
##ぼっち
##ザーズ
##タリア
##パルト
##プキン
##ライナ
あゆみ
バーベ
リュウ
収まっ
夕焼け
怒鳴り
裏切っ
にこにこ
言い換えれ
エンディング
畿
##の下
##カタ
##ビュ
##ブロ
##ボリ
##無し
かち
ひん
ガク
保養
吉祥
外野
実費
川越
後続
疾走
茄子
計っ
造影
(≧∇
からん
こだま
アクア
ギャグ
スゴイ
ズバリ
強める
有り難
飛ばす
^_^;
ととのえ
ほんのり
フィルタ
ランダム
オリックス
ケチャップ
コンディション
##**
巷
##にち
##モー
サヨ
ヨコ
ヨシ
ルミ
一掃
主君
八方
出兵
口説
喋る
国勢
城内
安部
山川
弁解
感銘
救世
本法
滑る
美雪
考へ
聖子
脱し
裏手
近接
醸し
長編
駅舎
##フリカ
##ーナツ
gen
差押え
手洗い
見守り
back
さてさて
アドバイ
オナニー
カリウム
ガンガン
バッファ
成し遂げ
シャンパン
ジョギング
ドキュメンタリー
##45
倦
奄
忽
熾
##が代
##のき
##の内
##引く
うー
くね
こつ
ぬっ
セグ
健常
兄妹
前橋
回ら
外さ
恩給
提灯
搬入
日没
本意
発声
禅師
自伝
蓮如
覗く
##lobe
かかれ
じゃう
もやし
ミント
先駆け
君が代
見出さ
たしかめ
ジョーク
市町村長
よみがえっ
ミュージアム
##−^
宵
渾
笙
羞
##トス
##直り
しゅ
まど
仮設
供託
利い
即応
可憐
善良
噴水
回廊
因縁
固形
奇怪
学業
最短
汚職
注視
照り
耐用
色気
覚書
軍需
面目
骨髄
鼻水
tak
wik
かつお
しらべ
わすれ
ファル
一通り
乗れる
無けれ
すっごい
つき合っ
カテ違い
カボチャ
切り捨て
受け取ら
日当たり
気まぐれ
check
あてはまる
アウトドア
ストーカー
スーツケース
慧
汐
董
##ぞっ
##はぎ
ゼネ
ホリ
夕陽
実存
常設
明神
浅間
浜辺
緊迫
至上
衣料
転校
配る
重厚
##キュア
##シタン
がかり
っから
りょう
スリム
背負い
とどまり
ひび割れ
バーガー
ブラッド
プラズマ
立ち去っ
なつかしい
office
按
朔
##umn
ちと
なご
めし
ゆら
削る
北極
呟く
学ば
安政
年貢
形跡
後々
早口
歯車
特化
継ぎ
自生
花園
##くさん
##コード
うなり
お洒落
かすれ
かねる
オシャ
コスメ
サンプ
マグネ
下ろす
届ける
物語る
(><)
サスペン
スクエア
フォルム
成り立ち
キリシタン
南アフリカ
取り締まり
アトラクション
##開け
##peg
イッ
リト
中流
低め
右近
君臨
吟醸
和紙
四川
守山
宰相
山伏
戦没
日蓮
畠山
社主
縁組
般若
萩原
蓮華
霊的
##かえす
##たびれ
##ビアン
mot
くしゃ
つわり
とろう
信ずる
切ない
概して
洩らし
辛かっ
##ビリティ
たまねぎ
バイパス
丑
夷
椀
胞
雀
##コム
##刻み
だに
ゼラ
争点
保湿
受諾
嚙ん
埋蔵
執念
好転
家業
引当
悲観
減ら
煮え
皇族
眉間
禁物
窓際
縦覧
良寛
藤村
##メイト
ひかえ
ひとみ
イルミ
連なる
題する
ぎっしり
ひとたび
ふるまい
ぶつぶつ
ダンサー
ポインタ
呼び出さ
聞き取り
たどり着い
##ぼっ
##ニオ
##vel
ミン
党首
公論
奇襲
巡っ
明り
死骸
灯台
緑茶
輸血
黒板
##チェン
##ッパリ
##ルダン
ひき肉
ヴィー
構える
気付く
したたか
コンセン
マフィア
ジョーンズ
アルツハイマー
蛙
##きれ
##びく
##むし
##キニ
しげ
へそ
創意
大友
府中
瀬谷
画一
畜生
興業
蒙古
迂回
鍛冶
長々
長め
食肉
##バック
くぐっ
つぶさ
ひばり
めくっ
めざま
キチン
サリー
仲よく
共働き
混じり
からかっ
ふくらみ
よろこび
ジェーン
セクハラ
押し付け
マーシャル
コンセンサス
鰹
##眠り
丁重
借用
偽り
微小
戯曲
教頭
最多
洩れ
生長
突撃
萌え
親権
車道
返り
送達
##ニカル
##レスト
##越える
pop
ほのか
ノース
上乗せ
見やっ
info
パーカー
プラトン
##ルトニウム
チューナー
追いかける
ストッキング
灼
##が丘
##ぷん
##セラ
##残り
めど
伴奏
倒壊
可視
同心
奏者
小国
小坂
従順
膨れ
雑木
##っぽい
いかん
さなか
ちゃあ
ひょう
ロッキ
尽くさ
気遣い
行おう
##ポイント
open
かけ離れ
イニシア
クライマ
プッシュ
引っ張る
パラメータ
ベーシック
プルトニウム
##dp
π
ゅ
叢
恣
##うけ
##くそ
##ひろ
##ミリ
##足し
fe
南蛮
垣間
小池
急便
施す
果汁
毅然
汎用
減退
火傷
縮め
脚質
落胆
豊後
邪悪
食費
騙し
ぐるり
ずらり
ぶらさ
ウエア
ミート
ヴィン
佐世保
呈する
鍛える
すこぶる
めでたい
ラッセル
屯
憩
鱗
##ヶ崎
ベラ
レズ
伝授
信介
倉敷
加納
国定
孝行
快晴
情況
挟ま
極秘
欠乏
目先
県警
茫然
被用
賞賛
退場
金銀
鶴岡
##ホーム
やくざ
はたらく
ひらがな
ふんだん
ステート
借り入れ
追い詰め
さようなら
ブルジョア
撲
髄
##あり
##なお
##るる
##ケイ
##ヨー
##iko
ボナ
ボリ
二七
入隊
打破
放ち
敷か
斬新
景子
本節
水深
火花
病死
真下
義兄
送受
##ツィア
##oshi
あてる
かかげ
オムツ
サウナ
バート
見込ん
##クラテス
スリッパ
ヘーゲル
power
キャスター
ブルーベリー
センチメートル
澤
謡
ぎみ
ゆれ
予後
他界
前月
大腿
年功
年頃
御覧
拍車
炊く
王位
疎外
知名
移譲
簿記
谷口
転売
除雪
電極
魚類
##ウマチ
##トコル
##リーヌ
##晴らし
かざし
みじめ
ウール
カンジ
テイク
バルト
独り言
立たさ
##ササイズ
text
ぐっすり
シャドウ
スリップ
使い捨て
ちょこっと
レーシング
##ty
##の具
##テレ
##ハリ
##漁業
##ton
円満
円筒
同市
天平
奄美
床下
座ら
懸賞
戦わ
杉田
楽屋
真言
絵柄
臨界
起し
近々
難く
香織
のこっ
バニラ
レオン
ライナー
差し入れ
見せかけ
キャピタル
チューニング
インセンティブ
コンサルティング
♫
梯
禍
##ぬい
##ウイ
##コラ
##放っ
しず
づき
イナ
互換
伝道
体裁
先刻
副詞
変色
実技
害虫
寄託
寺田
常盤
折角
本館
松永
正味
水谷
深海
目途
貯水
##なじみ
大晦日
苔
##ぐろ
##ざら
##ミヤ
きず
へっ
キタ
千歳
厚木
尊い
岡村
恵比
横領
満腹
準拠
独断
用例
菜園
薬草
被写
醸成
関羽
防空
##ミック
aut
たぐい
つぶっ
ゆだね
ガンバ
低かっ
固まり
心掛け
見抜い
話そう
鉢植え
よろこん
ネパール
ペルシャ
グローバリ
酌
##ベラ
##aph
cy
すそ
まめ
ホス
下田
先取
写本
声援
序文
怠っ
掛金
末梢
本稿
東国
熱烈
王宮
監禁
矢先
藤吉
誇張
賞与
##ザイク
##詰める
つけれ
もつれ
ディア
ムーン
ルビー
交わり
出会え
天下り
延ばし
見返り
長続き
際立っ
##ニッシュ
スーザン
マインド
取り返し
押し出し
おのずから
headline
##こつ
##慣れ
sw
だー
なが
ダブ
修飾
先入
合算
咽喉
完備
寛政
採る
法然
爽快
療育
盆栽
請願
議案
転出
顆粒
##■■■
ぴたり
セロリ
マリオ
冷まし
惜しま
留まっ
かんがえ
アングル
吹き出し
グランプリ
ファイナル
ダウンタウン
ブレスレット
##ob
##ばめ
##キリ
##狩り
!"
ag
なげ
エメ
ロク
全文
基板
夢想
寒天
寒気
懐疑
改行
文藝
村民
来店
柑橘
正座
火力
眼球
石膏
硝酸
褒美
遣い
那珂
鈴鹿
騒ぐ
##かえれ
##サレム
##ザック
##新しい
ならべ
ははは
はやっ
コチラ
ヨハン
リタイ
攻める
暗がり
笑える
さらさら
シャトル
テキサス
ナイロン
ホルダー
見せつけ
おそろしい
プロトコル
##ux
斧
檀
竪
蔑
##ルン
##敷き
cf
ヤミ
ヤー
会期
信義
前立
奥底
安土
希少
新居
望月
水位
海里
約定
組立
自問
道真
##ストリ
##ランカ
bas
ごぼう
せまい
ゆでる
シャク
梅干し
水洗い
見開い
とどめる
アクリル
取り除い
向き合っ
正しかっ
エッセンス
##ication
アドバイザー
グローバリゼーション
##シナ
##ipt
ふけ
予め
使途
叱っ
地判
専ら
山門
忍者
恣意
有望
水滴
油脂
海兵
絶頂
耐熱
能動
茶の
語尾
赤城
逐次
飢餓
##エント
いじっ
ふえる
イワシ
カリブ
ドール
マスト
果てし
根強い
絵の具
苛立ち
きびしく
やっかい
ファイナ
アーモンド
サントリー
おびただしい
択
盟
詣
軋
##くね
##ジミ
ごし
し尿
ずう
もや
久米
交錯
光栄
剪定
呪術
国宝
幾分
打球
晴天
暴落
照合
熱海
甲賀
積む
空手
組長
美穂
製法
覇権
課し
陣地
##ウルス
##ange
フェリ
リーフ
寒かっ
求めよ
聞ける
##ただしく
##ティーナ
コウモリ
心当たり
言いかけ
飛び出す
バーベキュー
##ko
##の花
てき
下院
充満
坂田
有形
本案
民放
発令
篠原
終値
緩め
連敗
重荷
釣れ
難解
ppm
アワビ
ネオン
ミッド
収める
##ドックス
life
つながら
にこやか
アンデル
ハンマー
思いつか
呼びかける
ガイドブック
ジェニファー
##ys
叛
##ガム
世辞
余韻
割と
北川
困窮
小澤
恒久
数式
棄て
正気
水彩
漂わ
王権
痛ん
盛る
着々
着地
素顔
譲る
赤松
間際
陶磁
高見
##けない
##ドール
##ream
インフ
チーフ
ピエロ
待たさ
木の葉
気配り
移り住
見あげ
見合う
近ごろ
青ざめ
モザイク
吸い込ま
style
亢
巾
耽
肴
かう
ざら
だつ
丹念
先々
公用
冬場
双眼
名曲
安達
帰結
年老
挙動
携え
斬っ
査察
漂流
無垢
焼失
玲子
眼下
私有
総監
訪日
誉め
謹慎
退社
銃撃
##ガリア
##加える
der
うねり
シチュ
シモン
ナイス
肺がん
身の上
##メディア
ありふれ
ただし書
見分ける
ノルウェー
儂
凱
雁
##スカ
##パイ
##プタ
##射し
うし
でこ
ウミ
ケタ
ソレ
マチ
下品
吊る
在位
壊さ
大々
大道
射程
当惑
攻防
有事
楽曲
水け
泣け
煩悩
盲目
相方
看病
蘇我
見込
駅伝
高架
キャバ
ルアー
気合い
##アルプス
はげしく
クラーク
フルート
ストライプ
ひとりひとり
##ormation
express
√
##あけ
##どる
##急ぎ
##見る
##財政
ほれ
エタ
リソ
乗員
内障
失格
己れ
悪人
月末
江川
渋い
賦課
軽度
迷路
遠近
野望
麻布
##cess
rel
きたす
みずほ
むやみ
ジーン
ピント
下りる
果たせ
見渡す
mura
アマゾン
思い入れ
(^_^)
むずかしく
ハーモニー
引っかかっ
通りかかっ
##cl
菱
隕
##おこ
##戻す
##足り
イク
ドジ
ヒメ
メグ
中頃
作製
元旦
別府
劣っ
卓越
南端
右端
大仏
小作
屋久
川柳
年率
志村
撃つ
木星
漁村
真偽
経典
苦心
詠ん
道元
達郎
遺骨
院内
##シャツ
あった
グリル
スキャ
行財政
街並み
長持ち
隠そう
prof
アトラン
ジュリア
フェスタ
リニュー
差し出す
突っ込み
ウルグアイ
引き起こさ
掠
樺
##try
ずん
はこ
カエ
コシ
乗馬
先人
前頭
台場
少尉
待望
放流
民国
河村
炭水
祈禱
臨海
遺構
##こちら
##スリム
cal
まがい
エヴァ
レイプ
小田急
植える
荒らし
裏づけ
間取り
ちっちゃ
ウイング
オシャレ
ボーカル
農林漁業
ファイバー
あちらこちら
エクササイズ
卜
##死に
せせ
つー
イネ
パノ
モナ
光源
兵法
単元
可動
増資
士気
完治
忘年
沈没
海浜
温か
滝沢
潜っ
火葬
爪先
片足
肝要
要塞
親善
進言
逸話
銃口
##vent
つかさ
にじみ
ひざま
バッジ
フォア
女のコ
茶の湯
##ビジョン
goog
ハードル
投げ出し
サスペンション
♬
痺
竣
##じわ
いぶ
こけ
びく
ぴん
レセ
京阪
同義
夜行
成形
探知
断崖
日課
星空
春樹
注記
由緒
米沢
繁盛
置換
肥後
蒲団
謝る
警護
貴子
金具
##もどし
くだり
しのぎ
コンロ
ゴミ箱
ホラー
モンテ
収まる
ぜいたく
浮き彫り
##ーマーケット
マグネシウム
クライマックス
スーパーマーケット
匠
##きょ
##だせ
##ろく
##ケー
ぐら
つの
べん
アズ
ハミ
一句
七郎
乗務
内膜
前段
双六
商船
堆肥
実況
小樽
弱め
心電
拒む
時事
本間
没落
混沌
病的
言明
部内
陸海
##テープ
おそる
きつね
にぎり
ハマっ
ヒルズ
切り口
損なう
明かし
おのずと
しっくり
好き嫌い
小さかっ
クーリング
##すく
##キサ
##伏し
##百合
##風呂
なぎ
キビ
内視
小夜
度胸
強火
恵里
戒め
捕鯨
提訴
搾取
旧来
果し
水系
流用
源流
真上
駕籠
##ライズ
しかり
なさら
のどか
アンリ
モリス
傷つく
御座い
舌打ち
苦笑い
貰える
##.....
すばらし
クローン
プロペラ
巻き込ん
バラエティ
google
リニューアル
®
憐
鴻
##うち
##こそ
##ポリ
##aku
##uct
モロ
三和
刺客
前節
原付
多賀
小数
山菜
愛護
慰安
手腕
手際
支社
最長
結社
若葉
長調
電柱
##ローゼ
dig
だいじ
ふーん
ゲージ
メルマ
ラット
ロット
健やか
傷つき
安かっ
溜め息
積もっ
##ジャック
##デックス
ありがた
いくぶん
またがっ
アジサイ
トリート
見落とし
ネーミング
可愛らしい
目の当たり
♣
##エス
##シオ
##和田
##融資
ふじ
アヤ
仕業
傍受
傾げ
同和
命ぜ
執務
堅く
戸棚
正門
残虐
江藤
海舟
督促
裕子
見過
ごっこ
ジェン
ジャス
テレサ
ニキビ
戻ろう
諦める
work
リウマチ
引き継が
植えつけ
頑張ろう
エレガント
center
##14
渉
##わん
##踏み
か年
キモ
タフ
マヤ
両脇
修羅
出で
前途
加味
収拾
堅持
富田
寛大
尖っ
市況
恒星
恩師
歩合
清浄
潤い
特長
用具
社名
陳情
##ダンス
##ピスト
うめき
ちゃま
アライ
アンバ
カブト
キャミ
クエン
ゴリラ
セレブ
ピート
入れ歯
引き続
役立て
空き地
表向き
長兵衛
will
くしゃみ
たいそう
バッチリ
打ち込ん
振り回さ
読み取る
ファンデーション
媚
炸
##触り
##ody
フツ
上皇
二塁
千里
南無
地検
山東
棚卸
溶き
王室
生保
砲弾
管区
簡略
習性
肉食
裏腹
西山
討伐
誘引
貧弱
里山
鋭意
錬金
高地
##っぱい
##コニー
##マセン
##ラスカ
##レーン
すき間
ふとん
カヌー
コンペ
デフォ
ラオス
名高い
引渡し
濡らし
現わし
クリエイ
ハンサム
ロマンス
向き合う
逃げよう
music
あきらめる
あたたかい
ジョンソン
column
biglobe
几
屁
氣
緋
##たち
##ニル
##ブツ
うめ
すう
つて
ぼけ
サツ
ハシ
一式
同定
呼べ
夏季
大連
娼婦
将一
崩さ
広義
早川
沈着
沸き
無能
祀ら
細心
脱ぐ
見ろ
譲歩
讃岐
食育
sel
あらう
エッグ
キティ
グアム
ザック
ジェル
ラベン
年老い
得よう
木の実
見覚え
輪切り
貸し付け
##フィールド
楓
楚
##ぞく
##パル
##占め
##ath
ける
ぴあ
アゴ
ビア
マナ
元町
各部
塩田
実り
小路
平井
往々
折衝
本題
浪士
清朝
清瀬
硝子
若狭
頷き
飯島
##ばたき
うたい
からめ
ぽつり
サザエ
ニコン
手伝う
泡立て
純一郎
イコール
セリーナ
チャック
ファーム
ペンシル
モーガン
ジェイムズ
❖
稿
##じむ
##まわ
##ガニ
##タカ
ぐず
むさ
エナ
下垂
仙人
併設
修士
公子
勤勉
古田
大柄
嵐山
性交
手記
排便
柳沢
渋川
直営
聡明
足立
輸液
退け
静香
##ダウン
あかり
っぷり
つかえ
スカル
ニール
バスク
ミュン
##ジェリア
##ナリティ
そうこう
ミキサー
持ち込む
振り向く
立ち入り
20080
セグメント
立ちあがり
おもしろかっ
マルチメディア
パートナーシップ
##,8
##cp
捨
##そい
##のい
##御飯
##ose
けた
さみ
はれ
へや
キヤ
タク
ヤス
一服
一礼
中退
予見
人名
余白
停電
優美
前号
右折
商会
囲碁
報い
壊す
専属
将兵
島民
布施
未明
泊り
温水
灯油
無口
畿内
立木
素質
肉親
荒野
虚構
足下
透き
里親
陰影
魅せ
##レーズ
##ther
7,8
かまえ
ぎこち
ビキニ
フィラ
ヴォル
伝わら
送れる
##バイバル
させよう
しかたない
ロッキード
渚
瘤
稜
##チコ
##ヒャ
##ピス
##ワリ
##持つ
##oto
ぎょ
享保
別冊
剥離
劣等
危害
反逆
字形
官民
少く
弾薬
摑み
治山
点火
熟知
縫う
芳香
足る
離す
馳せ
##イセン
##ブライ
##ーサル
おたく
そびえ
まじっ
ハッチ
ベール
マニラ
ヤマハ
仕込み
図ろう
壊れる
日比谷
秋葉原
遊べる
file
show
とりだし
とりどり
##br
やい
リリ
不潔
出社
列強
別物
営農
居所
形而
従者
従軍
憎ん
手稲
挿絵
標語
汚し
沖合
漁協
点滅
発光
私鉄
茶会
葬祭
藤堂
起立
阿波
須磨
高次
鮫島
##のほか
かすめ
昼過ぎ
立ち上
##バティブ
てっきり
アンカー
引きつけ
引き渡し
ジャイアン
リハーサル
襲いかかっ
冨
躾
##アド
##オイ
##ガメ
光一
兼業
別段
問診
大沢
大関
小便
川端
懇願
所存
注釈
発着
発色
看守
突発
貫通
身柄
食え
魚雷
ちょっ
ストラ
ペナル
マツダ
日にち
##ージャス
あたえる
ざわめき
アフガン
テクスト
ムスリム
ブルガリア
スタイリング
internet
∇
禄
穢
##ゆら
##ナビ
##登り
##unt
よご
アゲ
サケ
モト
万物
中和
介在
出題
各所
吹奏
天武
太政
寡婦
川原
式部
怠け
怪訝
抗菌
昌幸
水害
火炎
略奪
稲妻
経口
罪人
自制
藤本
送致
##ジュン
##ダック
いとも
うまれ
きげん
まーす
マグマ
先送り
立ちど
鳴り響
にくかっ
やっつけ
カワイイ
売り切れ
決めつけ
過ごせる
ゴージャス
思い知らさ
トリートメント
information
俄
腿
##ァン
##サノ
##ヨシ
gu
ケツ
且つ
人力
初旬
前例
労基
協和
吹雪
園児
失恋
容貌
復習
描け
旅費
晶子
板橋
玉川
白身
眠ら
砲撃
神事
草子
訳さ
資生
走者
造営
##シアン
rad
かくし
こびり
デルタ
ロース
手取り
果たさ
空っぽ
見習い
おこない
シスター
スマイル
ポケモン
取り扱わ
アンコール
ワーキング
イルミネーション
##57
垢
采
##ボラ
##戻さ
ばり
むな
イキ
ケー
ジグ
パワ
メシ
ルカ
伊丹
侍従
便益
天満
子弟
射殺
小舟
島原
急務
悪霊
狩野
登板
花瓶
談合
豪快
軽水
駐屯
鼻先
##グナー
##プール
##リッヒ
##orts
gif
がたく
つかわ
とめる
わるく
アブラ
ウェン
カジノ
ポリー
ミイラ
似合っ
繋がり
##ごしらえ
くらべる
インフォ
ピボット
ジャクソン
庚
肋
##はら
##知子
じわ
クス
サハ
ベジ
几帳
参事
団員
専修
小道
川田
慶子
敗退
眺望
米穀
舞っ
蜂起
賜り
通例
重ん
難点
頭数
ひと目
ろくな
マウン
後ほど
見積り
過ごせ
邪馬台
##クシミリ
カルテル
クラウン
スイーツ
ハワード
フォース
生き残る
ファクシミリ
寵
##すま
##ェン
##スロ
##ノリ
##除け
##鳴り
##∀・)
キズ
万国
亢進
人妻
出逢
切迫
口々
土井
御飯
悪戯
放電
概略
概説
災難
焚き
葉巻
葉書
講話
隅々
##iver
top
すりゃ
ですぅ
ほころ
ヒート
メンズ
遊ぼう
くたびれ
さいたま
さておき
すっぽり
ろうそく
クラフト
ピクセル
リセット
手づくり
キロワット
生まれ育っ
ヴィクトリア
巌
##ger
■■
いみ
てぇ
ゆけ
中尾
依拠
処せ
分身
子守
手先
易く
最盛
月報
町村
発話
神官
蒼白
表出
計る
辿っ
韓流
魔力
##ニクス
ass
sch
おわっ
しゃれ
ウルフ
ハニー
フレイ
ヨハネ
ワイヤ
締めく
落ち葉
送受信
フロリダ
ホークス
締めつけ
ものづくり
スパゲティ
バイオリン
バルコニー
ステアリング
デリバティブ
##!!!!!!!!
昏
洲
盧
諒
くに
にげ
ツヤ
出国
吾妻
園長
増産
山奥
微細
憤慨
没し
浜口
病ん
矢田
精米
臭く
良子
良識
起草
隕石
頻発
##land
カタル
クロム
ゴルバ
スラム
ホイル
折れる
落書き
ばらつき
まずまず
キヤノン
バングラ
取り組ま
追いつい
エルサレム
パラダイム
てらっしゃる
ひっくり返し
バラエティー
ヘッドライト
詔
##だく
##ボコ
##曲げ
ばた
上水
井原
住吉
元祖
前章
叱る
女帝
学費
密閉
挑ん
果敢
森本
次点
短篇
素っ
絶賛
綿密
課内
##むろに
他人事
恵比寿
殺そう
おおいに
まちまち
キチンと
ゴシック
飛びこん
おもむろに
つくりあげ
ゴルファー
ジャニーズ
ディテール
艘
##ふた
##シタ
##ゼフ
##パチ
(@
かめ
ひけ
ひよ
佐々
前作
割賦
口癖
合せ
同上
善悪
就農
年寄
昇り
毛糸
生鮮
祭典
窓辺
立会
米英
練っ
職能
腸管
蛇口
見ま
贈呈
起伏
辺境
透過
集荷
離せ
霊魂
##ラート
##代わり
なあに
ふふふ
チタン
固める
歯止め
照らす
素振り
覚める
なにごと
スパイク
ドラフト
パノラマ
冷ややか
疑わしい
enter
でき上がっ
ラベンダー
みっともない
ゴルバチョフ
チャーシュー
フィクション
シチュエーション
##ov
о
罷
##くす
##リャ
イグ
ウケ
介石
公文
呟き
幻覚
建ち
戦法
日照
梯子
沿う
癒着
矢口
触媒
転々
転写
遠心
開国
雇う
頼も
##がしい
##ざわり
##デート
おっと
なにせ
ぱるる
まつげ
サファ
ミュー
ムース
帰れる
身なり
風呂敷
##ノロジー
stud
くわしい
しゃべら
サラサラ
押しかけ
ハーバード
##????????
斡
桓
##チカ
##之丞
##渡り
##att
nm
ポイ
不死
主眼
乃木
切腹
原生
反戦
吉村
和服
噛ん
大雪
憂慮
放牧
敦子
新緑
昇る
水利
淋し
温存
熟し
箇条
見渡
貯留
首尾
##バーン
おおっ
トマス
出来高
気まま
混ざっ
由紀夫
(*^^
オアシス
オオカミ
グレープ
トランプ
プロフェ
マッシュ
レーベル
気がかり
ややこしい
グラニュー
ソクラテス
チャーハン
來
芹
豹
##やん
##遅れ
##aut
あみ
だあ
でー
ぬき
のむ
シイ
倭国
初演
刺青
前列
前衛
半田
失せ
帰化
憤り
掘削
朝夕
桃山
次ぎ
満面
無実
特筆
産駒
由美
略し
盗賊
相馬
絶縁
脱が
至極
艦艇
良馬
英米
裏口
軍服
転化
願書
香ば
##まぐる
##ードン
くくり
だんご
めずら
ソール
デュー
ミラン
リバー
佐久間
受け皿
奥深く
後押し
深かっ
さぞかし
リッター
ローソン
書き込む
めずらしく
スティーブ
ヒアリング
ソフトボール
伍
屏
稔
謂
饅
##イユ
##コウ
##ネタ
##外れ
デキ
仰い
悪党
打倒
挟み
排尿
文政
新刊
本営
枕元
柳生
権現
淡水
無常
紡績
軍曹
配ら
##らぼう
あわれ
かがめ
つくば
グリー
タルト
プロセ
下され
値打ち
引っぱ
突き出
見逃せ
途絶え
まろやか
叩きつけ
焼きそば
覗き込ん
トッピング
押しつける
盛り上がる
intern
コンビニエンス
徘
麟
##シシ
##ワザ
##ind
きけ
くろ
ウリ
エポ
係員
入選
公会
同乗
唸り
徘徊
必殺
挙式
採血
揮発
旧法
潜り
災い
率先
甲州
簡便
茶室
遣っ
里見
難病
風間
##ちょう
##ject
さらす
たより
ハーン
安らか
深まっ
重んじ
風通し
おのおの
めんどう
キャロル
チョット
ブロード
睨みつけ
粕
緻
##。)
##ろっ
##ner
pe
たげ
むつ
ヵ国
体現
党内
六甲
創建
叫ば
囁い
埋没
天津
威勢
席上
幻影
播磨
教祖
時空
本編
水島
潜伏
牧草
特派
生身
直人
直系
競う
色調
装束
西行
連ね
都道
銭湯
雑煮
##スナー
##チョン
^−^
gro
met
こらし
つかれ
なおす
はから
アハハ
十兵衛
膨らま
##ラーゲン
odor
バンパー
吊り上げ
行き届い
追いつか
都道府県
##ファレンス
##ンドローム
##ki
礁
##ese
おー
バシ
一夫
上越
京浜
信奉
前文
去勢
埋立
堂本
安物
定評
宮古
寺社
小枝
庇護
敷設
映り
業態
洋食
濁っ
田代
疫病
緻密
苦味
血の
進撃
釣っ
##なえる
750
liv
えっと
やわら
ニヤリ
ポリエ
乏しく
五十嵐
置き場
肩書き
見送る
閉ざし
##クトリー
だらだら
はみ出し
ふくらま
心がける
閉じこめ
生まれつき
ユニフォーム
瞭
##べん
##フン
##enc
エッ
ビク
不穏
中型
丹生
健太
各年
四六
坂上
後進
敗者
施業
日下
気づ
浮腫
激痛
疎通
直下
竣工
緯度
賛美
遊歩
饅頭
高低
##エリー
しぼっ
すみれ
ひろし
めぐみ
キース
クウェ
合コン
真紀子
隠れる
list
test
ふりかけ
ガラガラ
チャイム
ニッケル
ウィスキー
クッキング
バグダッド
プロポーズ
取り付ける
##ょく
##テロ
##ピラ
##ラヤ
アグ
シス
ナウ
パシ
ホメ
今期
佐川
公定
協奏
只今
回さ
夜勤
思索
所領
打点
振舞
斡旋
民宿
漕ぎ
犯さ
石畳
罪名
苦闘
葉子
補欠
要人
誇示
賛否
質素
針金
銅鐸
随所
集っ
雑巾
##き出し
##ザール
cap
かたい
ちゃえ
なだめ
ゲイン
フェラ
ポアロ
小刻み
振りか
菜の花
見なし
論ずる
##ッチャー
blue
にぎわい
パーソン
ピストン
ミシェル
見いだし
追い出し
難しかっ
飛び込み
オードリー
ファシズム
てらっしゃい
サンプリング
シンドローム
##54
咄
嵌
曝
##そっ
##ヨウ
##リィ
きた
よお
六角
和也
天空
嫌味
射精
小姓
当直
手動
押え
新庄
春先
植林
潜入
白血
自前
自明
街角
譲ら
農山
退却
鎖国
鎮圧
風流
##シティ
##トリス
reg
おこす
さらっ
ずばり
つま先
サトウ
ピュー
人殺し
入れ替
差し押
おんなじ
かき混ぜ
イケメン
ペンギン
乗り入れ
うずくまっ
アンモニア
読み替える
ハードウェア
##■■■■■■■■■■■■
込
##ぐす
##這い
##alk
しと
んな
サメ
テオ
ヤバ
一説
不純
停戦
入江
単勝
古び
叱り
同点
増田
大洋
大社
市外
弾け
抜擢
死人
母屋
福原
競っ
絞る
絵巻
角田
長島
魅惑
##デシュ
がらみ
オット
ジョナ
ベット
ロフト
大袈裟
手放し
溶ける
見直さ
賑わい
##イスター
##ーナッツ
はげしい
ほほえみ
ハザード
伝えよう
引き換え
手掛かり
言い返し
撥
##タゴ
##呑み
##壊し
おえ
タツ
冷酷
同前
四肢
差出
幾多
恐喝
手塚
浄水
略称
素養
複写
転向
速力
適法
部類
黒澤
##たらめ
##はずれ
##ステン
もてあ
ゆで卵
くだされ
つとめる
まじない
グラフィ
シンガー
仕上がっ
にらみつけ
エスカレート
偲
喬
攪
裡
訛
##つっ
##へい
##イチ
##貯金
へり
わあ
ウキ
ツナ
ヒナ
五感
刷り
副腎
君子
大卒
戸外
振幅
最澄
月々
気遣
混み
預託
高卒
##〜〜〜
eng
hel
かおり
ちかく
のぞみ
むかえ
コナー
セーブ
ムハン
ユナイ
上向き
油揚げ
預貯金
がっちり
こなせる
しょせん
のびのび
ピカピカ
ペルシア
取り外し
生き延び
置き去り
追っかけ
たくましい
ストライク
セールスマン
欽
##並ぶ
##ise
##ism
ウッ
キク
クサ
ハク
使徒
全裸
墓石
大海
太閤
学界
就く
常駐
戸塚
止む
水木
河童
激変
琢磨
皇居
終日
繰延
船体
表裏
補っ
設問
顧み
##ブルグ
our
インコ
ティム
ドラク
根ざし
由香里
##クラシー
##ンドリア
ちゃおう
コンデン
ダイコン
ハイブリ
散らばっ
朝ごはん
立ち寄り
考え込ん
チャイルド
トレイシー
プロモーション
峯
祠
舅
蛮
##まぜ
##太夫
ぐん
一派
充て
入植
写す
卵白
厳選
台北
執事
慎吾
成虫
浮浪
浴場
減点
瞭然
絞め
絶た
鈍感
長靴
電離
##セロナ
##ーテル
##uten
ゆがん
イジメ
命じる
強まる
脅かす
rain
うながし
うろたえ
だくさん
インテル
ジャージ
ダービー
ファイト
リモート
ロジャー
取りだし
立ちはだ
言葉遣い
media
ジャスティ
ハイウェイ
バルセロナ
プリンセス
ディフェンス
odoroku
section
妬
淘
##らむ
##染め
##結び
fo
あじ
たな
カザ
一望
一身
修練
入射
入道
八雲
利き
吸入
回顧
国府
在外
定規
実数
扇風
採ら
村井
東口
東名
滝川
白山
種苗
紀行
遠足
隣国
順子
##フェル
いため
はまり
ひらか
ふくむ
イシュ
ウンチ
ジャワ
ロータ
投融資
筋トレ
飲み屋
ギャング
サーモン
リタイア
映し出さ
繰り上げ
駆け寄っ
コンスタン
ムハンマド
##プライアンス
ユナイテッド
濾
##られ
##也子
##悪し
かぜ
ちゅ
ハエ
二宮
全社
勝者
同位
喝采
奥州
実権
屏風
左端
弛緩
後段
怪し
手柄
早苗
検閲
淘汰
童子
赤み
風貌
鳥羽
##らえる
##イオフ
おぼろ
なされ
呼べる
品揃え
日テレ
見失っ
ペイオフ
振り込ん
カテーテル
ショルダー
ブランデー
プロイセン
カーディガン
ファインダー
思い浮かべる
混ぜ合わせる
パーティション
コンプライアンス
バスケットボール
##bb
濱
礎
##とげ
うふ
ダシ
修得
個数
再来
刻々
割高
厳正
囲み
家柄
寝具
弱体
払拭
支流
永禄
直さ
短冊
私物
空虚
精算
翌月
聖母
謝り
鎖骨
鮮度
##ジタル
せりふ
イヤー
ジョル
リクル
丸の内
味つけ
指し示
請け負
mini
くちびる
でたらめ
またがる
オックス
ストロー
取り込ま
逃げ出す
ひっかかっ
挺
珊
##ウロ
##ザス
##ヶ丘
えぇ
じょ
ナニ
メド
一新
執り
左折
断行
校正
民有
海難
清国
激動
白状
羞恥
財投
賞品
赤穂
近道
鋳造
関根
難問
飛来
##ナール
##ヴィー
さらけ
しずか
アヒル
エレン
カリカ
バスト
メルセ
先立っ
外れる
手遅れ
更なる
裏切る
視聴覚
身勝手
くつろい
さびしい
つきもの
でっかい
駆け出し
コースター
セントラル
ファクター
アンデルセン
オフィシャル
∞
吏
腟
##ぐず
##ィー
##ヴル
##里子
##障り
hy
あめ
わー
アデ
デラ
トミ
ブイ
区長
厚手
奔走
宛先
容れ
小銭
当座
律法
所謂
摂食
文中
権益
正夫
残余
清涼
直進
窮地
箇年
終止
繰越
苛酷
試す
逆説
金星
関口
隆起
集成
高瀬
わかめ
クレア
ケンタ
ゲーテ
ゴジラ
シリン
ハズレ
ハリス
人さし
味わえ
念入り
揃える
果して
突き進
補てん
ぐずぐず
アンディ
マシーン
##テインメント
傭
蟻
##おち
##エビ
##ヒメ
##残っ
##違え
##ori
はえ
ばば
イマ
ベロ
マズ
内裏
名字
圭介
塩酸
増員
摂る
教示
油絵
減収
無性
自ず
衆生
表層
転嫁
頸部
log
あくび
わさび
ジニー
ジープ
バリー
ボーダ
ポテン
税込み
終われ
make
ほほえん
トラウマ
ナプキン
とりまとめ
スパゲッティ
##.............
苫
##コブ
##...
##cer
でつ
カフ
ザラ
ダグ
ヘラ
ロブ
三脚
乾き
交戦
休職
優等
勝る
半袖
史学
喰い
園内
平壌
序盤
技巧
換金
故事
教委
根絶
洋上
真中
砂防
積分
精通
老け
色紙
転機
かなう
っ放し
ひろい
アリア
ゴッホ
ソーダ
ニホン
ブリュ
下請け
居眠り
紙芝居
走れる
閉める
預ける
頑張ら
カルロス
プライス
リベラル
取り立て
いやらしい
遙
##倒れ
##itt
##oro
kw
さや
ぱん
ひし
イサ
ギョ
チロ
トビ
公聴
参与
家主
富む
平城
弁明
急落
抹殺
整頓
時差
汽船
測り
特段
皇女
真人
窒息
義弘
背丈
艦橋
花柄
転生
逆さ
部数
野坂
##レント
いおう
こわれ
だるま
つなが
つらく
はがし
グルー
テンプ
ピカソ
プリー
欠かさ
沸かし
見栄え
詰める
##サンブル
わきまえ
押し上げ
買い替え
tokyo
コラーゲン
##テクノロジー
##メロ
ぷり
コバ
タメ
亜鉛
余人
偏り
別館
即興
射し
改称
於い
更正
沿道
生協
続編
若松
虚血
衿子
部材
金運
鉄骨
長尾
長袖
雑種
頭皮
##メート
##____
age
つぼみ
エデン
サツマ
ワルツ
免れる
小中学
打てる
束の間
水やり
キューブ
コツコツ
シェリー
ペプチド
乗り心地
待ち伏せ
飲み干し
ふりかえっ
メルセデス
ローション
アップデート
ファイナンス
international
瑛
瓜
dm
せろ
てえ
のの
キキ
ジオ
ドウ
ビビ
与野
任用
免税
公証
半期
司書
周到
和音
大韓
抵触
激戦
白地
白金
確証
禁忌
秀樹
私服
絶句
至福
裸足
製紙
購読
踏襲
##めちゃ
##ニスカ
##ンクス
cor
うたわ
たがり
ほめる
まばら
セダン
強まり
田植え
申し分
関ヶ原
##タージュ
じわじわ
ばったり
ゴードン
メラニー
ルーシー
入り込む
出くわし
クオリティ
ハイブリッド
##78
匈
蔡
ばけ
ふち
ナム
リブ
仕度
利く
北原
古着
同額
嗅覚
国公
地雷
奈緒
女児
学位
寄港
文久
水草
水虫
河本
海戦
王家
石神
線形
義貞
街灯
輩出
逢っ
馬上
##つぶさ
##ュアル
mon
よごれ
コンポ
出回っ
少なめ
殆んど
話し手
hiro
over
ウェスト
オブジェ
追い込ん
エタノール
乗り越える
フローリング
ラインナップ
摺
絢
##かち
##ダス
##edo
おす
アツ
ハト
下肢
主事
乳製
信書
信金
倦怠
内国
再興
大昔
大門
岩井
心的
植栽
滑ら
特技
特設
著し
評し
通関
金貨
鉄製
##リオン
##ータン
nat
きわめ
クラウ
タンポ
ヒカル
吉祥寺
寝返り
血の気
金儲け
live
ローレン
忙しかっ
フランチャ
ワイシャツ
向かい合っ
持ち上げる
ハイビジョン
捏
捲
檻
##それ
##みず
##ヒョ
##隠れ
fc
セシ
ブン
不二
代弁
伸長
促さ
保税
入港
冬期
匈奴
吉備
周遊
喜多
四谷
大泉
寄席
店先
惣菜
所以
操る
新米
晩餐
松島
死滅
画廊
痺れ
直立
神崎
背面
脱皮
若林
薄力
越中
轟音
達也
陪審
##フォー
##レッタ
##ヴィエ
rak
ごちゃ
クエリ
ナポリ
パティ
リック
床の間
美智子
見入っ
ごろごろ
しきたり
はたらい
トップス
リポート
見極める
読み上げ
マーティン
バングラデシュ
##he
##yu
倣
##まじ
##デジ
##忘れ
あば
もく
ヨウ
上山
並列
利口
前代
勿体
原資
哲也
商い
垣根
奏し
宝庫
宮川
家元
局員
巡視
拾う
満々
生家
祝っ
神谷
神輿
糾弾
義昭
自室
葛城
酒屋
金山
門下
音頭
響か
##とれる
##ソーム
bit
fol
エンタ
バレル
パルプ
暑かっ
真っ青
ショール
懐かしく
調べよう
フェニックス
##オパ
けさ
クチ
バビ
亘理
佐吉
偽善
判時
勝家
北国
国益
大粒
太る
山羊
平民
明朝
渡部
炸裂
狭窄
珊瑚
甚大
縫合
草地
製材
西尾
辞儀
重き
重賞
銀杏
門弟
##こんな
##ナブル
##当てる
dir
mid
そむけ
のばす
アヘン
センサ
ノエル
前売り
変えれ
持ち株
殺し屋
生ごみ
あしらっ
ひるがえ
ひんやり
ウェーブ
スリーブ
ヒマラヤ
レスラー
凍りつい
よろしけれ
クリスティ
リクルート
啞
彗
撰
碧
芙
##べい
##吹き
##殺さ
##ike
ぢゃ
アガ
エラ
ツキ
体液
出港
太極
嫁い
幕僚
怖れ
慰霊
拭く
敵機
松明
桑田
比叡
繋い
草履
長銀
##オニア
##リアル
har
かなえ
まとい
アカネ
オキシ
クルド
ジェネ
タンス
トビー
マトリ
中高生
当り前
手応え
誇らし
おろそか
かんする
アイアン
デビッド
ナンシー
マウント
取り除き
落とし穴
カットソー
ブラインド
マウンテン
丙
痔
##伸び
##描き
サド
ナラ
ヤシ
一石
不詳
内職
劉邦
原野
唱歌
太古
好機
旅先
木陰
東武
流星
白熱
空地
納品
縛っ
習う
西条
透け
鈍く
開園
##ッケー
##ミール
##合おう
ter
tom
づらく
とまり
はしご
アルト
ガバナ
グレン
シンデ
ジュネ
セラミ
ニコラ
ヘビー
ボトム
マージ
リール
抗がん
行く手
##ライター
ぬくもり
触れ合い
走り回っ
たくましく
カフェイン
ライオンズ
逞
##のろ
##ブイ
##打っ
##続け
シメ
体長
凹凸
出展
前科
同族
基底
堅固
子牛
宿っ
工務
弥陀
悪用
捕手
敷居
新春
棄却
植生
毀損
洋楽
絡め
美的
色白
荒く
荷風
郵貯
露呈
静子
##カーン
##チャル
##ロリー
##ichi
おとし
なかま
はやし
オクラ
トロン
ポチッ
ルチア
ルパン
燃やす
膨らみ
見逃さ
陶磁器
chap
post
さいわい
シアトル
ショーツ
トラスト
ファイバ
振り込ま
横たわる
浮かべる
おっしゃら
まるっきり
ペンダント
そんなこんな
##ke
##ムラ
##機材
ko
ma
うみ
そり
たろ
イラ
エグ
下表
京大
原形
古風
増や
如実
宣戦
年額
広州
廃業
廃絶
忌避
急進
愛読
手拭
文教
日誌
津々
湿原
目論
磨か
福利
##かそう
##のぼり
##ケーキ
うつっ
かぶる
さんま
ふるう
エアー
エキゾ
スウェ
バジル
ムーア
メタン
ワカメ
ヴァー
根っこ
資機材
##ージング
さえぎっ
シンクロ
シンナー
ゼネコン
ハイパー
聞き取れ
ジュエリー
レオナルド
##no
輿
鱒
##のく
##やに
ハス
全う
公職
冷気
境目
文人
景勝
汚泥
漁民
盗む
真澄
社宅
社民
節減
細身
綱領
美由
美白
翻弄
自決
衛門
要所
親近
費目
賢く
赤道
足早
躍り
部外
野草
頭髪
あたま
りゅう
キャビ
コルト
ジーク
マルタ
察する
揺らし
江戸川
カーナビ
サムライ
ダーリン
ネタバレ
ノーマン
ルーカス
取りあげ
引き続い
さしかかっ
コレクター
ダーウィン
ピクニック
オックスフォード
υ
奢
珈
##たつ
##ギャ
##ペス
##ヤキ
##戻っ
##ane
##sch
ウシ
コピ
デフ
一瞥
一群
信夫
出没
可否
合板
天照
女人
平山
承り
排斥
斬る
新旧
有楽
松竹
殴る
炊事
独学
瑠璃
礼子
純子
群落
要り
誤認
驚嘆
##レンマ
chi
かゆみ
ひそん
まかり
まわす
アニー
ナンパ
ハープ
ヒノキ
ライム
上回り
深まる
フランソ
乗り出す
切り取っ
買い取り
ディジタル
フォーカス
アンサンブル
##ka
嗚
囃
罫
腑
##とぞ
##とも
##ふう
##探し
##破っ
##ima
ぢや
ラヴ
代入
催告
公卿
初詣
南国
呻き
外套
宿場
履く
帰路
底辺
彗星
有識
枠組
殉じ
殺戮
永続
相葉
矢島
素性
素早
脳死
船頭
花弁
蘇生
西鉄
貝殻
##キース
##ターズ
##ニョン
##バース
080
bur
のっと
はじけ
トカゲ
トロイ
ルーフ
降り注
飲もう
##ンスキー
case
your
どんぶり
イノシシ
ストロボ
ニクソン
バロック
モットー
張り切っ
組み入れ
クリーナー
シンデレラ
受け止める
##cd
祓
##っ端
##工業
##越さ
##ina
ごっ
リナ
ルン
三つ
上告
例示
制止
北沢
口惜
奥田
威圧
安泰
形相
微塵
懲り
於け
旧暦
暴風
田島
真顔
破ら
筒井
置け
船内
諸侯
辛う
運気
醒め
鑑識
長江
陥落
黒川
##スピア
sam
くさく
こぶし
つぐん
アキラ
ギフト
ヌード
賭ける
##erson
とりまく
ショウガ
モノクロ
ヨルダン
引っぱり
感じ取っ
譲り受け
のぞきこん
まんじゅう
インデックス
digital
⌒
惟
##300
はに
オホ
シダ
フフ
ラナ
二階
亡霊
令状
何物
内包
囁き
大火
寄宿
専任
尿酸
帰途
悠々
手錠
政局
斬ら
武藤
武雄
歯周
殺虫
汚水
激甚
生気
節句
紅色
要項
車中
長門
随筆
##ッツァ
##ラード
##ローズ
##view
つかま
はさま
はじき
アポロ
アング
シネマ
メッキ
レスポ
使い道
生える
見届け
##リエット
こちら側
たいがい
まぶしい
アラスカ
ショコラ
ニュート
バーゲン
ファイア
ローラー
輝かしい
アントニオ
ジャーナル
デフォルト
エクスプレス
コンビナート
ミリリットル
##ぱん
##べっ
##よろ
##オフ
##シィ
##ーダ
##乞い
##ino
そぐ
一過
三越
中宮
井川
前世
割安
原本
土蔵
奥方
寝そ
広葉
恒常
放た
敬老
朽ち
正成
殺傷
浸っ
液状
神代
積載
管弦
腕前
苦境
観葉
詳述
踏ま
転居
迷信
達者
錆び
##ニバル
##プラノ
##真面目
##ated
じゃぁ
でっち
はらっ
ガーデ
ホコリ
ホップ
マート
ラルフ
ランス
万引き
手引き
絶え間
##ブリッジ
prod
からかう
ひっかけ
ぼろぼろ
サヨナラ
引き分け
ガバナンス
ファスナー
ボーリング
モチベーション
##da
嶺
箋
賤
逓
##ぼさ
##句麗
##控え
##解け
el
のぉ
モク
モヤ
リメ
交点
仰ぐ
元老
共催
前足
口ご
吉良
気筒
江ノ
泊っ
深度
為す
真正
肉眼
艦船
負え
賄賂
阿川
風格
##ネーム
##ブール
mag
pot
くぼみ
こぞっ
なーに
ナッツ
ヒンド
却って
向かわ
定まっ
清らか
高句麗
##ワーデス
##ative
やりがい
カリカリ
ガタガタ
チャイナ
ホウレン
マウンド
乗り込む
受けとっ
愛らしい
踏み切っ
ビスケット
##df
楢
釉
##えん
##ゲー
##ヌキ
こげ
仁王
凱旋
初等
利己
北山
半面
口内
台車
堀田
敬礼
敷く
旅券
明王
本邦
松村
松陰
栄誉
武官
気絶
照準
牽制
白木
精液
脱線
落選
西宮
親交
角膜
説話
象牙
重工
防音
除草
##こえる
hot
ill
うまみ
ふうん
めがね
キラー
ココナ
代々木
手だて
手つき
煮込ん
行き交
##もろこし
view
フラフラ
引っ張ら
書き込ま
組み込ん
##チャクチャ
rakuten
シェイクスピア
スチュワーデス
梵
牌
祟
翳
諺
##シテ
##ノア
##ーく
##付か
##言い
pp
ぃぃ
そよ
とお
ふぐ
ギブ
ッて
ヒヤ
不整
交信
俊輔
初恋
嘆く
培っ
堅実
売場
得策
志郎
思慮
憂い
成員
村々
東条
氏族
点々
白河
織機
花子
裸体
近松
速攻
違憲
鎌足
陰気
雄弁
面識
##チウム
##ニウス
##プトン
old
あせっ
カーラ
モント
働ける
大急ぎ
曇り空
類する
hint
グラタン
コンソメ
ハンガー
引き継ぐ
読み取り
買い換え
つくり出し
スチロール
フロンティア
バイオテクノロジー
哨
埠
##乱し
##aka
##ubl
ぎゃ
んー
セキ
パナ
ホロ
仰ぎ
低地
具現
円柱
出自
分与
加重
号令
咽頭
在任
変性
宿屋
居留
志摩
悲痛
拠り
文科
澄み
珈琲
美徳
街区
角栄
隠岐
須藤
##っぽけ
##マリア
caf
あっし
とんだ
みとめ
アット
クスリ
サリン
チャリ
チラッ
チンパ
フェン
外付け
深まり
sony
いきおい
ほどほど
フェルト
ルックス
apple
アイランド
スクーター
チンパンジー
バッティング
##タナ
##ッラ
gl
しお
ゆめ
ワニ
九条
出前
刻印
埠頭
大乗
奨め
子女
対空
市中
延滞
折る
撃破
改名
敢行
気品
泊め
灯火
祈念
私法
竹刀
絶品
綴り
裏庭
西岸
記帳
足軽
通念
##り返さ
##onom
さやか
ダース
引下げ
美由紀
stat
あやしい
ボクサー
モロッコ
ロースト
備え付け
差し込む
見どころ
ふくらはぎ
グルコース
サーフィン
##リューション
セットアップ
蓬
鉤
銚
##アミ
##ムリ
##廻し
##葺き
tw
コサ
トピ
ミソ
ラビ
ルル
ワザ
ワト
人家
便乗
八戸
園田
多元
奪取
式場
強弱
慈善
手頃
投薬
智子
根岸
民権
求償
法典
渓流
皮下
直属
省力
着任
秀忠
紋章
蔵王
見世
##――――
あずけ
かがみ
しのぶ
ガイア
グレゴ
ダニー
ハーマ
仕打ち
売り手
変われ
富士通
悲しん
貧しく
転がし
what
つっこん
ともども
どんより
フッター
乗りこん
吐き出す
差し込ん
読み込み
辛うじて
(・∀・)
たどりつい
ステータス
プロフェッ
ジャイアンツ
贔
轢
##エゴ
##ネイ
##ボス
##濡れ
##苦茶
##ety
きな
九郎
半生
双葉
声高
太腿
崇高
徴候
感化
撲滅
活き
港町
生来
異教
発起
相乗
矢部
神武
総計
術師
被る
記名
論拠
贔屓
追随
野沢
銚子
##ッペン
前置き
召使い
焼き肉
見逃す
預かる
顔ぶれ
##ージニア
かけよう
せん切り
なだらか
ほど遠い
サイコロ
シェイプ
シリウス
プレーン
切り分け
割り切っ
申し込む
たたずまい
ウクライナ
ヒューマン
めちゃめちゃ
ハンドバッグ
##ss
##シク
##igh
オチ
キハ
スエ
一路
伺う
円墳
刻む
可笑
吸着
和彦
営ま
多田
大樹
寄贈
寝坊
岩倉
岸壁
弁証
拝啓
林檎
気性
清正
点け
矢掛
等価
至難
許諾
車窓
較べ
辞令
適時
釜山
##レック
あやし
こえる
じゅん
たすけ
むすび
ゆたか
デッド
ボイス
ボーン
メンテ
今ごろ
借入れ
大将軍
陸海軍
飛ばさ
おおらか
エステル
オモチャ
テレホン
助け合い
折り合い
抱きつい
ノイローゼ
ボナパルト
引き落とし
萱
賽
##奈美
##飛び
os
つむ
へい
まぬ
キメ
ザク
テラ
万歳
争わ
交友
任じ
元首
先決
出先
器量
報わ
大中
官軍
富豪
悪事
折々
拡げ
持主
掘る
杉並
枯渇
横行
法度
略語
県外
突く
線分
調度
軟膏
辛口
農夫
逸品
遊離
際限
魔物
##ベスト
##ique
eur
うたう
およん
かわす
たのむ
クイン
ナイン
多かれ
小夜子
小高い
屋根裏
川沿い
手の甲
じりじり
オンリー
クロード
レバノン
吹き抜け
居合わせ
思い立っ
ウィルソン
バイキング
かわいらしい
ポテンシャル
趨
##ベア
##治郎
##era
70
うや
かじ
イト
ハド
ホラ
モダ
低音
佐竹
例題
備前
動悸
博し
商談
国学
密輸
巨匠
引数
暖簾
樹齢
歌集
盛況
祀る
結節
署長
華人
言ふ
長浜
##ポリス
##マリー
こする
ガマン
クラリ
サトル
ノルマ
プロレ
中山間
若かっ
茶の間
##イオニー
##テックス
##メンタル
tech
きめ細か
ひどかっ
ほどこし
ジョアン
トントン
ニヤニヤ
吸い込ん
追い込み
ジョーダン
ボンネット
働きかける
とうもろこし
メタボリック
ハーマイオニー
##yn
饗
##わえ
##ミル
##ーイ
##ape
##ode
フキ
三原
両日
京極
係属
保坂
公私
初版
刺繡
剛性
変調
大杉
子息
家督
帆船
弱気
形象
愛車
成仏
抗告
拭っ
掻き
櫻井
決闘
真由
短波
米兵
糖分
西国
計器
過食
道楽
鼓膜
##ざっぱ
##タイプ
##ペンス
えらく
おおお
つつま
ひょい
コトバ
ナオミ
ハイデ
千切り
安保理
盆踊り
##っきょく
..."
おさまる
ちっぽけ
シュガー
トランジ
ニコチン
少なかれ
生きよう
落ち着け
パーキング
ニックネーム
プロバイダー
セキュリティー
##ゆい
##osh
カバ
一倍
伸縮
低利
佐助
力点
古き
各県
宇田
弾道
愛子
慣性
手中
暖め
更衣
月夜
極上
洞爺
産油
病害
移管
篤姫
規準
赴く
速水
過密
隠蔽
震動
##ぶしぶ
##ルコト
##気ない
かつい
マッハ
割れ目
藤吉郎
鉱工業
amer
うまかっ
こめかみ
しぶしぶ
すごかっ
どきどき
アルベル
アンドレ
クロック
建て替え
(≧∇≦)
けっきょく
##37
##おそ
##ull
su
ぞく
ぬり
不用
二者
人心
何れ
削ら
台座
合点
同館
士族
家長
宿主
掛川
援軍
撃墜
文房
書留
架け
毒物
永年
火口
癒す
眉毛
称賛
空爆
細野
聖霊
胃袋
超す
降雨
雑踏
##すべり
##だそう
##リッジ
ともし
どん底
にじん
はらん
まさる
みなと
わらっ
ニッコ
バザー
ビック
プラハ
プロト
春休み
買い目
##ティウス
char
つらかっ
ひとびと
ほっそり
アッシュ
ウーマン
値下がり
追い出さ
ジュネーブ
款
##晴れ
くし
らい
タチ
ビリ
ラメ
上総
両眼
先述
咎め
孔明
搬出
撃退
新党
歩調
水軍
演歌
濃密
直樹
矢沢
立山
習熟
腹膜
自画
見識
進駐
酒田
雨戸
##もたれ
##ロウロ
##掛かっ
##arch
sub
たのん
まん中
チェア
トミー
二階堂
口コミ
流行り
間抜け
9000
がっしり
ずるずる
ウーロン
バリュー
ポリシー
メルマガ
引き継ぎ
買い上げ
ジャンパー
article
##@)
峻
頚
##づれ
##とく
##ふく
##定め
##汚れ
いず
えい
ちぢ
どり
ゴス
サト
ラボ
三輪
健闘
剣術
加奈
卵子
古河
営林
夜半
宮田
平氏
彫っ
敬虔
板垣
油田
片腕
葛西
角川
課す
順応
##おそる
##ッケン
##飛ばす
##ideo
おける
かなた
ふやし
スリル
テング
ミミズ
会おう
body
hist
せんべい
ジレンマ
ドラクエ
プラチナ
メリハリ
ユーゴス
折りたた
盛りつけ
言い回し
間違える
スクロール
レスポンス
デモクラシー
インストラクター
##hr
##マム
ププ
モミ
井口
今時
侯爵
初老
宣誓
帰郷
延命
御免
復刻
愛嬌
智恵
柏木
植樹
武芸
殺せ
津川
流儀
熾烈
疲弊
秋月
稲田
菅野
貧し
貪欲
貫か
隆之
震源
香典
魚屋
##ちょく
cre
あぐら
あさり
かけれ
かっと
くくっ
ごみ箱
ささげ
さわる
ぶちま
スプリ
ツツジ
国分寺
委ねる
学べる
揺れ動
活かす
背負う
近づか
近付い
陽射し
##リオット
best
それがし
なにもの
ウロウロ
コミット
ニコライ
パステル
ブロンド
乗り込み
引き立て
言い切っ
飛びだし
つくり出す
よろしゅう
ビジュアル
ビデオテープ
##っぷ
##もら
##建て
##瀬川
##追い
カヤ
チア
ヒョ
フト
ルド
三上
中腹
乞う
体位
入念
初年
右辺
四球
堀川
大宰
子規
寝転
小津
損壊
本所
歳三
歴任
滲み
無心
父兄
直子
砕い
秀雄
築城
糖質
肩書
試さ
風力
##ティエ
すすむ
とろみ
ひずみ
アタマ
エロス
クレー
トッド
ワット
ヴィエ
不可避
人通り
商工業
逃がし
うなだれ
おさまり
かれこれ
たこ焼き
サウジア
レーサー
切り離さ
持ちかけ
歩み寄っ
聞きつけ
駆け引き
オリエンタル
オペレーション
##12
學
痰
譚
##ズス
##之進
##潰し
##ute
ix
―)
くや
ナツ
一物
一躍
京王
全会
即刻
回忌
坊や
売主
奔放
小宮
布陣
後手
所々
操舵
栗山
残忍
漸く
祥子
肉用
花形
逆行
遭う
野次
阿蘇
電卓
頭巾
養父
馬単
##ギョン
##コーン
##ネスコ
さけん
にゃん
よぎっ
アサヒ
オーソ
ジェス
バッタ
先立ち
蒸し暑
面持ち
ぶら下げ
ゆらゆら
インチキ
キャビン
ユニクロ
ライアン
ラケット
立て直し
super
ジュリアン
special
サウジアラビア
佛
苺
##しれ
##てら
##の根
##ヒネ
つぼ
みき
ラズ
全校
厳粛
口ず
同名
塩水
小渕
延暦
悟空
押せ
拘禁
挙句
摘ん
撒き
旅籠
智慧
残骸
法隆
減衰
漂い
田宮
砂丘
網走
緩衝
罫線
趨勢
追究
遺品
音源
騒然
鳥類
##ラール
##eral
こわく
ささい
ばかば
サード
ドーン
ファシ
ブッダ
ワンコ
慎太郎
手ごろ
解き放
遊び場
隠れ家
すみやか
むきだし
シナモン
築き上げ
見いだす
ブライアン
立ち向かう
クライエント
ケンブリッジ
##ガモ
##ツォ
##寿司
##廻り
##air
pg
チク
ルポ
両院
余力
全席
及川
口絵
幸村
弱み
拙者
新陳
日成
村松
流氷
淳一
申せ
直視
知行
祝祭
終局
臨終
解か
躍進
転覆
違え
遭わ
針葉
高村
##ビック
ctr
med
つくす
つよい
ウンコ
グロス
口もと
掛け声
里帰り
こみあげ
そうめん
のっとっ
ふり返っ
むずかし
エルメス
カーター
ソプラノ
ハングル
ヘブライ
##ったらかし
デリケート
ブラジャー
組み立てる
噺
庸
隋
##ミス
ちっ
ねた
ばっ
ゴア
ツメ
上尾
前任
否決
塩味
変装
女郎
富岡
審決
岩場
引力
手下
打率
探さ
沼津
無地
狭義
系図
経る
義仲
脱衣
腸内
表皮
西北
赤毛
鋼鉄
門徒
防寒
##リーニ
サラ金
強いて
甲高い
見とれ
遠ざけ
2008
あわせる
いやはや
くり返す
のろのろ
まじまじ
アパレル
ジェニー
ジャンク
切り上げ
待ち構え
歩き回っ
気まずい
言い切れ
読み返し
連れ出し
ブティック
ミュンヘン
プロレタリア
インフォメーション
屑
梢
鋸
##まつ
##ナシ
##ery
ob
ウワ
ザー
デマ
個展
内乱
前部
動乱
名手
呉服
妙子
宮澤
常習
形勢
必見
扇子
普請
水兵
流水
浅田
溶剤
瑞穂
益々
目尻
目白
節分
美香
華奢
蜂蜜
覆面
証し
詮索
遭い
配色
開講
風車
飛ば
##まろう
##ウォン
##ッフル
##ホルム
あああ
あつめ
おもり
しこり
なーん
ふるわ
ぼかし
もみじ
もよう
ウナギ
ギャラ
ナイル
ヒルデ
台無し
繋がる
##cript
そろえる
オーケー
キャリー
データー
ドンドン
ドーナツ
マンゴー
持ち出す
流れ込ん
##だる
##ばえ
##タマ
##光寺
##待ち
ふか
わた
シチ
一座
仮眠
優劣
元彼
八条
前兆
功徳
収束
吉行
国策
塩辛
小板
小谷
山県
川村
得体
房総
所掌
技量
投函
担ぎ
条理
永代
渇水
直腸
糸口
肌寒
論説
逆流
通所
道義
都立
間食
##ウスト
bps
cam
あだ名
あて先
うかべ
かさね
そうじ
たたみ
つうじ
はずみ
はやり
アルゴ
チェロ
ドリー
ホーク
ポータ
化け物
小太郎
眠れる
##フレーズ
いまどき
やりくり
クイック
スタミナ
ヒューマ
振り込め
しかたなく
チャーチル
通り過ぎる
酔っぱらっ
ウェブサイト
フィニッシュ
ベースボール
コミュニティー
プロフェッショナル
寓
殖
##ひも
##小牧
##fer
あび
ひだ
アビ
ツン
ミカ
不毛
備品
優子
元利
公選
力説
北島
大奥
宇多
山根
平年
年表
抄子
投書
格式
格言
機序
洗車
添乗
理恵
立脚
純一
純白
腐食
虚無
見す
視床
試着
赤羽
金網
雑用
領有
黒色
##フルト
##マイズ
##port
さらば
ちぎっ
なぐさ
ふさい
キッド
サザン
スパン
スピリ
ロッジ
塩漬け
寝よう
押入れ
決まら
苫小牧
##ナップル
##ロニクス
ctrl
ずうっと
つきあう
フェース
レッテル
ワンダー
切り開い
呼び寄せ
買い取っ
ひとしきり
セラピスト
ダンボール
フェンダー
##ct
毘
麵
##っぺ
##つが
##ネリ
##ild
てこ
ナメ
パサ
ペラ
丸み
佃煮
余命
兼用
名分
啓示
国名
山岡
床屋
戯れ
挟む
散る
有紀
朝方
消却
点字
牡蠣
稲原
箕面
縮減
翌々
英世
関所
##らかす
##ショー
すがり
つまる
アウグ
アガリ
オバマ
ジミー
ベター
与野党
交わる
卵焼き
取引き
富士見
昼ご飯
期する
片思い
真っ向
裏打ち
金次郎
##サウルス
はるばる
エコノミ
クレーン
シャネル
シリアル
ポッター
ポツダム
ミニスカ
向き直っ
言い伝え
dream
切り落とし
##hd
##na
蚕
遇
##うた
##改築
##mer
うき
こき
でぇ
クズ
ジジ
両氏
中谷
交尾
公言
十勝
千鳥
口笛
型紙
委譲
子分
学区
宣長
尿道
岡部
常温
庭先
強者
征伐
押印
揃う
損ね
森下
検知
母校
物置
目元
端数
粘液
聖域
脚光
英治
覗か
転げ
関門
青柳
##んなか
##ents
ずるい
っちゃ
とがっ
にぎっ
乾かし
後醍醐
組換え
どっしり
エナメル
シュトラ
ハチミツ
買い付け
引きこもり
ォ
韻
##ひげ
##モチ
##備え
##opa
ぬか
ばぁ
ダナ
ダビ
一声
侵食
各回
同業
圭子
増収
寄進
尾瀬
巻か
布地
干す
彫像
後漢
微分
戦犯
所帯
抑留
捕捉
渡米
無残
生業
社説
秀頼
童謡
肋骨
速記
集客
駅員
##こちょ
##シャー
##チーヌ
##ブリン
vis
おそく
かばん
サーチ
ナット
モース
励ます
口出し
命がけ
小次郎
悲しむ
水揚げ
空き缶
見きわ
##チュール
##フルーツ
ぐんぐん
だいいち
まかせる
クランク
セラピー
バーテン
見おろし
送り出す
ちゃんねる
ヴィーナス
おそるおそる
パイナップル
##48
##ky
〆
##かど
##びん
##スパ
##息子
##理子
##震い
さだ
ウニ
グン
コイ
ホト
マユ
リコ
ルク
主旨
出航
初戦
前庭
北海
取手
外気
寝れ
屈曲
差益
干拓
庄内
廻し
止血
狂犬
示談
税源
筋腫
納屋
自販
荷台
金本
雌雄
餓鬼
駐輪
##しょり
##カード
##ドンナ
##ボルト
しおり
どない
アレク
ガチャ
クック
クロロ
ゲルマ
トール
不可分
不向き
南北朝
小走り
差し伸
言い表
link
まったり
キャシー
シティー
テイラー
心地よく
entry
スパイウェア
chapter
糠
##おず
##かげ
##しっ
##れば
##ソリ
##流す
##ict
##orn
おず
たあ
ふて
ゆび
オサ
コノ
ハメ
伊奈
体罰
入籍
公司
収蔵
向島
喉頭
安井
小委
屈指
履修
平素
後場
忠敬
忠臣
患部
殺気
洗脳
無敵
狭心
病み
短剣
硬変
稜線
米価
見計
貫き
賢者
越す
長瀬
##サイユ
##ッキン
##ピット
##ライス
##ローブ
##ーツク
##ーニャ
さまし
つどい
ほうり
むっと
サンウ
タンゴ
ヒツジ
マーチ
墓参り
心強い
晩御飯
結び目
##esson
あらすじ
おずおず
こわばっ
まばたき
コメディ
スキーム
ゼラチン
パープル
ブランコ
追いつく
beaut
シリンダー
エスカレーター
チェックポイント
畝
##べた
##ゥス
##モト
##乱れ
##搗き
##日町
##^;)
##ada
おぞ
さざ
やお
ペコ
ヶ国
一握
今宵
伽耶
前歯
協賛
単品
合作
商号
大成
尊氏
尺八
慣例
懲罰
戦勝
打診
松崎
法事
海側
短調
紙片
絡む
総勢
胸中
螺旋
被覆
重圧
飛車
##あたら
##トープ
(^▽
ber
pal
sak
されど
しめし
ちょん
ふすま
ほほ笑
トリオ
ラッパ
浮かれ
腕組み
腹立た
良けれ
黄色く
##デリック
ぎょっと
もらえれ
オスマン
売り出し
無くなる
アンジェラ
ハイライト
静まり返っ
トランペット
ヴェネツィア
フランクフルト
##,7
##ため
厳守
口上
嘆願
圧勝
容保
崩す
急病
憎ま
手っ
擁し
断続
東宝
桜田
正一
気流
猟師
石碑
示せ
空調
職域
赴い
違わ
香辛
##レッド
6,7
jsp
rpm
とっと
むくみ
シード
トレン
ニコル
マーラ
勤め先
可哀相
目隠し
石神井
足どり
##シデント
##ドリング
じゃろう
つなげる
ソロモン
デイリー
パラパラ
呼び掛け
座り込ん
振り回し
止めよう
美しかっ
たどり着く
つくりだし
トースター
ヤンキース
カスタマイズ
コーティング
埴
薙
##ま湯
##らげ
##ポタ
##ワラ
sa
ごう
ばね
ハッ
乱し
付記
休戦
作図
借主
円錐
同質
婚礼
廃車
弾み
抱擁
民話
綴っ
親和
近況
開墾
難聴
類推
飲用
養っ
##がらし
sur
すくっ
ほっぺ
わずら
グリン
メジロ
ユート
八百屋
有楽町
脅かさ
草むら
親しん
身震い
##ブリエル
ぬるま湯
まちがえ
クレープ
コーラン
スクープ
ストール
ハーバー
マイルド
飲み込ん
##ization
ロマンティック
##11
##ck
悉
簞
隷
##わう
##オリ
##バシ
##早川
##ips
##min
―『
すぼ
オメ
スノ
ドブ
ノス
ムル
五入
任天
余る
作付
北口
土石
地租
天板
失効
子音
尽し
岡野
帰す
復員
急死
承っ
接地
深谷
物色
甘美
着席
研ぎ
粉砕
結実
老若
自筆
荘厳
袈裟
西園
角質
触発
近海
退散
選好
酔う
野山
鉄則
鍵盤
##たまた
##コック
##ハルト
lin
さけび
すきま
はたし
ひらき
ゆがみ
ゆるん
ミスタ
リュー
代官山
冬休み
占い師
和らげ
慰める
持ち味
持ち運
蕎麦屋
見比べ
##キンソン
たやすく
ちらちら
はたまた
まんなか
ウエート
コロニー
ジョニー
考えこん
落ち込む
頼もしい
ぶら下がっ
ヒンドゥー
フィッシュ
レポーター
national
##33
##ha
幣
骸
##ひし
##認可
##ene
##ita
19
ウズ
オロ
コソ
ホノ
万人
会派
全角
受入
向井
咄嗟
土星
夕子
実名
密告
年俸
年輩
捜す
斑点
新薬
枝豆
業過
簞笥
英子
行軍
調製
躍動
軽微
農道
遊べ
還暦
首席
##ガエル
##ソール
##ファイ
##orer
non
かえし
くふう
つつい
なじん
ならし
ジョイ
ベジタ
内蔵助
割れる
小早川
強いる
微笑む
細切り
許認可
踊り場
長ねぎ
いんげん
うめき声
くすくす
クーポン
シイタケ
スタディ
ソケット
パワフル
ワーナー
引き連れ
きょうだい
こびりつい
ロータリー
sports
セクシュアル
キャッチフレーズ
巳
##あき
##だけ
##ピリ
##沙子
##ume
やぶ
オニ
リマ
ワキ
二元
云え
加担
同類
哨戒
四捨
大隈
尼崎
急所
性向
整列
日朝
月子
未年
殺意
混血
漂白
皇位
皮脂
目次
総力
羽柴
脇腹
起る
述懐
通気
連戦
遙か
酢酸
閃光
頓着
##こぼれ
##こめる
##ギニア
##ノイド
##取ろう
bre
うつし
そぐわ
つけろ
ひしめ
わめき
ダンプ
パース
ブレン
吠える
有難い
##ution
タリバン
ダラダラ
ビルダー
ブツブツ
噴き出し
手っ取り
通り越し
つくり上げ
ウォーカー
ステッカー
##ぬく
##べつ
##ツン
##ヒト
##借り
##巡り
しで
シソ
久木
兵役
剃っ
勝た
参観
古都
司る
吸血
吾輩
坐る
天安
如意
小判
平塚
懸案
手近
止ん
歴然
爆音
物心
碑文
神保
縦軸
義塾
落着
薬用
藤川
読本
通年
選り
電解
霞ヶ
非情
風物
飛翔
高潮
##どおり
##ルドー
##重なる
ぼやけ
十二分
形づく
後ろめ
那珂川
ちりめん
てんかん
バイアス
バイエル
ユネスコ
一人っ子
付き添い
入りこん
抱き合っ
目覚まし
間に合い
インポート
スリランカ
引き締まっ
lesson
アンバランス
フェミニズム
ローテーション
##ee
腔
##つれ
はつ
フュ
一々
不順
争奪
人衆
信憑
公序
動的
啞然
大竹
大路
天竜
専従
巻頭
忠治
抗酸
拘ら
拘置
敬愛
本職
架橋
浩二
渋沢
熟睡
直り
総て
肉類
誓う
誓約
迷子
重層
高炉
##おろす
##まかせ
##ツキー
##マール
##メイド
うなっ
おくり
しのび
たたん
ちょく
どなり
ひかる
アンジ
シャム
タヌキ
ダイワ
メッカ
ユング
出入国
曲げる
虎之助
見切り
見詰め
apec
あたくし
ささやく
ぶつける
パンパン
出掛ける
割り込ん
明け暮れ
食べれる
駆け込ん
state
アスリート
ミニチュア
レディース
ナレーション
エレクトロニクス
##ts
蔭
##ぴら
ふせ
もぎ
カケ
キプ
ポワ
ヤギ
一任
中沢
併し
分館
土着
坂東
屈託
岩山
平定
悟ら
拒み
早春
春子
有毒
木箱
未聞
本島
横軸
正彦
永く
浸潤
減損
王道
画策
盛ら
真冬
空席
育む
脈絡
臨調
船上
蘇っ
足す
青梅
非人
音羽
麻呂
##▽≦)
##やかす
##セッツ
##トニン
##フライ
されば
とんと
ぽつん
アサリ
クルミ
バドミ
従兄弟
教え子
浮かば
隔たり
##ッサンス
しゃがん
ガッカリ
グレート
スタメン
マージン
ミツバチ
歯ごたえ
目覚める
相応しい
突っ立っ
重苦しい
すりおろし
ステークス
セレモニー
レンジャー
思い当たる
commun
バドミントン
##^;
牟
##ソス
##ゾル
##ノロ
ts
フグ
三塁
亜矢
停泊
勧業
同校
大拙
奥羽
実装
岩盤
心肺
憑依
成瀬
木簡
棲み
武人
法曹
潜む
炎上
熱量
町中
細々
蠟燭
諭吉
謀略
軍医
遺留
防げ
首輪
##しゃり
##とうと
let
yam
いびき
しめじ
となえ
ねじれ
ふもと
エフェ
ツッコ
メダカ
ルック
仕送り
多けれ
新太郎
溜まり
漏れる
生ける
被ばく
逆らう
飽きる
that
おどろき
くつろぎ
アダプタ
ガリレオ
グラビア
グルジア
ダビング
ノンフィ
ヴィトン
ヴェール
切り込み
大がかり
背もたれ
##aisuki
スクリュー
マドリード
組み合わさ
妓
##ぁん
##そわ
##ッリ
##ニイ
##ale
##ero
##les
##own
きよ
ぱく
タロ
ヌル
主査
位牌
冬子
凝り
分家
千春
史実
吾郎
囁く
声音
奇数
奥地
如し
対向
屋形
川岸
帰依
平戸
座長
弾頭
心療
憩い
旧制
水防
海部
湯船
無害
病者
石津
純米
給仕
羽毛
藤野
訳注
諮り
買主
越路
込む
過し
餓死
##たまり
##つめる
##ustr
cat
きたし
そろい
ひらく
コイツ
ダイナ
ミッチ
ライカ
焼ける
##っちゃけ
##チュード
2010
expl
happ
itun
っちゅう
アシスト
デッサン
ポリマー
投げ捨て
言いつけ
イヤリング
スクラップ
ナンセンス
マサチュー
ユートピア
folder
シュトラウス
テンプレート
オーディション
ノンフィクション
マサチューセッツ
俸
聯
##、5
##レク
##ako
しよ
デミ
リミ
ロリ
一円
一念
主将
勝率
取水
変る
失神
川辺
後発
手芸
撮像
改宗
次号
水洗
波紋
温熱
蘇峰
農学
銅像
鎮守
長文
難関
頼め
馬子
##ザンヌ
##デリア
##ニアン
##ネント
##気なく
4、5
cos
すがす
すすっ
ちくわ
はがれ
ばかげ
デイト
パチリ
フツー
フリル
垣間見
始まら
弾ける
待ち望
惑わさ
拡がっ
美奈子
見付け
##バックス
inst
とり入れ
まとわり
アンジー
サボテン
ディスコ
ドリフト
バーバラ
ワークス
取り直し
見せよう
paopa
差し押さえ
重ね合わせ
econom
ファクトリー
リーズナブル
エンジニアリング
##,6
ゥ
嚥
##きる
##ぞう
##ぺい
##ょん
##ヤマ
##ena
そい
よど
コテ
ニス
三鷹
再審
原色
各党
喫し
学徒
小浜
弦楽
性差
持論
摂政
棚田
歌え
気概
清河
満席
生誕
磐梯
策略
紅潮
群集
臣下
著述
試乗
読解
談笑
遊具
道子
高志
麻子
##わたし
##ブレム
##明かり
5,6
いだい
さがす
ゆえん
アルテ
ダリア
パクリ
ルース
伊勢丹
受け手
心遣い
折り紙
金田一
間合い
##サイダー
あつせん
ありあり
タービン
当てはめ
抜け出す
立ち去る
##チェスター
とりかかっ
エメラルド
サバイバル
スポーティ
プランター
パーフェクト
##odaisuki
クリストファー
マッシュルーム
インターフェース
グレープフルーツ
paopaodaisuki
幌
愁
鍬
##がち
##カセ
##ゼイ
##七郎
##揃い
##ema
いー
へぇ
スジ
モネ
ロバ
一堂
世銀
伊那
唐沢
商用
壮年
外為
大同
天災
太め
完売
岸辺
川西
憎む
手綱
曽我
木刀
水夫
汚さ
洞穴
淳子
王族
理工
窺っ
節点
細動
組員
自他
葬ら
観衆
邦訳
門人
開校
隠せ
頭金
##ニャン
##ネズミ
くすん
こなせ
こまっ
ケニア
コンプ
サクサ
ピュア
ベータ
合わさ
増改築
後回し
日美子
明ける
横切る
user
たたかい
ゲルマン
コロコロ
ボーイズ
モルヒネ
迎え入れ
送り込ん
通りすぎ
サスペンス
立ち止まり
起き上がっ
アルゴリズム
キャッチャー
生まれ変わっ
インフレーション
プラットフォーム
##‐‐
嘗
捺
訝
##おん
##さす
##カワ
##ゲス
##タテ
##弁連
お蔭
かむ
しぶ
べた
ケド
ミノ
ムチ
下見
停留
加茂
叡山
口論
可変
号泣
図版
外形
島村
徳田
慰労
成否
文壇
木炭
栗田
棟梁
榊原
水車
波乱
浜中
清流
獄中
生ま
産経
痴漢
目薬
神妙
米倉
精油
豊作
軍政
載る
送球
這わ
雅彦
離宮
難題
##かえり
##ってり
##はやさ
##エール
##バンク
##ベック
chr
clo
うすい
くぐる
カープ
コスモ
ススキ
タマゴ
ポッド
ラクダ
冷える
売り物
物言い
甘える
美代子
若い衆
##キャップ
ジェシカ
セルビア
ダックス
バラード
ポルシェ
出し入れ
可愛かっ
後ろ向き
笑いかけ
聞き入れ
キャンディ
キャビネット
##ye
亨
歎
##こさ
##モル
##破り
##苦し
##ato
##col
(。
cd
かも
がわ
エゾ
ケラ
バト
三吉
上村
人相
係り
修験
冬眠
大空
大群
失墜
封書
小節
広聴
当為
悠然
手許
書評
未開
本籍
東宮
模し
気運
炭火
牧畜
発刊
発案
美妙
荒井
蒸留
蘭子
貫徹
追撃
退任
随一
雪崩
高判
##こっち
##レーヌ
ああっ
つけ根
のび太
ひとえ
エンゲ
サウス
サニー
シュウ
トゥル
トゥー
バスケ
モータ
先立つ
抱きか
滅ぼし
眩しい
立ち尽
##ウォール
(*^▽
けいれん
ことがら
アルフレ
サクサク
スターズ
スモーク
ダイバー
テナント
ありがたく
いただこう
だらしない
トイレット
カラーリング
##めぐ
##イカ
三笠
両脚
入出
典子
命日
場内
墓場
存立
客船
対角
弁慶
弘法
弾ん
律子
徳山
手代
振れ
接吻
摂り
晩秋
母方
泥沼
異名
痛風
着想
硬貨
筆跡
節度
納骨
自爆
薄手
親し
解す
豊橋
適齢
顕彰
黒崎
##タイム
##ハイム
mol
おっか
たたか
ぶっき
ゆるい
アトム
オッズ
コピペ
チュニ
ハハハ
ルノー
天安門
悪しき
泣き叫
着払い
繰返し
足踏み
連太郎
あぶない
おととい
かけつけ
オンブズ
ダイアナ
トラップ
ポップス
取り囲む
放り出し
書き上げ
行き着く
酔っ払っ
アーケード
インドシナ
ジャネット
ダイオード
フランチェ
あっちこっち
ルネッサンス
##17
##ねえ
##ーシ
##倒さ
##探り
##触れ
bp
がく
てつ
上官
伊都
助詞
博文
各界
名主
嗅い
噛む
堅気
壊死
大目
奥村
孫子
小袖
張本
強豪
思は
悪者
摂津
擁立
昌浩
服薬
法王
発っ
習俗
虚空
裁き
輪廻
迎撃
遍歴
陥れ
香菜
##こもう
##コート
##シャク
##ロピー
##ンスク
but
いわし
しもう
たむろ
ちいさ
つっこ
はさむ
むかい
わらい
エリカ
ハンダ
バール
ユーゴ
何ごと
学ぼう
散らす
横たえ
溶かす
留まる
費やす
身構え
##キュール
##ラディン
foma
free
soci
なつかし
セーラー
フランコ
リューク
呼び止め
引き込ま
遠ざかる
避けよう
おかしかっ
つきまとう
オリエント
マニキュア
ウエディング
ガーデニング
##au
錐
##はれ
##ウナ
##シキ
##寄ら
##貸し
##開く
bu
ff
―』
たね
のる
もー
ラプ
三位
両社
中産
会食
分団
即日
厳禁
取調
召さ
召喚
吉井
塗布
夜更
失脚
始発
嫌疑
平手
幼年
弓子
徳永
戦況
持病
撃沈
明暗
昭次
晒し
森川
構文
次式
正子
渇き
満塁
牛丼
自賠
若衆
薬指
西域
親身
音読
高所
##すまし
##シュタ
(^0
cho
loc
sci
あがら
アンソ
グラブ
スラン
ディル
ハイン
仕返し
区切っ
焼き鳥
花言葉
見張る
読もう
赤瀬川
長らく
##レックス
note
あざやか
ハラハラ
ブライト
差し込み
引き合い
掘り下げ
東ドイツ
歌舞伎町
突き上げ
飛び立っ
パトリック
レインボー
レスリング
マトリックス
泌
##あえ
##すき
##ぶせ
##れい
そち
そと
ふぅ
まご
キジ
ヒザ
フワ
ラバ
ロロ
三の
傍観
全権
即効
名産
唯物
唸っ
喘ぎ
図示
大刀
好色
康子
弁天
怠慢
所信
新城
気長
水筒
浜崎
漂着
球菌
理系
羊毛
肥前
舞妓
謝礼
退出
過渡
高率
魔王
##そくさ
##ッチョ
##立たし
##ican
abo
def
いたく
おそい
なかれ
のこし
カッと
ソテー
バント
ブーケ
ペンタ
レーン
几帳面
咳払い
心地よ
手もと
手探り
旅立ち
皮切り
絶する
脅かし
mark
おぼつか
からくり
そそくさ
なくなら
サックス
ポーター
呼び出す
引き抜い
無くなり
見え隠れ
飛び込む
##ベンション
ウイリアム
デュシャン
クリスティーナ
后
窟
##の川
##びい
##ぼん
##ーリ
##初め
ちや
りえ
オデ
キヨ
ゾロ
両目
以北
低速
冷淡
出汁
刷毛
募っ
収量
古書
名札
嘉永
夏美
大槻
大英
奇麗
守屋
居室
張飛
情念
救難
整い
新卒
早目
深部
清め
漆黒
演目
男優
祭礼
積算
聴け
遠出
配付
離散
音符
##しぶき
##とばし
##りょう
##パワー
##求める
##ural
##work
pet
うがい
ごった
さがっ
にやに
アディ
ゲイブ
ダミー
ドナー
リビア
善光寺
惜しく
旅立っ
生い茂
見抜く
親しむ
read
からかわ
ひっぱっ
シンフォ
マドンナ
マーシー
メラニン
打ちのめ
打ち込む
掘り出し
握り締め
生々しい
あたらしい
パイオニア
問いかける
引き下げる
アウトレット
クローゼット
##あし
##すけ
##づち
##ザキ
##ホホ
##釈迦
##ark
##umi
80
おめ
かぞ
ハァ
人夫
低廉
分室
副葬
創る
医大
卑劣
右岸
国力
天秤
家財
寄稿
島崎
常緑
明文
机上
果肉
漢語
瓦礫
移出
紙上
絵具
緩ん
美保
育た
蒲生
辰巳
逢う
連対
遷都
風化
##ノミー
うつる
お釈迦
しのぐ
ひろく
ギュッ
サッシ
バイブ
ペール
ホンマ
ホーン
下敷き
乗り場
制する
塩焼き
宇田川
小ぶり
延びる
待ち遠
惜しみ
探そう
日弁連
病害虫
opec
ころがっ
さしあげ
にやにや
はしゃい
イエズス
タックル
パチパチ
ブルーノ
ブロンズ
ミニバン
ミランダ
引き出さ
手がける
過ぎ去っ
クラスター
ネイティブ
ポータブル
リアリズム
docomo
player
ウオーキング
ライティング
##ta
##ねん
##ゆで
##禅寺
!!
あほ
どよ
ドク
ドニ
パテ
レポ
一塁
上辺
下ら
両軍
卑屈
呪縛
図柄
夏期
多治
大垣
守秘
小森
小金
小銃
居座
巡洋
康夫
恨ん
恵美
戦中
持久
機銃
浮く
片桐
竹島
能楽
親睦
足腰
遮っ
遺児
金品
鑑み
長大
隣家
青島
##きたり
##けなく
##カイン
##セリン
おりる
どなっ
なんせ
はずさ
ほのめ
ゴッド
マッケ
モーセ
ラディ
ヴァイ
寝起き
小久保
振るっ
根強く
気取っ
縄張り
##しかかる
fire
しんなり
たのしみ
とっとと
とりとめ
とり出し
ひろがる
ほとばし
まるまる
ウィリー
クライン
サイバー
フレッド
ユニオン
リベンジ
ルージュ
付き添っ
切り抜き
張りつめ
打ち出さ
持ち帰る
書き直し
追い越し
(^0^)
でき上がり
バーチャル
フォーマル
フランシス
(*^▽^*)
##sy
虜
蟬
##カノ
##ヘル
##返せ
びっ
イリ
ケロ
ゲラ
コタ
ゾラ
ヨロ
下図
人足
代っ
倒さ

##の
##、
##い
##に
##と
##。
##た
##て
##し
##る
##で
##な
##は
##が
##を
##か
##っ
##す
##う
##ま
##れ
##も
##ら
##こ
##り
##ー
##あ
##く
##ん
##だ
##そ
##き
##ン
##さ
##よ
##「
##」
##け
##・
##ど
##つ
##え
##.
##お
##ス
##1
##)
##わ
##(
##人
##,
##め
##ル
##一
##や
##ト
##ち
##0
##イ
##日
##2
##せ
##ッ
##リ
##年
##ラ
##大
##み
##ろ
##ク
##ば
##ア
##分
##出
##じ
##行
##中
##3
##生
##本
##事
##時
##?
##的
##上
##見
##タ
##者
##方
##間
##シ
##思
##合
##自
##国
##会
##子
##ド
##言
##5
##ず
##カ
##レ
##ね
##ロ
##フ
##場
##a
##入
##手
##4
##地
##ジ
##二
##気
##前
##業
##定
##!
##マ
##プ
##コ
##用
##テ
##e
##o
##ょ
##月
##ほ
##学
##i
##後
##t
##メ
##私
##体
##対
##ゃ
##9
##度
##動
##べ
##理
##今
##実
##ご
##バ
##6
##チ
##性
##ム
##法
##目
##び
##8
##部
##十
##三
##下
##物
##グ
##当
##関
##同
##家
##げ
##発
##金
##へ
##要
##キ
##7
##s
##〜
##パ
##サ
##力
##高
##ィ
##内
##長
##c
##通
##n
##立
##化
##成
##何
##作
##第
##ウ
##デ
##女
##社
##意
##オ
##ブ
##所
##問
##来
##ニ
##m
##全
##代
##p
##r
##■
##書
##考
##心
##話
##小
##知
##現
##彼
##/
##ャ
##取
##以
##最
##明
##エ
##ナ
##持
##教
##数
##ビ
##回
##保
##多
##新
##外
##感
##ュ
##主
##市
##員
##開
##表
##先
##セ
##む
##不
##d
##変
##l
##水
##機
##ダ
##使
##等
##名
##文
##ミ
##期
##h
##ひ
##民
##‐
##五
##ざ
##経
##世
##道
##食
##面
##政
##山
##少
##々
##活
##相
##結
##四
##ョ
##産
##向
##『
##』
##品
##題
##受
##無
##:
##ネ
##設
##必
##近
##味
##調
##ふ
##利
##加
##ツ
##ズ
##田
##能
##円
##ハ
##点
##料
##付
##九
##ぐ
##正
##重
##特
##連
##平
##身
##公
##務
##在
##次
##制
##切
##ぎ
##ぶ
##記
##戦
##進
##指
##情
##ェ
##モ
##原
##安
##ベ
##決
##聞
##画
##解
##別
##計
##w
##〇
##資
##―
##車
##状
##ケ
##図
##口
##ガ
##電
##ポ
##b
##ボ
##続
##信
##強
##男
##神
##引
##有
##報
##込
##ソ
##u
##g
##東
##条
##基
##ピ
##確
##置
##八
##ワ
##質
##係
##様
##語
##野
##六
##組
##仕
##集
##万
##初
##議
##果
##づ
##真
##和
##得
##約
##形
##然
##ノ
##海
##違
##直
##屋
##運
##育
##流
##権
##治
##着
##価
##選
##界
##認
##他
##ゆ
##支
##親
##七
##ホ
##示
##常
##k
##応
##可
##ペ
##件
##f
##住
##規
##校
##川
##土
##害
##%
##際
##木
##交
##楽
##過
##施
##査
##良
##ァ
##参
##葉
##売
##域
##色
##都
##ぼ
##予
##線
##好
##費
##足
##天
##元
##空
##申
##配
##白
##番
##備
##義
##論
##増
##説
##格
##種
##美
##位
##供
##式
##術
##判
##落
##態
##ギ
##消
##起
##及
##存
##死
##送
##音
##反
##構
##工
##共
##始
##広
##済
##終
##店
##顔
##風
##例
##京
##頭
##母
##達
##役
##限
##町
##声
##由
##村
##悪
##歳
##笑
##容
##ぞ
##観
##半
##病
##伝
##職
##転
##v
##ヤ
##y
##策
##検
##量
##●
##区
##防
##島
##想
##命
##団
##総
##象
##ゴ
##研
##額
##止
##改
##護
##夫
##残
##^
##項
##朝
##県
##軍
##光
##号
##返
##告
##働
##験
##ザ
##買
##整
##北
##造
##府
##注
##張
##収
##建
##石
##各
##営
##企
##求
##素
##比
##ぜ
##○
##識
##歩
##割
##待
##効
##"
##院
##個
##究
##放
##帰
##断
##類
##委
##型
##単
##側
##御
##乗
##協
##率
##答
##医
##段
##字
##境
##読
##技
##助
##=
##早
##商
##接
##税
##準
##任
##愛
##労
##夜
##証
##再
##勝
##族
##士
##険
##室
##父
##程
##西
##太
##門
##管
##台
##提
##科
##減
##ヒ
##呼
##両
##百
##ぬ
##米
##古
##処
##与
##花
##路
##j
##移
##ぱ
##環
##急
##影
##館
##局
##除
##投
##非
##視
##介
##細
##覚
##“
##農
##離
##君
##適
##器
##療
##健
##若
##値
##火
##省
##導
##課
##算
##千
##念
##製
##官
##写
##難
##郎
##師
##失
##午
##登
##負
##氏
##低
##−
##材
##階
##ォ
##況
##展
##差
##異
##ヴ
##満
##振
##習
##推
##友
##統
##給
##深
##馬
##望
##具
##打
##右
##願
##優
##案
##座
##福
##争
##x
##担
##園
##根
##赤
##ゲ
##財
##戸
##飛
##王
##積
##試
##我
##周
##察
##昭
##客
##黒
##南
##談
##血
##演
##休
##井
##宅
##歌
##録
##苦
##帯
##勢
##像
##映
##評
##速
##殺
##走
##追
##般
##史
##系
##左
##含
##居
##障
##誰
##普
##児
##降
##首
##姿
##ヨ
##精
##守
##紙
##毎
##極
##囲
##飲
##従
##婚
##警
##末
##横
##青
##株
##衛
##援
##僕
##ぁ
##薬
##熱
##為
##独
##寄
##景
##被
##突
##兵
##響
##絶
##因
##☎
##藤
##温
##完
##派
##ヘ
##林
##更
##球
##銀
##週
##【
##隊
##】
##息
##渡
##補
##去
##抜
##船
##戻
##許
##頼
##養
##宮
##武
##曲
##肉
##述
##背
##齢
##修
##源
##[
##頃
##]
##請
##*
##換
##松
##講
##ユ
##節
##遠
##輸
##装
##興
##押
##払
##康
##故
##痛
##〉
##〈
##庭
##♪
##領
##城
##復
##鉄
##専
##冷
##老
##昨
##撃
##紀
##辺
##歴
##織
##災
##載
##標
##令
##軽
##旅
##緒
##未
##章
##症
##裁
##照
##党
##臣
##余
##吉
##谷
##将
##律
##益
##焼
##並
##ゼ
##便
##億
##江
##監
##遊
##英
##服
##退
##越
##寺
##又
##欲
##納
##弁
##寝
##則
##革
##布
##激
##犯
##茶
##幸
##波
##危
##端
##債
##印
##編
##婦
##席
##庁
##途
##州
##諸
##沢
##草
##皆
##雑
##遺
##模
##岡
##駅
##巻
##→
##酒
##洋
##責
##油
##曜
##橋
##練
##圧
##春
##角
##密
##層
##久
##診
##破
##挙
##困
##順
##清
##香
##蔵
##逆
##佐
##超
##皇
##融
##森
##静
##替
##善
##絵
##探
##短
##倒
##簡
##築
##撮
##街
##固
##植
##疑
##討
##夏
##散
##罪
##奥
##浮
##札
##審
##勤
##属
##嫌
##販
##占
##司
##訳
##訪
##級
##該
##雨
##河
##俺
##測
##芸
##裏
##恐
##染
##徴
##伸
##充
##継
##留
##列
##舞
##描
##崎
##夢
##盛
##片
##易
##似
##混
##抱
##仲
##傷
##宿
##借
##星
##射
##患
##丸
##著
##;
##志
##☆
##抗
##催
##腹
##底
##忘
##宗
##_
##秋
##拡
##互
##豊
##掛
##妻
##採
##創
##略
##契
##喜
##厚
##己
##洗
##港
##骨
##娘
##昔
##筋
##吸
##授
##紹
##枚
##絡
##酸
##逃
##届
##努
##厳
##触
##眼
##損
##板
##陸
##阪
##択
##承
##了
##弱
##攻
##版
##乱
##携
##兄
##庫
##欠
##徒
##遅
##玉
##陽
##競
##就
##締
##救
##津
##掲
##震
##詳
##ぽ
##暗
##鮮
##乳
##恵
##拠
##礼
##祉
##毛
##傾
##幅
##雪
##犬
##塩
##敵
##尾
##折
##均
##否
##刑
##貴
##複
##敗
##富
##眠
##範
##皮
##扱
##刻
##亡
##央
##※
##泉
##窓
##閉
##壊
##聴
##暮
##岩
##賞
##伊
##廃
##壁
##¥
##航
##堂
##衆
##踏
##耳
##跡
##魚
##胸
##仏
##夕
##称
##z
##&
##摘
##貸
##秘
##歯
##脳
##液
##★
##弟
##訴
##維
##菜
##繰
##徳
##迎
##功
##輪
##岸
##鳴
##較
##驚
##弾
##鳥
##浜
##薄
##悲
##+
##券
##丈
##純
##床
##隠
##恋
##督
##幼
##永
##募
##群
##購
##博
##刺
##仮
##暴
##希
##q
##昼
##ヶ
##避
##慮
##栄
##祭
##怒
##倍
##敷
##旧
##之
##握
##腕
##◆
##排
##禁
##包
##汚
##依
##筆
##束
##針
##砂
##脱
##昇
##措
##削
##韓
##延
##>
##瞬
##坂
##伴
##剤
##髪
##聖
##慣
##ゅ
##快
##誘
##袋
##微
##魔
##×
##促
##童
##柄
##房
##至
##妙
##典
##華
##飯
##迷
##誌
##湯
##闘
##致
##荷
##縮
##緊
##肩
##爆
##泣
##執
##免
##樹
##概
##腰
##ヌ
##核
##里
##遣
##晴
##頂
##候
##牛
##操
##劇
##析
##倉
##償
##停
##秀
##雇
##宇
##甘
##盤
##隣
##怖
##捨
##冬
##捕
##惑
##雄
##衣
##〔
##池
##〕
##黄
##胞
##燃
##羽
##悩
##幹
##勉
##豆
##帝
##ぇ
##閣
##既
##滅
##濃
##祖
##吹
##幕
##謝
##縁
##翌
##麻
##寒
##疲
##丁
##績
##駆
##'
##頑
##迫
##賀
##詰
##辞
##ゾ
##舎
##甲
##尊
##抑
##賃
##旨
##卵
##殿
##季
##郵
##干
##霊
##虫
##儀
##宣
##巨
##訓
##憶
##漁
##緑
##貨
##卒
##郷
##憲
##粉
##▼
##奈
##句
##覧
##併
##剣
##看
##詩
##到
##索
##需
##<
##露
##祝
##竹
##釈
##箱
##献
##距
##黙
##勧
##託
##艦
##詞
##臨
##那
##雲
##批
##鹿
##鏡
##礎
##崩
##荒
##陰
##奇
##泊
##沖
##煙
##煮
##鼻
##欧
##頁
##耐
##姉
##糖
##譲
##棄
##誤
##控
##▽
##↓
##浴
##宝
##副
##即
##炎
##趣
##玄
##`
##湾
##穴
##ぷ
##騒
##飾
##躍
##如
##署
##慢
##帳
##猫
##瀬
##浦
##添
##晩
##縄
##捜
##辛
##奏
##尋
##矢
##臓
##揮
##毒
##預
##杯
##却
##炭
##肌
##駐
##敬
##透
##漢
##忠
##》
##票
##駄
##魅
##《
##械
##陣
##呂
##刊
##侵
##襲
##叫
##滑
##沿
##宙
##奴
##揚
##̄
##乾
##沈
##才
##飼
##威
##◇
##塗
##埋
##籍
##邪
##妊
##溶
##菌
##渉
##云
##貿
##浅
##紅
##脈
##徹
##脚
##招
##脂
##ゥ
##序
##抵
##狭
##誕
##ぴ
##暖
##懸
##滞
##怪
##嬉
##涙
##◎
##裕
##還
##妹
##輝
##揺
##仰
##屈
##寿
##衝
##盗
##枝
##灯
##桜
##汗
##刀
##梅
##貧
##兆
##咲
##銃
##獲
##封
##勇
##眺
##糸
##網
##柔
##貯
##僚
##湖
##邦
##藩
##掃
##郡
##巡
##輩
##麗
##奪
##釣
##旦
##雰
##殊
##枠
##吐
##盟
##墓
##尽
##汁
##姫
##阿
##稲
##臭
##哲
##秒
##鬼
##柱
##孫
##踊
##恥
##繁
##熟
##勘
##圏
##狂
##↑
##潜
##伏
##肝
##鑑
##履
##肥
##膜
##棒
##゚
##拒
##龍
##芝
##双
##坊
##畑
##塚
##緩
##彦
##豪
##縦
##狙
##酔
##掘
##貫
##罰
##往
##暑
##腐
##▲
##拝
##把
##渋
##培
##鈴
##珍
##幾
##ヲ
##靴
##唱
##顧
##葬
##銭
##悟
##裂
##硬
##́
##稿
##暇
##賛
##刷
##尿
##忙
##抽
##伺
##彩
##懐
##俗
##訊
##是
##奉
##凍
##叩
##遂
##弥
##偶
##熊
##遇
##竜
##贈
##祈
##唐
##闇
##戒
##杉
##唯
##旬
##兼
##潮
##也
##浄
##智
##椅
##牧
##蓄
##鎖
##仁
##氷
##麦
##炉
##砲
##胃
##粒
##斜
##僧
##冊
##涯
##娠
##貢
##陥
##挑
##慎
##軸
##疾
##焦
##誇
##脇
##須
##偽
##鍋
##仙
##摩
##柳
##貼
##隔
##沼
##誠
##悔
##紫
##慶
##稚
##湿
##羅
##腸
##浸
##烈
##隆
##没
##磨
##丘
##虚
##嫁
##紛
##←
##随
##魂
##唇
##励
##菓
##鉱
##騎
##括
##舌
##舗
##旗
##凄
##亀
##軒
##践
##蒸
##丹
##殖
##摂
##垂
##喫
##茂
##亜
##獄
##尻
##稼
##弘
##ぉ
##@
##貰
##皿
##綱
##斎
##棚
##忍
##揃
##脅
##膝
##隅
##銘
##匹
##芽
##奮
##附
##覆
##淡
##賢
##挨
##拶
##鋭
##堀
##岐
##巣
##敏
##絞
##堅
##欄
##膨
##訟
##°
##廊
##恩
##倫
##啓
##栽
##寂
##ゐ
##簿
##腫
##伯
##磁
##歓
##軟
##筒
##寛
##偏
##泥
##顕
##ヵ
##径
##鶴
##膚
##傍
##泳
##彫
##拍
##晶
##灰
##幻
##鍵
##頻
##逮
##ぃ
##垣
##ぺ
##岳
##扉
##畳
##匂
##塔
##偉
##廷
##宜
##粧
##綺
##机
##肺
##雅
##獣
##鶏
##吾
##卓
##鎌
##箇
##漏
##劣
##翼
##栗
##耕
##銅
##荘
##其
##洞
##犠
##孝
##孤
##粋
##沙
##菊
##豚
##哀
##肪
##冒
##秩
##酷
##拾
##浪
##繊
##舟
##涼
##燥
##牲
##謀
##粘
##ぅ
##邸
##雷
##挿
##漬
##徐
##俊
##俳
##狩
##▶
##噂
##虐
##寸
##剰
##乏
##穏
##裸
##滝
##綿
##潔
##拓
##姓
##壇
##缶
##凝
##猛
##征
##虎
##穂
##漂
##呆
##粗
##濯
##鉢
##斉
##ω
##遭
##〒
##帽
##潤
##鎮
##霧
##漫
##噴
##撤
##癒
##誉
##拭
##愚
##克
##衡
##袖
##酬
##□
##C
##掌
##貞
##賠
##扶
##炒
##紋
##寧
##惨
##酢
##酵
##架
##睡
##慰
##縫
##衰
##溜
##∀
##蓮
##桃
##循
##濡
##瞳
##炊
##憎
##捉
##棟
##駒
##尚
##斬
##坐
##拘
##澄
##盾
##胆
##嘆
##疫
##翻
##盆
##潟
##阻
##慌
##籠
##陳
##匠
##喉
##澤
##覗
##貝
##冠
##爪
##苗
##梨
##侍
##蓋
##暦
##妥
##槽
##嵐
##塁
##奨
##矛
##昌
##巧
##此
##廻
##笠
##糧
##逸
##幌
##禅
##遍
##畜
##潰
##塞
##疎
##鼓
##召
##亭
##弓
##卸
##搭
##縛
##峰
##痴
##瓶
##眉
##乃
##噌
##墳
##宴
##陶
##鋼
##緯
##壮
##錯
##尺
##肢
##頰
##叔
##嘘
##蹴
##披
##飽
##殴
##拳
##婆
##喧
##塾
##於
##跳
##刃
##伐
##⇒
##欺
##蘭
##諦
##宛
##惜
##漠
##符
##李
##乙
##謎
##羊
##癖
##喪
##儲
##彰
##譜
##嬢
##葛
##冗
##妨
##枯
##剛
##恒
##濁
##舶
##幣
##孔
##穫
##芳
##蛇
##薩
##郊
##朗
##呪
##据
##叱
##珠
##軌
##腎
##轄
##埼
##蘇
##枕
##媒
##班
##款
##隙
##泡
##胡
##|
##▷
##♡
##稽
##搬
##鈍
##湧
##憩
##猿
##朱
##鉛
##殻
##詐
##懲
##曇
##憂
##覇
##馴
##妖
##訂
##誓
##庄
##薦
##猟
##♥
##沸
##呑
##茎
##偵
##撫
##喋
##迅
##壌
##穀
##卑
##餌
##旋
##曹
##股
##滴
##椎
##賭
##д
##△
##呈
##鍛
##騰
##碑
##砕
##擁
##癌
##塊
##泰
##ゝ
##賊
##柴
##怠
##爵
##謙
##貌
##擦
##凡
##璧
##浩
##傘
##堤
##胎
###
##頷
##腺
##嘩
##閲
##后
##諾
##餅
##溝
##嶋
##尉
##昆
##斐
##某
##鬱
##釜
##祥
##逢
##挟
##麺
##戚
##恨
##忌
##凶
##窮
##扇
##繋
##菱
##勿
##隷
##懇
##刈
##磯
##幡
##辻
##曽
##幽
##瘍
##崇
##撲
##篇
##爺
##慈
##戯
##庶
##這
##枢
##絹
##堪
##歪
##甚
##郭
##墨
##暫
##嘉
##泌
##綾
##洲
##噓
##愉
##溢
##陵
##髄
##筑
##牡
##憧
##享
##殆
##朴
##桂
##敢
##梁
##吊
##或
##坪
##遮
##宰
##夷
##褒
##隻
##租
##昧
##顎
##肯
##卿
##悠
##堺
##桐
##祐
##祀
##呟
##寮
##鐘
##〓
##峠
##佳
##累
##琴
##呉
##庵
##洪
##禄
##ぢ
##喰
##瓦
##唆
##芋
##錠
##陀
##嚙
##筈
##辰
##謡
##妄
##剥
##妃
##醸
##陛
##綻
##膳
##赴
##馳
##猪
##≦
##鷹
##槍
##閥
##蜂
##辱
##腔
##贅
##倭
##茨
##宏
##苛
##惚
##翔
##淳
##狼
##零
##醤
##汰
##輔
##悦
##菅
##妬
##斗
##但
##笛
##渦
##≧
##遷
##痕
##惹
##胴
##吟
##崖
##劉
##姑
##睨
##弦
##蒙
##唄
##錦
##硫
##厄
##讃
##箸
##帆
##杖
##滋
##ゞ
##摑
##飢
##篤
##汽
##盲
##憤
##淵
##菩
##裾
##磐
##窒
##拙
##詠
##恭
##哉
##雀
##艇
##稀
##雌
##篠
##傑
##逐
##尼
##紐
##囚
##α
##咳
##圭
##棲
##蒲
##赦
##桑
##峡
##捧
##綴
##賑
##栃
##阜
##伎
##蜜
##噛
##痩
##芯
##渓
##抹
##靖
##紳
##痺
##賜
##畿
##笹
##敦
##桁
##喚
##骸
##脊
##猶
##諭
##嫉
##棋
##爽
##柏
##賦
##弊
##∇
##藍
##渇
##萌
##鳩
##曖
##洩
##宋
##蝶
##楼
##丼
##瞭
##怯
##剝
##旭
##蔑
##堆
##栓
##騙
##萩
##諮
##尖
##戴
##閑
##蕎
##虜
##碗
##窟
##塀
##斑
##剖
##辿
##壺
##柿
##函
##蒼
##巳
##叙
##詣
##乞
##淀
##烏
##冴
##巾
##藻
##姻
##凹
##抄
##鴨
##侯
##勅
##僅
##擬
##σ
##播
##俣
##楠
##賄
##俵
##勃
##隈
##汲
##棺
##粛
##侶
##瑞
##只
##麓
##挫
##薫
##釘
##\
##煩
##腿
##蛮
##痢
##矯
##紺
##ヽ
##霞
##醒
##糞
##嗅
##紗
##勲
##樽
##牢
##憑
##塵
##牙
##蛍
##柵
##墜
##襟
##勾
##蛋
##亮
##漆
##醜
##喝
##碁
##苑
##叶
##聡
##頓
##國
##洛
##唾
##拉
##曾
##苔
##梗
##燈
##鋳
##仔
##朽
##淋
##詫
##舐
##髭
##堕
##耗
##詮
##駿
##肘
##絆
##橘
##迄
##頸
##儒
##頬
##琉
##鯨
##桶
##艶
##迦
##μ
##伽
##秦
##茹
##吏
##〃
##洒
##媛
##毅
##錬
##吠
##莫
##雛
##慨
##杏
##羨
##遥
##揉
##串
##奔
##囁
##⌒
##喘
##蚊
##惣
##坑
##咽
##牝
##恰
##嘱
##煎
##厩
##狐
##楊
##肖
##匿
##罵
##娯
##搔
##繕
##濫
##眩
##讐
##鞭
##窪
##葵
##窯
##虹
##梶
##愕
##玲
##漸
##餓
##弄
##晃
##畠
##趙
##漱
##寡
##堵
##拐
##牽
##ヅ
##狗
##窺
##薪
##紡
##淫
##畔
##而
##岬
##β
##暁
##酎
##垢
##怨
##竿
##搾
##胚
##寅
##穿
##褐
##芦
##萎
##硝
##侮
##焚
##泄
##准
##慕
##獅
##疹
##☗
##帥
##剃
##ゎ
##ヂ
##ε
##遡
##韻
##鞍
##兎
##註
##晋
##翁
##悶
##繫
##衿
##〵
##冥
##渕
##躊
##遵
##鼠
##灌
##瓜
##鷲
##躇
##睦
##廉
##柚
##ヾ
##嘲
##姦
##姜
##巫
##董
##溺
##倣
##叡
##膏
##撒
##嶺
##酌
##惧
##慧
##殉
##郁
##弔
##臆
##魏
##窃
##蕉
##臼
##諏
##醬
##☖
##蔭
##〳
##謄
##汝
##凸
##曰
##椿
##弧
##舵
##芭
##玩
##礁
##粥
##昂
##條
##撰
##餃
##鸞
##挽
##祇
##肛
##喩
##宵
##訣
##采
##$
##妓
##榎
##厨
##憐
##轟
##梯
##哺
##霜
##牌
##且
##琵
##琶
##θ
##樋
##甕
##婿
##屯
##畏
##逝
##杜
##蔓
##攣
##仇
##厭
##捻
##唸
##疵
##灘
##膿
##梱
##φ
##謹
##輿
##隼
##庇
##盃
##坦
##奢
##醐
##拗
##醍
##椒
##滲
##些
##眞
##汎
##煽
##纏
##愁
##薇
##升
##嘔
##痙
##峨
##漕
##甥
##駕
##鞘
##悼
##遼
##朋
##凌
##梢
##埃
##薔
##嗜
##皺
##纂
##罠
##蝦
##躰
##壬
##旺
##藁
##亘
##瘦
##瞑
##耶
##縞
##痒
##臥
##荻
##鮭
##瞼
##蟹
##倶
##鮎
##疼
##鞄
##帖
##茸
##鳳
##鯉
##逗
##呻
##斯
##櫓
##嵯
##瑕
##謂
##軀
##絨
##瑠
##翠
##凛
##嗣
##裳
##桟
##廟
##拷
##摺
##袴
##屍
##砦
##蒔
##謳
##冶
##晒
##刹
##傲
##峯
##攘
##釧
##璃
##藝
##藪
##鎧
##輌
##樫
##閃
##貪
##賓
##飴
##鷗
##′
##禍
##掴
##魯
##鵜
##脆
##裟
##嫡
##駈
##姪
##曳
##燕
##錆
##叉
##堰
##捗
##葱
##襖
##{
##湘
##糾
##湊
##鯛
##鱗
##娼
##庸
##裡
##粕
##蜘
##麟
##箋
##膣
##訝
##迂
##蛛
##袈
##錐
##鮫
##屑
##蔽
##柑
##楚
##茅
##}
##俸
##掻
##≫
##槌
##粟
##罹
##憾
##樺
##楯
##杭
##丞
##揆
##斥
##巴
##卯
##δ
##凧
##芥
##壕
##焉
##簾
##緻
##葦
##檀
##淑
##燭
##諜
##啄
##妾
##曝
##囊
##昏
##檜
##萬
##娩
##葡
##咎
##茫
##惟
##煉
##遽
##蕾
##鄭
##扁
##爾
##踪
##稜
##槻
##箕
##糊
##嚇
##榊
##騨
##吞
##殷
##葺
##咬
##艸
##≪
##遜
##◉
##楕
##礫
##肴
##毀
##÷
##♂
##゙
##叛
##瘤
##γ
##晦
##§
##櫛
##孟
##栖
##麿
##朔
##萄
##†
##鹸
##峙
##狸
##酪
##彙
##膵
##凱
##螺
##伍
##叢
##套
##廣
##寵
##蚕
##琢
##禿
##斧
##兜
##壱
##毯
##牟
##椀
##賤
##乖
##俯
##來
##撥
##盧
##弛
##汐
##踵
##佇
##湛
##姐
##氾
##膀
##♀
##胱
##曙
##亦
##灼
##彷
##蠟
##躁
##é
##哨
##剪
##狽
##諫
##丑
##沌
##碧
##劫
##瀕
##蛙
##蔣
##墟
##祠
##佃
##膠
##蹟
##忽
##顆
##學
##腑
##腱
##轢
##媚
##櫻
##禱
##綜
##扮
##甦
##舷
##茄
##±
##鄧
##灸
##珂
##羞
##掟
##疇
##毘
##陪
##袁
##鍼
##佑
##茜
##巌
##嵌
##笙
##胤
##鰹
##惰
##楓
##雁
##峻
##摯
##氣
##υ
##巷
##痰
##恣
##几
##嶽
##渾
##喬
##爛
##π
##倦
##餐
##挺
##掠
##猥
##瑛
##熾
##奄
##濱
##耽
##軋
##鐸
##冨
##塡
##按
##屏
##珊
##卜
##允
##屁
##捺
##豹
##佛
##吻
##薙
##釉
##緋
##詔
##♫
##煌
##躾
##蟬
##闊
##麵
##鴻
##窄
##竪
##傭
##嬌
##漿
##稔
##箔
##濤
##逓
##慄
##苫
##饒
##亢
##濠
##√
##儂
##嘗
##蟻
##彡
##甫
##隕
##♬
##囃
##桓
##訛
##竣
##逞
##鋒
##圃
##о
##窩
##遙
##®
##渚
##炸
##穢
##♣
##魁
##咄
##紘
##肋
##蹄
##❖
##捲
##秤
##儘
##庚
##杓
##趨
##芹
##萱
##俄
##檻
##誦
##嚥
##簞
##暢
##鷺
##啞
##杵
##罷
##笥
##諒
##徊
##瞥
##欽
##實
##艘
##莉
##辣
##閤
##饅
##址
##翳
##斡
##痔
##祓
##舅
##ν
##∞
##徘
##瘡
##搗
##聯
##鉤
##擢
##棹
##嚢
##朧
##酉
##歎
##腟
##齋
##亥
##蔡
##謗
##鞠
##偲
##嗚
##攪
##櫃
##糠
##鋸
##沫
##淘
##譚
##濾
##蝕
##靭
##丙
##噺
##戮
##蕩
##諺
##寓
##捏
##鱒
##嗟
##繡
##芙
##ゑ
##墾
##裔
##悉
##憚
##謁
##匈
##衷
##亨
##絢
##邑
##彗
##瑚
##罫
##蠣
##榴
##隋
##埴
##矩
##ρ
##悸
##梓
##倹
##畝
##脹
##苺
##珈
##穣
##賂
##賽
##〆
##虔
##楢
##諧
##埠
##蓬
##填
##頚
##梵
##燗
##琲
##疱
##鍬
##祟
##捌
##銚
##屓
##贔
##饗
##檎
