[PAD]
[UNK]
[BOS]
[EOS]
[CLS]
[SEP]
[MASK]
、
の
。
に
は
1
た
を
で
と
て
し
年
が
2
(
)
な
9
い
0
あ
れ
・
さ
日
3
ある
月
か
も
8
5
4
##する
大
いる
こ
6
7
する
「
」
ア
から
よ
ま
00
-
中
そ
学
『
ス
』
お
や
出
一
こと
市
フ
a
シ
日本
県
人
後
国
s
##リー
c
地
ら
同
など
れる
なっ
その
時
コ
東
イ
##ール
会
発
カ
つ
作
オ
m
生
##ック
##ラン
高
行
##ター
マ
バ
現
サ
部
本
より
大学
第
だ
名
開
られ
##ング
i
t
以
##ュー
プ
この
者
ため
デ
所
選
エ
b
n
小
自
##スト
##ット
長
的
家
代
ロ
ジ
ない
d
公
ラ
"
メ
上
まで
.
また
戦
テ
f
ク
ド
新
主
教
あっ
通
世
学校
レ
##ート
最
##ーム
チ
ト
へ
いう
あり
北
k
p
全
リ
なる
o
:
初
分
##ント
目
文
e
パ
町
入
多
##ティ
##ョン
当
キ
事
もの
|
駅
内
,
ブ
位
放
r
番
山
平
前
##ード
l
対
関
社
現在
機
タ
##ンド
ハ
##er
三
経
場
回
元
区
h
受
g
よう
設
南
ウ
連
合
活
グ
記
放送
##リア
東京
20
セ
特
##ディ
女
共
ミ
##ション
せ
神
##リカ
ホ
プロ
線
実
結
モ
郡
西
法
出身
##ース
##イン
下
選手
よる
アル
ほ
使
ベ
おり
##ップ
j
##an
##ーズ
ソ
時代
立
参
##ーク
天
語
号
化
用
映
き
アメ
指
明
##on
海
u
移
研
取
アメリカ
州
ポ
運
都
w
ニ
よっ
建
これ
二
政
数
会社
##in
車
研究
ボ
ビ
昭
ダ
水
道
見
制
テレ
作品
でき
##かっ
v
##or
なり
音
体
次
表
昭和
それ
形
##イト
王
不
方
世界
##レー
201
広
番組
##ょう
テレビ
総
映画
呼
製
活動
知
科
基
改
リー
成
##ar
子
軍
川
##ージ
有
他
近
卒
##リン
間
村
金
交
手
ず
う
##ーン
持
代表
正
務
再
発売
性
変
院
加
務め
所属
歌
工
等
組
優
##en
受け
##ープ
行わ
##バー
おい
##ャン
##ランド
ヴ
権
物
コン
ゲ
電
ワ
ル
原
##カー
書
イン
曲
賞
系
重
られる
だっ
期
付
卒業
##まれ
進
す
鉄
ユ
役
ナ
登
決
試
収
ファ
以下
!
しか
無
競
生まれ
み
言
ガ
死
クラ
勝
集
歳
ひ
民
福
彼
石
外
支
##at
なく
出場
つい
男
局
大会
同年
館
相
教授
専
各
##ラー
議
ノ
野
存
/
引
ち
アルバ
終
フラン
##al
保
定
とも
監
##リス
構
ば
=
約
平成
演
安
##ic
場合
##える
多く
使用
##ニア
ドラ
ピ
旧
島
英
愛
少
直
およ
音楽
寺
キャ
リーグ
古
存在
協
##ビュー
流
万
明治
アルバム
美
##ンス
ライ
解
##es
編
型
台
ヒ
チーム
##ルト
なかっ
##ーマ
当時
##ンジ
始
ジャ
中心
太
意
楽
理
しかし
位置
呼ば
氏
できる
##ッド
フィ
および
ペ
地域
管
開催
創
高等
向
就
にて
利
y
く
京
開発
住
##ol
続
##シア
先
##ングル
##イル
朝
武
国際
種
周
ネ
空
官
商
得
伝
株
調
行っ
大阪
監督
松
団
含
デビュー
起
単
なお
予
ニュー
面
城
出演
オー
度
発表
##ーズン
参加
シングル
ん
優勝
スタ
四
シーズン
##ナー
のみ
ケ
可
鉄道
##ライ
父
信
じ
##ックス
ディ
かつ
江
企
10
省
ゴ
わ
##める
担
ヘ
委
両
る
2010
株式
フランス
党
ギ
配
##イツ
バス
動
##ッカー
施
宮
##is
歴
##ャー
観
土
計
博
##シュ
##しい
##el
##リーズ
及
際
強
同じ
通り
反
##ナル
##it
店
試合
式
従
ご
藩
府
点
残
用い
在
青
##サー
知ら
別
教育
医
グル
ど
投
ゲーム
独
一般
おけ
時間
一部
和
地方
級
設立
版
設置
x
かけ
異
##オン
##ンター
##ステ
中国
文化
##ニー
開始
フォ
技
事業
属
白
千
記録
サン
合衆
以降
提
シリーズ
中央
退
ドイツ
%
##ジオ
翌
km
アイ
サッカー
五
##as
##he
陸
果
考
担当
委員
修
乗
木
##ゅう
統
八
大き
業
規
完
打
横
2014
タイ
受賞
##ダー
枚
##フィ
社会
可能
多い
ヨ
##ion
かつて
##クト
状
個
半
##ro
収録
##ウン
芸
人口
け
就任
廃
置
獲
及び
利用
取り
路
高校
師
伊
毎
たち
任
##le
コー
真
スト
##ブル
移籍
女性
ふ
獲得
花
##ジア
兵
派
ホーム
資
今
病
cm
グループ
都市
200
佐
こう
関係
展
ほか
ツ
情
食
##れる
丁
対し
え
##フト
##ンバー
転
##ベル
なが
##フォ
##ヴィ
仕
アン
##re
##ロー
京都
以上
##ウェ
フェ
##us
農
ウィ
〜
うち
##スタ
警
様
販
親
##ーション
義
ゆ
ドラマ
田
劇
史
行う
##ヴァ
比
母
制作
地区
復
##am
持つ
銀
##ンタ
##ギリス
共和
女子
##ーツ
販売
円
イギリス
##ッチ
光
側
過
選挙
")
登場
さら
推
艦
校
##デル
##クター
力
年間
経済
##et
##ける
いっ
漫
評
スペ
話
産
気
##ソン
作曲
##レイ
描
豊
アニ
講
自動
野球
##まっ
情報
短
ながら
2000
清
##海道
橋
岩
舞
首
限
##il
果た
宗
頃
議員
航
追
##om
丁目
##ウス
帝
問
ラン
ヤ
##ファ
チャ
##リンピ
敗
非
着
認
十
条
継
施設
##こう
##ac
富
ブラ
##ールド
政治
要
江戸
活躍
~
由
意味
さらに
河
飛
文学
未
the
司
死去
リリー
必
##リンピック
吉
センター
漫画
契
協会
クラブ
領
増
全国
##キー
ジェ
馬
赤
##カル
船
命
道路
##シャ
##タリア
サー
名称
z
ステ
##レス
伴
宇
旅
左
品
世紀
員
専門
北海道
##マン
ザ
末
ジョ
主に
スポ
画
ぶ
メンバー
あた
構成
思
建設
率
風
リリース
接
渡
常
##メント
財
群
変更
守
##パー
徳
イタリア
##めて
与
調査
隊
##ur
り
公開
達
だけ
##まり
アニメ
士
採
防
いく
##わっ
諸
ウェ
秋
企業
オリンピック
契約
##ラス
##上げ
著
##しく
確
図
黒
米
カップ
当初
バンド
遺
室
助
県道
年度
ミュー
階
計画
停
ショ
課
##ーロ
とき
俳
競技
若
'
マン
引き
藤
深
##ケット
50
スター
##イス
事務
オリ
聖
##ネル
街
心
例
身
ブル
##テン
コミ
右
岡
論
考え
管理
製作
植
早
アー
機関
九
特に
昇
自身
ロシア
環
入り
副
##ータ
終了
落
検
影
整
##ロン
列
##リスト
感
公園
春
標
##ぞれ
それぞれ
in
##クション
祭
運営
なら
ヴァ
ム
声
法人
帰
最初
技術
##イド
御
製造
インター
指定
小説
##ジェ
英語
ミュージ
戦争
巻
ラジオ
たり
職
離
##デン
##id
自治
星
消
兼
##リング
##ビー
称
st
##して
##ーター
屋
##ルス
##ビア
歴史
総合
準
##la
##ボール
##シー
装
関する
路線
##レン
将
チェ
出版
洋
ただ
兄
向け
低
科学
部分
せる
ベル
細
複
事件
引退
##ch
説
判
##イトル
##わり
問題
娘
ヴィ
類
##ートル
異な
至
場所
組織
紀
延
##st
モデル
##わせ
注
挙
以外
デザ
航空
影響
神社
必要
失
##ダル
示
##ンガ
頭
##エル
結果
ー
皇
表記
##ンク
マイ
人物
執
##フェ
結成
女優
##ーナ
由来
好
生活
読
タイトル
色
##ステム
舞台
香
けん
##ッツ
営
夏
温
そして
決勝
始め
アナ
キャラ
名前
##un
##ad
ジュ
##ing
##アン
久
結婚
満
口
初めて
博士
目的
##テル
火
俳優
果たし
レコ
応
破
養
システム
経営
ライブ
福岡
記念
ほど
園
座
##ed
森
いわ
生産
字
使わ
最後
同様
("
&
##ig
##ころ
ユニ
静
政府
##ラム
掲
雑
慶
##ビス
シャ
帝国
報
団体
料
##スター
##チェ
広島
実施
最も
##スク
週
海軍
ひと
発見
順
たい
売
特別
##ec
がっ
交通
超
大正
処
しま
チャン
普
国道
最終
元年
写
##ッパ
ロー
攻
##ーネ
楽曲
バイ
さん
会長
an
独立
ソフト
弟
美術
六
フリー
決定
永
韓
##古屋
##ドル
##ンチ
##ter
最高
指導
来
しょう
アジア
名古屋
スポーツ
まま
警察
スー
to
のち
宝
主義
酸
番号
挙げ
公式
血
門
良
工業
行政
##ディング
負
最大
遠
##アー
造
沿
マル
休
##ろう
##ミー
がっこう
絵
幼
運動
通常
精
##ストラ
含む
発生
もと
ジャン
む
エンジ
除
##os
隣
##アル
##ation
提供
量
ところ
振
連載
甲
of
愛知
夫
湖
##pan
千葉
廃止
切
本作
幕
##ra
鹿
熊
演奏
治
ビル
港
##イズ
ch
補
送
##タル
##th
沖
##わる
建築
育
##ッシュ
並
興
パー
##コン
取締
勝利
同時
合併
##ティー
一方
##リオ
以前
新聞
降
寄
メダル
キャラクター
レー
ワールド
トラ
##ディア
##ギュ
特徴
※
所在
ヶ
##デュー
鳥
与え
もっ
##ve
導
サービス
陸軍
高い
ハイ
連続
for
国内
ただし
殺
社長
##んど
##プリ
##ザー
カー
客
どう
シュ
名誉
忠
企画
##ニング
採用
クロ
機能
選出
プロデュー
何
伴い
略
デザイン
ヨーロ
妻
はじ
全て
足
男性
留
##リエ
参照
内容
天皇
勤
多数
インド
生まれる
能
韓国
人気
誌
起こ
ポジ
周辺
展開
文字
プレー
ヨーロッパ
スク
急
##ent
時期
視
持ち
貴
薬
##よう
神奈
様々
自由
撮
部門
構造
悪
志
予定
神奈川
作家
##um
私
関連
病院
##ヴェ
本社
プレ
分類
ポジション
カル
続け
庁
段
自分
##im
ティ
オープ
程
走
環境
そこ
ね
状態
ニューヨ
レース
指揮
スペイン
芸術
ニューヨーク
設計
col
トップ
以来
帯
登録
##ow
べ
カン
##ショ
少な
歩
##かい
輸
植物
阿
ロック
横浜
テーマ
国立
郵
##ot
ベスト
ローマ
期間
写真
対応
グラ
##ーカー
人民
##ウム
務める
枠
一人
本名
翌年
付近
七
初期
あたる
イベ
彼女
候
##oc
ネット
池
いず
戦い
##ジャー
取得
源
ダイ
尾
出来
##ir
##がっ
再び
圏
堂
共同
##リック
対象
##キング
##キシ
発行
被
初代
教会
マー
加え
突
ボー
編集
弾
ここ
##ンダ
盤
林
労
紹
越
産業
重要
銀行
差
整備
衆
拡
息
掲載
方面
サイト
健
友
脚
埼
雑誌
連合
規模
主演
de
大きな
オリジ
評価
ほと
##ジー
候補
閉
イベント
会議
夜
詩
南部
迎
境
バー
地名
有名
丸
公立
オリジナル
宣
やま
##ia
埼玉
連邦
拠
球
秀
##ギー
自然
跡
##ウンド
##ut
営業
理事
仏
ウォ
議会
以後
大戦
熱
列車
寛
撮影
##サン
競馬
裁
時点
歌手
飛行
刊
更
背
##付け
##バル
基本
盛
平均
ほとんど
##かり
プラ
ピア
戻
エンジン
完成
##od
ブロ
兵庫
##いは
##クス
民主
アレ
学園
一覧
違
人間
紹介
ぶり
劇場
##ッジ
没
探
児
##マー
持っ
新潟
途
コム
百
入っ
混
扱
積
区間
##パン
異なる
##かけ
運行
静岡
##ag
レコード
黄
ミュージック
含ま
映像
##出し
支援
地下
郵便
カリ
審
わた
##ルフ
居
め
いずれ
トン
隣接
搭
恋
証
空港
対する
完全
スーパー
試験
塩
郷
ユー
##モン
アカ
##ッセ
距
##vd
付け
大臣
はじめ
##ッグ
パリ
息子
カナ
祖
界
##チャ
形成
弁
距離
地元
すべ
##タン
国家
データ
北部
貢
歴任
言語
開業
ジョン
加入
割
##ンドン
メートル
学生
アフ
長野
あるいは
主要
化学
公演
ホール
辞
観光
岐
占
神戸
訪
車両
よく
津
##ou
経験
葉
朝鮮
##em
言わ
奈
dvd
九州
形式
小さ
選ば
減
配信
+
q
通信
すべて
入団
新た
中華
谷
本部
##ネス
格
成功
物語
成績
しまう
少年
宇宙
ファン
対戦
##ルム
極
al
作詞
姿
騎
至る
砲
台湾
幅
国民
男子
ター
労働
器
遊
授
##とう
##まる
固
子供
業務
行い
スケ
創設
衛
##イク
学院
ロンドン
##なっ
##デオ
実際
##ri
朝日
そう
求
効
_
復帰
井
適
kg
入学
ゴール
なか
現代
温泉
##シャル
駐
昇格
素
貢献
系列
スタジオ
置く
モン
面積
動物
分野
戸
岐阜
脱
草
##span
設定
坂
ドル
仲
勝ち
結ぶ
併
##ay
通称
##ラル
基づ
仙
巡
競走
ヴェ
羽
根
搭載
為
唯
ほぼ
得点
入社
札
課程
大きく
臨
せい
角
mm
バラ
##ウェー
地上
招
とっ
程度
全体
講師
ニュース
不明
だい
裁判
刊行
工場
##ネット
ハー
誕
伯
栄
連盟
ライン
難
拠点
正式
##and
##プト
享
##ークス
近年
アク
住宅
店舗
##op
誕生
##ティング
近く
仮
高速
自ら
##じる
比較
流れ
速
福島
##ッション
攻撃
声優
組合
##ジャ
プレイ
現役
同社
##ワー
沖縄
捕
山口
##レーション
電気
ブランド
シン
哲
漢
##レント
オープン
##ヤー
##スコ
天文
えき
同じく
症
ごう
colspan
主人
入る
複数
供
酒
##ウンサー
岡山
竹
コムーネ
買
グラン
メーカー
アナウンサー
##ver
個人
模
備
やす
鎮
当選
浜
進出
##らし
示す
長男
##パス
ビデオ
統合
惑
予選
##わら
軽
衆議
キャン
会員
おお
認め
##セン
質
シェ
工学
湾
東北
ゼ
交差
理由
##ak
カード
逃
樹
惑星
絶
迎え
秒
ぎ
働
##||
節
##リティ
ツアー
宿
太平
導入
族
法学
クラス
ちょう
非常
##入れ
メイン
##ul
カナダ
種類
唯一
断
##統領
大統領
記述
医学
“
熊本
進学
発展
##ard
アンド
印
属する
幹
片
メジャー
関西
民国
弘
##太郎
編成
密
波
立ち
##んな
敗れ
鹿児
王国
方法
じょう
鹿児島
作ら
表示
商業
仕事
途中
##ウト
麻
容
題
長崎
基礎
将軍
フル
設け
組み
ソング
奥
救
亜
焼
工事
コーチ
限定
余
##ントン
欧
家族
##チュ
関東
携
ホテル
目指
脚本
描い
爆
##ジェクト
各地
制度
勤務
身長
イラ
?
##トル
成立
反応
幸
アップ
姉
医療
エル
製品
##シン
com
フジ
記載
毎年
冬
改称
項
オーストラ
##ap
刑
禁
許
オブ
スカ
過去
龍
エン
建て
ベース
指す
表現
玉
移動
君
部隊
浅
オーストラリア
桜
事故
ごと
##スタン
##ula
主催
アカデ
ar
敷
録
##イア
料理
築
打ち
陸上
しん
タイム
原作
農業
略称
スコ
緑
##ブルク
##キュ
##もと
墓
外国
紙
当た
置か
##クロ
レギュ
40
紀元
##らか
form
残し
アイドル
ちゃ
しば
博物
魚
アラ
プロデューサー
亡
かん
秋田
##ールズ
合わせ
戦後
よし
解散
ざ
言葉
逆
きょう
##ランダ
似
管轄
入れ
頼
軌
バル
中学
隠
##スラ
札幌
法律
##est
批
主な
支配
##ce
景
藩主
##サル
##if
→
危
##ine
##ンズ
よれ
フラ
毛
##ュニ
ピアノ
きっ
移転
レギュラー
変化
続い
ユニット
="
奉
詳
ちな
革
##ピオン
ゆう
tv
老
世帯
and
抜
端
既
##がる
##ジュ
少女
初回
アカデミー
トゥ
吹
後半
ヒット
フロ
協力
保護
図書
巨
奈良
鈴
功
プロジェクト
ぐ
障
##かる
リン
裏
離れ
勢
電子
##ウル
ギリ
商品
荒
メディア
優秀
##ショナル
クレ
中継
we
述
億
標準
##シング
操
建物
いち
含め
バージ
受ける
東部
##ガー
##ズム
命名
formula
徳島
##掛け
##げる
牧
海外
乗り
貨
##べる
"|
姓
暗
名義
##なわ
杯
章
##込み
普通
##og
人々
さい
一種
通算
便
コンピ
強い
##ie
血液
フレ
免
首都
夢
依
近い
コース
生徒
##替え
継承
板
##ジョン
内閣
富士
チャンピオン
##トロ
伸
##メン
ジャパン
##イオ
##フォル
オランダ
魔
奪
西部
駆
スピ
喜
方向
ブラジ
展示
##ルド
生物
スタート
新しい
維
ほう
しまっ
##00
言う
率い
ポー
地球
冠
隆
サイ
帰国
ひろ
激
有する
本線
憲
相手
父親
阪
双
砂
王座
単位
##ip
##ub
架
繰
##ミア
##ct
アフリカ
プログ
芸能
値
署
##igh
##ガル
価
政策
ファイ
ジュニア
恵
故
##-||
県立
孫
司令
発足
タレント
大分
在籍
##ちら
付き
繁
誘
貞
アド
もう
sp
##ウェア
分離
戦闘
張
クリス
am
鎌
sh
##えば
属し
犯
住民
キー
トリ
毎週
茨
##io
運転
譲
##ツィ
確認
児童
李
繰り
執筆
オフ
トラック
厚
##かし
障害
翻
兄弟
練
専用
##イント
乱
けい
大型
旗
アーティ
##らく
市民
##ストン
趣
演出
オール
里
丘
始める
##ill
即
##スティ
ヴォ
貴族
##ポート
オン
旅客
つけ
笑
セル
柔
ブラジル
浦
秘
骨
##ガン
##シャン
叙
稲
ダンス
##ッケ
投票
系統
仙台
トレ
むら
国勢
デジ
体育
ne
使っ
ルー
潜
みな
コーナー
茶
前作
まつ
チャート
能力
太陽
形態
##リート
通じ
ヶ月
コミュニ
諸島
因
犬
石川
愛称
方式
##とめ
##フォルニア
大字
駅舎
当駅
パラ
##セス
..
侵
##ワード
##バイ
和歌
陽
分布
前身
承
##ist
アト
##ピー
ソロ
##ab
伝統
##ーリー
歯
康
...
実業
銅
呼ぶ
##リーン
##ゲン
仁
手が
土地
:"
##込ん
ワン
輸送
バック
富山
##イロ
カリフォルニア
##ヴォ
南西
知事
徳川
特定
広く
##込ま
出し
観測
##がり
トル
記事
ラグ
ハン
##なり
##レット
安全
イング
聞
条件
スケート
##エン
つく
続く
資料
停車
後期
っ
所有
カメ
効果
いい
きっかけ
新人
待
華
アーティスト
##ストリア
派遣
##メージ
コンピュー
挑
専攻
シティ
くる
軌道
雄
##ge
矢
バレー
青森
概
げ
理論
飲
幕府
南北
開設
湯
##ースト
##稲田
欧州
原子
生息
封
周年
re
##合わせ
レーベル
区域
鉱
運用
学ん
創業
接続
スキー
圧
之
拡大
吸
パン
渋
早稲田
古代
唐
##おり
ギャ
浮
敵
名乗
市場
電話
東海
##ルー
修了
嘉
ステージ
集落
エレ
財団
##ゆる
とう
作成
撤
争
ゲスト
ゅう
描か
ちゅう
ちゃん
具
参戦
グランプリ
on
レイ
残っ
範
怪
##ell
細胞
堀
核
##ue
半島
任命
交流
傾
すぐ
ジョージ
づ
##ーラ
指名
民族
まさ
簡
##ess
##らい
認定
訓
イラスト
相当
奏
望
せん
ライト
陣
宮城
ミニ
家督
投手
ページ
キロ
軍事
機構
at
北西
純
茨城
海岸
編入
関し
##ンサー
集め
伝え
炭
案
資格
##しくは
寺院
三重
##ニュー
少ない
セント
米国
顧
囲
追加
直接
山形
##ロス
フィリ
書か
##ok
納
北東
##ンタル
アマ
小学
mar
集団
読み
##けれ
姫
尚
インターネット
襲
通過
起用
##ジン
留学
群馬
クリ
独自
大使
劇団
反対
革命
北京
##ウィ
苦
定義
域
##ディー
状況
##ud
平方
購
果たす
##シェ
見せ
分か
ランキング
在学
##ゴン
養子
ブリ
埋
装置
飯
層
フォー
シンガ
規定
崩
織
触
報告
鎌倉
楽団
古墳
pro
抱
演じ
##ブリ
附
ノー
##ord
画家
泉
鏡
ロード
バージョン
プロダ
##チェンジ
市街
イメージ
ペン
行き
決め
##ルツ
つつ
作戦
翻訳
欠
死亡
##ルン
材
実験
しり
べき
かわ
##ジアム
ポーランド
柳
ガス
##ょく
##クラ
##ik
モー
物理
学び
孝
呼び
乗車
たか
ポイント
達成
成長
##ob
介
瀬
抗
"|-||
傘
–
押
政権
##ph
インターチェンジ
改名
筑
オーストリア
後継
さま
師事
鶴
主題
##ンマ
##ワーク
倉
哲学
ショー
ラテン
デジタル
配置
##ーニ
##トゥ
文庫
基地
飾
ランド
福井
防衛
エリア
狭
##リアム
lo
もしくは
ギター
##ate
連絡
##ダム
##んじ
滝
倒
本拠
精神
限り
##ファー
演劇
あまり
標高
処理
継い
厳
求め
##up
条約
俊
著作
レス
加盟
開通
発電
##ニック
##レーター
藤原
スウェー
思い
申
トラン
生き
定め
希
##ボン
マネ
趣味
輝
スウェーデン
冷
マーク
le
書き
従来
味
散
栃
行動
ます
##ケーション
作用
イングランド
牛
土曜
霊
建造
注目
人員
費
中村
合計
##ルク
刺
##ase
##しま
##ナム
進め
施行
包
スパ
キリスト
bo
推進
コンサ
合格
中部
訳
タン
不詳
収め
##ッフ
増加
恐
##キシコ
コンビ
勲
南東
しよう
バスケット
思わ
遅
享年
大陸
大賞
作業
ブルー
踏
暴
安定
事実
##ニス
##ッサ
ダム
マイル
燃
顔
河川
バラエ
筋
宝塚
通う
ソ連
あたり
##ッカ
オス
近代
編曲
服
コンク
排
結ん
暮
なけれ
雪
弁護
ノル
街道
##ミン
用いる
プロダクション
ラグビー
測
統計
原因
キング
雲
##ich
創立
コード
学科
主張
あい
統一
好き
立て
判定
定期
##衛門
支持
グレ
二人
劉
なし
コンピュータ
酵
長い
作り
##ers
家庭
##ran
披
皇帝
共産
一時
貨物
##なる
##ドリ
会場
折
切り
詳細
数多
選択
延長
報道
購入
機械
スタイル
ハウス
階級
スクール
鈴木
役割
##av
登板
市立
那
告
オペ
善
原題
小さな
##ゼルス
##ive
流れる
ウィリアム
出会
無い
パーソ
杉
執行
プロデュース
漁
剤
香港
例えば
ドラフト
it
""
オル
蔵
パーク
バン
ぼ
保存
数多く
改革
終わっ
単行
エネル
パート
び
制定
剣
宗教
フォン
録音
タイプ
栃木
th
コンサート
宮崎
##くり
##ビエ
縁
ニコ
要素
減少
創刊
×
恒
次男
学区
日曜
奇
合成
バスケットボール
サウンド
伊勢
分け
下記
フット
ゾ
戦国
岩手
共通
つな
訓練
傘下
##ずか
互
エス
復活
週間
un
述べ
取引
称し
トンネル
負け
ルート
皮
本人
##テイン
スイス
少なく
亡く
芝
自転
コミック
##ザン
ドライ
ぬ
空間
メキシコ
酵素
溶
交換
エネルギー
尊
周囲
峠
コメ
紅
cl
実現
券
アシ
責
返
コロ
徒
ルイ
##ビン
ポルト
毎日
令
go
天正
タウン
部屋
##ライナ
液
目指し
高く
午
##ant
おら
##("
被害
育成
梅
停止
吉田
モスク
合流
デイ
とり
前後
単独
困
ヌ
##カン
##ダン
見る
当主
看
チョ
解説
交響
]
##しば
披露
スタッフ
上位
到
震
##ノー
丹
学ぶ
夕
is
トロ
退団
通っ
win
桃
歌詞
##ーフ
mus
バレーボール
食品
デュ
雅
竜
違い
金曜
##ight
ユース
軍人
得る
カバー
油
明らか
##チン
[
直後
キャリア
ストーリー
銃
基準
ロサン
引き継
出典
西側
茂
プリ
旅行
除く
カラ
経由
ロサンゼルス
護
共演
批判
##メートル
顕
医師
サラ
金属
昇進
論文
酸化
雨
ベルリン
カメラ
##ッピ
長官
##レンジ
バラエティ
機会
##ナイ
りつ
田中
##マス
##ide
カール
射
##トン
エド
和歌山
寿
##ハー
しばしば
勧
##ld
as
代わり
妹
##ミング
松本
練習
旭
##プロ
##続き
治療
##テインメント
学習
fm
高知
範囲
機器
表す
殿
体重
普及
特殊
##ーンズ
プレミア
示し
泰
エア
討
or
☆
抑
con
スタジアム
卵
輪
設備
バイパス
滋
イオン
##000
ソフトウェア
開幕
##ib
菊
本格
小型
訴
首相
審査
##合い
追い
倍
先発
##かう
呉
##バート
挑戦
参議
スペシャル
物質
自己
網
裕
##ーゼ
パーソナ
沿い
数学
レッド
始まり
名付け
移住
速度
家臣
上記
ネットワーク
アイス
文書
僧
北側
末期
領域
新設
教師
同期
元々
コマ
佐藤
東西
渡り
内部
まち
あき
説明
同盟
わずか
衛星
公共
##ギュア
町名
昌
##all
愛媛
更に
武蔵
プログラム
##切り
ボク
##ort
世代
マラ
伝説
オーディ
売り
荘
##シック
やっ
you
損
仕様
いわゆる
始まっ
ファッション
川崎
侯
停留
平安
次い
山田
アス
向上
分割
保険
勢力
布
誤
##やか
コレ
ぞ
be
死後
在住
フィギュア
古く
書い
グリ
##ry
佐賀
ジャケット
##ian
ずつ
ビー
責任
玄
作っ
ミュージシャン
##立て
維持
更新
ビジ
乾
継続
八幡
退職
##ッキー
生成
亀
出馬
##ハン
衣
##ワイ
青年
三菱
修士
珍
従事
洞
bl
禁止
##iv
歌劇
連隊
評論
##art
短期
自体
エイ
各種
装備
やや
##トリ
訪れ
##サス
挟
##ity
##どう
福祉
東洋
四国
弟子
母親
##むら
##ッキ
清水
en
移行
仏教
チャンネル
深夜
師団
##チュア
フィン
##ざま
別名
照
短編
モスクワ
行為
大和
本来
智
氷
地震
なさ
##ポン
無料
芳
像
##ッコ
ハンガ
避
一族
so
出来る
濃
##ice
落ち
鳥取
コンテ
プロレス
習
##ティブ
シーン
歩兵
pr
ガン
地点
贈
過ご
ラー
備え
豪
綱
健康
塔
##ビエト
視聴
##ーブル
スマ
接する
結合
##せる
淡
月刊
転じ
インタ
東側
改札
呼称
##ティック
ソウル
振興
ソビエト
鬼
電車
サイズ
##ペン
微
始まる
再開
アレク
アイル
南側
広告
アニメーション
推定
仕え
衝
休止
顧問
##ノン
ポール
起き
往
山梨
週刊
オフィ
手がけ
武将
アメリカン
改正
捜
##バン
破壊
カト
アリ
ふく
行く
民間
分子
ヘル
遺跡
同一
敷地
計算
沼
疑
描く
##スタント
著書
平和
地帯
筆
##返し
硬
シー
慶長
税
おか
社名
##つけ
友人
ジャズ
全米
体制
通る
市長
充
沢
礼
置き
向かう
対抗
失敗
摂
弱
##ニスト
勇
逮
尽
トレー
わたっ
エリ
心理
##出す
逮捕
潜水
記さ
##リーナ
作る
##ect
王者
ジャンプ
ダウン
中世
ボーカル
##ケル
起こし
金融
ビジネス
授与
##ヴァー
se
向かっ
ユダ
ハンガリー
異なり
議長
##ティン
移り
付属
通し
レベル
得意
改良
新宿
消防
男女
斎
##トラ
##ov
祖父
附属
##リアン
ヘン
幅広
肉
マリ
強く
サポート
"、
制限
今日
撃
ギリシャ
##デー
##ブラ
司会
進ん
任じ
つき
有し
相続
統治
ディレ
##ントリー
アイルランド
ダー
区別
滋賀
楽器
バンク
なん
聴
徐
振り
シュー
##グラ
ウェブ
中期
思想
又
対策
募
rec
殺害
ポルトガル
##そう
レコー
##フォード
コロン
##ert
スコット
さく
陥
全長
アクション
飼
地位
義塾
改め
か月
神経
##ブン
pc
##込む
姉妹
電力
テキ
ブレ
止
かい
使う
マク
##レッジ
##ベルク
陳
晩
##イナー
空軍
サイド
##しゃ
##リーム
です
艦隊
インディ
庭
プリン
敬
話題
##ども
##ack
ハード
住居
段階
wor
壁
自衛
笑い
ナイト
さまざま
憲法
比べ
##デス
沈
カラー
°
大きい
ダン
上映
再建
やすい
箇
語っ
まだ
リスト
スロ
冒
シア
ナイ
公認
アプリ
##ドロ
柔道
##ef
用語
ブラック
栽
耐
学名
邦
ユダヤ
本塁
縦
書籍
古い
対立
金沢
季
使い
たけ
かか
もつ
##ッタ
ph
##リュー
ex
無人
##ピン
防御
慶應
リング
箱
困難
栽培
高橋
##せん
co
前半
##ッシ
診
##ミネ
閉鎖
信号
鑑
政党
##チャー
選抜
フライ
アート
コメディ
取り組
棋
庄
コント
艇
-)
典
浄
池田
言い
イスラ
リア
##ッテ
居住
しょ
ファミ
##アイ
境界
阪神
外交
セット
回転
記者
##ーナメント
席
##次郎
##シス
済
項目
##ーブ
前年
参謀
トーク
喫
教え
分析
下部
あら
強化
##ミュ
テク
模様
山脈
##チル
ベイ
翼
蒸
紫
##ステル
##プラ
##ドゥ
ミス
#
消滅
ブロック
鳴
##yst
大韓
山本
##ティア
ナショナル
こく
遺産
コンセ
脳
ウク
斉
薄
締
動画
テスト
分かれ
奏者
軸
象
;
##te
祝
伊藤
##und
従っ
修道
香川
隻
パーソナリティ
グリーン
挿
上海
球団
即位
携帯
##one
組み合わせ
##yl
幾
トーナメント
想
繋
率いる
中止
月曜
アント
クイ
キュー
見える
形状
日間
ぜ
買収
エピ
000
前期
称さ
小林
シカ
定年
##uc
##end
やが
既に
レコーディング
music
##ゴル
商店
長く
○
年代
期待
ワイド
エンター
ゴルフ
仲間
供給
ベト
ヴァイオ
渋谷
須
##ッズ
英国
チェコ
擁
当たる
患
##プス
##一郎
刑事
盗
スキ
栗
##いち
軒
戻っ
love
##ニュ
覆
バレ
メル
持た
学術
開か
陰
進む
通行
岳
中山
私立
tr
アウト
##ast
イー
しゃ
書店
快
浴
やがて
ボール
各国
new
集合
同名
良い
エンタ
講談
助手
直前
##ーリ
do
格闘
とおり
##ニャ
##ボード
提案
表面
罪
ワシ
収容
進行
##キア
駒
##出さ
震災
願
規格
ズ
磁
無く
ミサ
##レート
置い
窓
トルコ
晴
オペラ
小田
伴う
優れ
ミュ
天然
取り上げ
まとめ
征
ころ
眼
取っ
協議
ヒュー
##らす
操作
##しょう
吸収
ネーム
桂
ベルギー
繁殖
##たま
国鉄
リス
著名
確保
保有
フランク
ヒロ
##やし
収入
年齢
出る
海上
ベトナム
多かっ
##たり
柏
覚
##兵衛
ヤマ
現存
ウィーン
残る
概念
全員
##ルズ
中間
誠
洗
岸
親王
##コール
##ルタ
先端
腹
現地
炎
アム
web
加藤
資金
彫
モノ
依頼
如
全く
傾向
ジャンル
現れ
ウクライナ
いき
クロス
あれ
甘
広場
##ens
sch
残さ
プロモ
儀
大手
そんな
乳
両親
##co
扱い
赴
至っ
record
##イヤ
届
兼ね
渡辺
現象
任務
放映
結び
テン
マリア
基づく
子孫
ハリ
曹
いつ
ライフ
指摘
出走
一定
##しん
幹線
危険
十字
制御
市内
ドキュ
クル
応じ
検査
証券
嫡
請
##ューン
代理
##イム
シル
手法
クラシック
融
アミ
##ace
出入
箇所
##ッピング
カタ
ダブル
##クシー
斜
肥
##フェン
分岐
##たい
関数
##ンマーク
開校
天保
函
迫
シナ
削
br
オート
処分
起点
ちなみ
滑
国境
変え
国会
目標
ファイル
##ウェイ
ソニー
アウ
峰
サブ
デンマーク
係
art
侍
意識
総称
跡地
傍
ディレクター
##モンド
デザイナー
フットボール
##チョ
##qu
給
##ain
初め
わけ
価格
退任
体験
朱
##ほん
##ッハ
感じ
all
残り
食べ
伸び
もっと
滅
接し
支部
テニス
ローカル
定盤
滞
棟
かなり
知り
ロン
校舎
化合
かた
のり
##テッド
職員
man
ヴァン
生命
上野
ラブ
積極
ムー
ワシントン
##レル
フィンランド
低い
みや
書記
##ゼン
すぎ
レンタル
瑞
社団
##セル
コミュニティ
災
##ft
マッチ
免許
神話
##ンチン
イエ
##なわち
すなわち
オーディション
グランド
借
おこ
引き続き
暮らし
オープニング
一帯
歴代
称号
巻き
宣言
エンディング
sc
基づい
##スカ
##ジット
##エスト
誇
ポリ
葬
浩
松平
たら
際し
区分
##ッター
##bo
賢
武田
コンセプト
地理
あげ
メイ
##エフ
ja
##ug
アマチュア
貧
守護
##リコ
##マル
未来
マガ
##ミナル
貸
##ass
拡張
相撲
冊
実行
塗
弥
オーケ
注意
沿岸
ペル
プラン
##フレ
連覇
種目
##ows
打率
辺
ダイヤ
ステークス
扱う
##三郎
大半
##ゅん
初頭
車線
機体
相対
一緒
シカゴ
##ヘン
およそ
アクセス
スペース
才
めぐ
キャッチ
改造
目指す
露
区画
穴
あと
パル
有限
カトリック
##ナン
建立
性格
ゆき
ケン
##プル
アダ
材料
相互
##取り
随
ベン
功績
褐
##az
新田
太字
命じ
叔
貫
併設
発達
jr
立場
##ust
##ベルト
松山
括
予備
古典
献
##サイ
手掛け
ドゥ
管弦
闘
枝
崇
加工
件
主宰
再生
##ポール
大将
警備
浪
盛ん
崩壊
##ログ
。"
作者
住ん
来日
ブラン
たく
コンクール
エジ
シンガー
負傷
碑
ふじ
飛び
言っ
すれ
グロー
##かん
コル
##ep
提携
推薦
聖書
ターミナル
リオ
もともと
ヤン
投資
次第
昼
##ボー
プロモーション
一番
現行
はる
中退
##ock
葛
##けん
ハンド
渡っ
##フィア
解放
信仰
祐
##ネシア
ステーション
##ne
誰
ロボ
競輪
パイ
大橋
職業
促
##ベット
料金
詩人
進み
援
超える
退官
起源
妙
もり
住む
送っ
モード
暦
プレイヤー
ヤング
啓
フィルム
拒
終点
##キン
##ニン
文献
##ルター
』("
##ランス
##ワイト
##イング
##ah
ドー
占領
トム
山地
働き
モンゴル
柱
リンク
きょく
チュー
性能
養成
知識
"(
トヨ
学長
表明
オフィス
フェル
遺伝
##ure
昆
〈
##man
pa
〉
森林
駅前
##ore
自宅
ギリシア
財政
互い
car
消費
類似
褐色
スティー
ブログ
あたっ
教室
伯爵
重ね
線路
解決
てん
ちなん
うえ
とく
高松
戦略
##ツェ
順位
オリコン
ビッグ
##コー
犯罪
降格
高度
コス
ゴールデン
上流
輸入
終わり
ディズ
額
弦
祀
幼少
足利
オーケストラ
毒
全域
委託
銀河
ロス
ポップ
records
流通
井上
観音
リーダー
呼ん
希望
平野
楽し
生涯
ピエ
ユニバー
奨
どの
過ごし
徹
興味
落語
取り扱
舎
織田
##ブス
##カス
脱退
##ロール
分解
官僚
働い
要求
大名
議席
はら
菅
同人
動産
こちら
レスト
ヴィル
夫人
ケース
ミッド
教員
上京
##ヌス
固定
過程
##リウス
菓
##ial
内務
改修
有効
動き
もた
演技
彦
適用
ジェーム
当地
頻
りょう
頂
役所
ごろ
官位
マレー
ロケット
##aw
##換え
##シュタ
インタビュー
アルゼ
北条
背景
エク
wind
我
ディズニー
桐
プライ
主体
否
騒
寛永
括弧
合唱
にほん
ボル
捜査
師範
シャー
染
イス
毛利
立ち上げ
同日
ろ
##がく
##ーノ
発掘
登山
ホワイト
文部
短い
放射
クリエ
募集
##シル
踊
石油
下り
同士
コピー
先行
カット
召
うた
##pe
整理
殺人
ポン
研修
活用
解体
菓子
##ージェ
ノルウェー
ウェイ
外務
売却
イスラエル
千代
スポンサー
ミュージカル
##ミネート
どちら
##クタ
##iz
生没
サル
平日
脇
pl
駐車
療
竣
##af
##ond
アルゼンチン
確立
騎手
コラ
題材
ファンタ
沿っ
垂
##ピア
戻り
巨大
許可
撤退
##フィック
##ment
パス
ニッ
鋼
案内
押し
ブレー
##クトル
湿
原則
取材
ハワイ
牡
##之助
##フォーマ
個体
マガジン
多様
##グル
特技
ルール
少し
##iver
卓
fl
ねん
生没年
もら
サム
深い
渓
現場
##yd
ad
合同
規則
支流
青山
証明
長期
人工
瀬戸
数々
王子
狩
pla
若い
妖
ノミネート
おう
ed
緊
フィリピン
##サンド
エジプト
創建
端末
##ies
ガー
錦
##メンタ
ソー
検討
生じ
絵画
芸名
達し
ばかり
与える
がわ
広域
最多
該
大量
##フィー
灯
竣工
卿
退社
ロバート
室町
策
恋愛
武器
##ach
転向
造船
こうとう
レオ
選定
##ky
ユーロ
様子
トライ
ミサイル
コレクション
複合
vol
塚
判断
ノース
山頂
見つ
まず
world
拓
ミラ
エンタテインメント
中野
増え
カンパ
命令
胸
団地
続編
敏
キロメートル
悲
控
元禄
反乱
臨時
スコットランド
術
##ウント
結局
承認
滞在
##ang
##ーナス
権利
総督
重賞
ヘッド
序
te
japan
狙
セレ
一員
コロンビア
##ンバ
該当
小野
ヴァイオリン
##ーマン
活性
##ヴァン
恩
参考
コート
##どり
アテ
塾
出力
行なっ
windows
最寄
学位
価値
##チア
方針
調整
##ツァ
資本
##ational
##ber
太田
##ッス
トヨタ
必ず
相談
クー
読売
##レンス
ぶん
続き
会館
##でに
司法
##ニューアル
諸国
とど
黄色
jo
貿
島根
祈
『"
木曜
##チス
未満
##ライター
旧制
リニューアル
復興
いけ
左右
意見
火山
##チュー
##ッセル
一環
国王
努
ヒル
##だい
inter
すでに
理学
過ぎ
婦
エース
##ディングス
コミュニケーション
侵攻
##ルトン
りゅう
##フス
##シップ
カレッジ
##バス
印刷
離婚
##きょう
連れ
##ブレ
本項
走る
ジャーナ
##エー
##ネマ
近隣
マイケル
ゃ
疾
食べる
災害
スリー
戦死
協同
##ソード
送り
勲章
##ミニ
審議
音源
城主
限ら
入賞
電鉄
小さい
マリー
偏
寒
緩
遭
貿易
##ない
cc
面し
庶
燃料
センチ
ジャック
並び
釈
しまい
主力
続ける
ペア
##メンタリー
満た
運航
表彰
晋
落選
##ノス
様式
車体
##ナルド
干
##プレ
密度
歌っ
おも
レストラン
準備
##立っ
まん
##ジーランド
ケーブル
薩
終え
境内
づけ
メロ
##ろし
ニュージーランド
スイ
甲子
合戦
春日
プラス
流域
あさ
##とし
伏
桑
奉行
##起こ
ポル
有力
任ぜ
大幅
マスター
マネージ
感染
改善
期限
水素
定着
梁
試み
##ile
糸
##がし
亡くなっ
##ポリ
##立つ
コミューン
##なか
みち
##ite
当日
将来
ディスク
守備
縮
抽
気象
ポート
隔
##分け
客員
##センス
##オス
ウル
ソン
さいたま
ぎょう
ぐん
実質
ドキュメンタリー
争い
次ぐ
##九州
sup
ac
北九州
ショッピング
添
伝承
羅
測定
連携
##uk
##ジョ
##ica
性質
上下
三角
幻
下位
エピソード
噴
享保
最近
社員
回復
マグ
##イラ
役員
ニッポン
パフォーマ
敗退
##ワン
gp
早く
自社
集中
阻
##須賀
患者
画像
規制
トレード
晩年
外部
##ウッド
ハート
出す
べく
スタン
嫌
菌
##amp
銘
マド
投げ
エディ
##ith
郊
##age
##ッティ
国土
岡崎
芸人
交渉
コンテスト
##ory
##々木
看護
##えん
理解
尼
制し
推移
前回
婚
文芸
メール
アレンジ
フィールド
交代
危機
准
##キャ
発着
our
在位
去
表題
佳
彩
陶
しも
構内
沙
リュ
##ライト
両方
構築
アシスタント
明る
開い
ハル
スリ
皇后
##がわ
判決
ガラス
子ども
コミックス
漢字
用意
ホル
不足
じゃ
移し
音声
独特
人生
兵器
兼任
上り
遂
500
ゅ
op
提出
シャル
コンテン
預
宇都
房
公表
テキサス
畑
荷
メモ
琉
破り
##ick
正確
駆逐
バイエル
提唱
ドン
水戸
将棋
ワー
透
寝
注釈
エー
##ire
基づき
##ary
病気
到着
票
菩
男爵
ファースト
飾っ
me
乙
尽力
アトラン
記号
人類
興行
公社
拳
攻め
移っ
mo
マイナー
長編
刀
虎
収集
単に
高原
##ier
帳
##フォーム
近郊
じん
方言
支店
成分
宇都宮
十分
受章
フィリップ
まる
パワー
##フィール
オーバー
郊外
発音
大坂
実績
てい
釜
シド
相模
ランク
室内
##キスタン
##ザベ
授業
貝
県内
楊
しばらく
ジム
##ミス
ウィル
投稿
ワイン
批評
##セロ
史上
##ドルフ
メタル
トー
##sh
勅
一家
柴
辞任
ジェイ
たま
耳
名乗っ
童
資源
抵
ro
炭素
前田
##ラント
打ち上げ
謎
起こっ
応募
##タイ
ストリート
総務
陵
##ーシ
《
床
付い
徐々
par
##ンチャー
神宮
##ストロ
白い
洪
再編
初演
失っ
メッセ
篠
機種
流行
長年
衝突
近畿
超え
太郎
雇
シンガポール
##やま
わたり
フィル
受験
編纂
アダルト
有機
校長
ショップ
##ナショナル
蒲
##ッパー
買い
##アフ
育て
管区
戦線
ボクシング
隠居
笠
忍
キャンパス
ブック
温度
画面
テロ
かみ
並行
構想
取り入れ
パートナー
##nd
ヒト
東映
追放
次元
茎
ラム
##ly
淳
還
行なわ
拝
単式
よい
##ツィオ
東宝
he
つまり
##ベン
許さ
保持
バレエ
いし
会計
島式
駿
秦
吹き
灰
動作
自民
幼稚
発射
中島
出さ
気候
美濃
因ん
妃
リード
風景
モチ
##ボル
後述
没し
英文
##モア
前述
王立
##なし
考える
##ロード
海洋
メン
締結
チャレンジ
高山
モーター
選考
重量
##パート
猫
one
出会い
公益
ライオン
##ime
空気
直線
クレジット
坊
孤
##っと
コア
日常
##アニア
##iss
終戦
出資
エレクト
堺
戦車
腕
##クソン
##ベニア
具体
島津
ユーザー
硫
ケイ
改編
同国
国防
昔
粒
##")
もち
ブレイ
ヘンリー
かず
イラン
講座
上げ
傍ら
伴っ
少将
後任
判明
無線
いか
遅れ
克
午後
アレクサンド
ロング
開館
粉
差し
フリードリ
咲
##カラ
美しい
変換
求める
インドネシア
##ウォ
ゴールド
##efa
たる
##ティス
変わっ
魔法
評議
##ゼル
故郷
禅
保守
認識
マラソン
爆発
演じる
痛
木村
組ん
##せい
除い
衰
##ool
数字
かかわら
事情
堤
フェリー
自主
制覇
誘導
ホールディングス
応用
##クセン
ドラム
##ーバー
##エラ
##ミル
##uct
ほん
就職
繰り返し
琉球
ソングライター
uefa
トイ
ライセンス
フリ
大西
士官
my
国有
ミステ
##クル
益
訪問
パフォーマンス
稼
信用
北朝
ガリ
若手
彫刻
入門
手術
挟ん
##ナイテッド
tw
市川
ふる
人形
村上
半分
浜松
特典
マシン
やり
伊達
ジャーナリスト
女王
州都
但
厚生
上田
スプ
史跡
容易
##づけ
ヒロイン
カップリング
肺
こそ
ベネ
生じる
ミュン
リチャ
##フラン
box
ボーナス
##サイト
##ポーター
逃げ
》
マジ
##じょう
##ージュ
ヴェル
一貫
海峡
筑波
創作
キャスター
スラ
占め
##シスコ
トレーニング
支払
業績
もっとも
汚
みつ
恒星
挙げる
##さい
マイクロ
##エム
勃
##son
タンパ
バイエルン
ジェームズ
知っ
水産
解析
賞金
綾
きん
##ターン
ドーム
クイズ
体系
##ウルス
スマート
ロゴ
紛
占める
くん
まし
クリエイ
水域
起こる
インターナショナル
シャン
刻
専属
釣
広い
代わっ
植民
##ケン
ロボット
魅
亮
地形
大野
身体
キン
ネタ
上演
net
屋敷
軟
ボン
薩摩
決まっ
会津
ser
配属
しき
一橋
上昇
ガール
##ish
ファミリー
中将
当たり
現れる
答
教養
たび
偽
スピード
剛
##ath
飼育
深く
タクシー
邸
強制
キャスト
アブ
名乗る
##なた
入口
輸出
上部
徒歩
盛り
悪化
##ナス
伝わる
つとめ
秘密
掛け
打点
勉
両者
文政
ジョー
三井
##セント
盆
冬季
##ノール
##リズム
best
さくら
下流
蒸気
天体
町立
ハム
従軍
宋
西洋
live
##ビル
移管
##ッケージ
スカウト
昆虫
賛
フリードリヒ
ルイス
ミュンヘン
聖堂
見え
丘陵
売上
ノン
小倉
lb
ネイ
走行
公国
指し
上杉
譲渡
貯
午前
とら
立地
異なっ
ソース
パッケージ
知る
gr
チャールズ
めい
高級
##フォン
##ヨン
##ina
mon
ウラ
リト
推理
プラット
当て
問わ
派生
セリエ
キャンプ
ボス
囲ま
牡馬
ドア
勘
長女
##ライズ
コラボ
架空
コンテンツ
象徴
部品
町内
退学
##ージー
最新
叔父
時計
勤め
出産
宅
自殺
在任
セイ
パイロ
##フル
掘
郎
##ンスター
イェ
ロイヤ
ユナイテッド
山城
秘書
衛生
棒
贈ら
防止
宏
super
僕
数え
no
##ッソ
きゅう
恋人
メトロ
懸
抵抗
直径
観察
ツール
モチーフ
up
家康
デル
―
エフ
同市
##ron
低下
傷
北陸
au
探偵
毎回
乗降
関与
屈
##ヴィチ
倶
みず
##ai
軍団
タワー
函館
補助
北方
思っ
マスコ
夫婦
ナンバー
賀
セミ
存続
##テイ
##ifa
テル
駐屯
ing
##ーレ
がん
カイ
per
ポスト
##込め
火災
底
並ん
信濃
ライター
掛
応援
小川
人数
"』
発言
##リット
day
当該
豊か
役者
her
##合っ
航路
複雑
本店
河内
甥
ピン
幅広い
多摩
働く
源氏
パイロット
逸
イリ
寛政
経緯
記し
肝
簡易
ブラウン
尋
促進
##バード
エージェ
",
国外
王位
##イルス
再度
史料
中川
庭園
ラウンド
フェスティ
載
##揚げ
町域
遷
##タリスト
肩
記憶
二十
リチャード
サンタ
100
ボックス
##テナ
##リダ
故障
ショート
売り上げ
主任
保安
##かさ
解消
##あい
##リード
##ence
質量
##ラリー
コンサル
装甲
広がる
弓
##シオ
遠征
小松
3000
おく
割り
ha
関心
せき
繊
##リャ
屋根
セルビア
解釈
民営
チャー
律
維新
転換
蓮
##ゆき
冒険
慶応
近江
げん
秩
日記
レスラー
パソ
翌日
符
じょ
一切
水曜
火曜
県都
吉野
秀吉
アルファ
半ば
みんな
現実
皆
##unt
とる
##持ち
ひがし
##ェル
議論
##セロナ
##バラ
トランス
熱帯
##ゾン
前方
雌
訴訟
ギタリスト
離脱
萩
デー
##ゲル
##ash
ap
國
##ff
バルセロナ
豊田
家老
##ニオン
##ix
##いん
しゅう
てつ
義務
fifa
急行
検定
##ばし
暗殺
えい
往復
次官
ホー
けんど
ブライ
プール
医薬
##ニエ
司教
##oci
たと
まと
側面
安政
固有
##アフリカ
らん
シドニー
厩
掲げ
##よし
##チャン
日立
関わっ
出土
α
爵
ごく
用途
ひとり
越え
はっ
わか
加わっ
マサ
##なう
果実
拒否
助け
##ton
##ガス
モンテ
撤去
歯科
東大
行事
乗っ
ヨハン
慣
##しみ
学年
怪我
大島
フォワード
りん
良く
##レオ
突然
近鉄
任意
ヴォー
図る
幕末
一致
高田
財務
五十
山岳
球場
##回り
作画
でん
描き
サウス
##ivers
*
##つき
##ウロ
重複
##セット
##ノイ
協定
##ream
かかる
南アフリカ
先駆
守る
ビール
保障
常務
歌舞
cor
墳
喫し
クリー
満州
レン
カンパニー
環状
東南
門下
ユニバーサル
ブルガ
郡内
ウェスト
##コモ
リゾ
歌唱
##ロジー
コール
ノベル
年次
グラビア
##fc
配給
半年
調教
本種
浦和
##ome
エンド
高架
##ium
出来事
立っ
##おう
した
否定
騎士
パナ
債
三十
フェスティバル
戻る
比例
カロ
住所
祭り
護衛
北朝鮮
ボストン
納言
三河
フォーク
田村
潮
尾張
文明
武士
##ドイツ
wh
##ical
##マイ
信長
土佐
歌う
##ーマー
##スペ
新規
手がける
出現
##ern
投入
じゅう
##かわ
話し
ウィン
##ニル
場面
描写
河口
講演
西武
重視
有料
##ワール
いえる
敦
てる
ピーター
突き
怒
##ign
##ークル
印象
渡る
戦っ
日々
蘭
勃発
郡区
駅名
粘
いえ
-』
学問
統括
青春
ジャイ
暫
紋
疾患
##rom
所長
君主
##右衛門
大人
大宮
観客
磐
##リル
分裂
地図
通学
##act
旗本
読者
俗
ツー
小山
横須賀
コメント
ファンタジー
ロケ
生み
民俗
福山
つける
ブルース
極めて
触媒
鼻
鉱山
巣
伝える
##ヴィッド
コンパ
奴
スカイ
パソコン
くれ
庁舎
>
##ヒー
ぜん
マス
保健
天王
ハーフ
コンクリート
##ンジャ
ジャー
エクス
##取っ
併せ
受け入れ
2004
カス
本尊
開拓
松竹
番地
キュ
ヒー
bar
出発
##ヴェル
運輸
跨
カテ
イラストレーター
大田
明確
いま
詰
加賀
##諏訪
##合う
どこ
シナリオ
ひら
学士
領主
ボーイ
##ニオ
及ぶ
アラブ
##ひろ
表し
あん
次々
永禄
ゴー
共有
ぱ
遼
王朝
申し
##ブロ
スズ
モール
##ニョ
三振
事態
ブルガリア
完了
甲斐
みなみ
はず
辰
tra
予想
##捨て
)-
長谷
関わる
試作
メス
騎乗
差別
資産
一体
メダ
合意
偶
閣
終わる
徴
にく
マンション
ビュー
##やく
並ぶ
楽章
品種
山崎
##ーマニア
しゅ
ミリ
姫路
常勤
エンジニア
症状
発明
##シエ
##イルド
趙
結晶
警視
##アリー
##コース
ピアニスト
寮
悩
##ルカ
後者
審判
集英
マルチ
電波
】
ロマン
##ニックス
獣
以内
次いで
ルーマニア
【
宣伝
確定
ニン
発揮
##ube
称する
爵位
##se
ラス
同月
和田
墓地
医科
教皇
狂
旅団
##もり
唱
援助
効率
若者
折り
診断
##モニー
横断
神学
リレー
挿入
高齢
芦
アプリケーション
オーク
歌舞伎
補佐
##ビジョン
農林
要請
##バキア
携わっ
外野
受け継
学部
引き継い
##越し
ビーチ
浸
##プター
あわせ
レディ
まっ
本町
大谷
亭
扱わ
##たく
打撃
##ドン
広がっ
ワーク
チェーン
埋葬
招待
全曲
空手
佐々木
ドライバー
マレーシア
考案
雷
費用
手段
ジェット
耕
所領
##シオン
大公
ファイナル
イスラム
推測
テクノ
赤い
乾燥
任期
再現
東方
##違い
##gen
鳥類
エッセ
南方
おき
アラビア
抑え
寧
メッセージ
地質
処刑
混合
信頼
支え
大津
懐
水系
協奏
史学
フロント
リトアニア
幹部
school
五輪
回数
min
モバ
乃
鷹
武装
敗北
正室
代替
シリア
カフェ
北米
ヴェネ
堅
##きゅう
ドラゴン
デス
申請
素材
珍しい
戦前
播
東芝
違う
gro
蜂
破っ
諏訪
連勝
##ぐち
商工
財産
蘇
##モス
マックス
##ke
累
大蔵
焼失
##楽部
かく
成り
##20
同志
壊
先生
句
曽
##アス
一旦
牝
払
虫
##おか
体操
met
テイ
アテネ
リアル
訪れる
倶楽部
同級
インチ
fran
タンパク
公爵
寄り
##ージャ
トイレ
gl
近衛
ge
キック
修正
dis
だろう
トーマ
ライヴ
##td
輩
##シャー
岬
威
##ツィア
念
全線
ダービー
わたる
黒い
##オー
##カイ
抜擢
ミシ
願い
##ソー
除き
讃
##ネー
暴力
工科
##ごう
死ん
法政
斑
盛岡
##ナミ
フロリダ
周期
石井
旋
##サウルス
ぷ
gre
取る
角川
タンク
##さき
##ann
同校
帰還
決意
包囲
緊急
サークル
intern
##irl
カ国
人材
勧め
##エス
実践
措
あなた
激しい
基盤
シネマ
単純
##iel
ホイ
桁
慈
モル
歌謡
糖
##グロ
ニック
囲碁
粒子
リゾート
ミル
##さん
5000
戦隊
fre
ウェブサイト
送信
##カンド
千代田
〒
##チオ
就役
アリーナ
学会
##ーヌ
港湾
##直し
混乱
サイク
三浦
失わ
岡田
成果
ティー
人文
長岡
##んじゃ
##ちょう
##タウン
キャプ
グロ
掃
修行
措置
賜
豊富
担っ
プル
木造
##リウム
三郎
工芸
土木
埋め
船舶
ライダー
##ma
台北
述べる
配備
##の子
監視
頭部
ダニ
修理
バトル
##らえ
後方
rad
おん
##ールス
穂
斬
南海
既存
夕方
校区
##久保
cr
創造
成田
才能
##リヒ
ゲル
湘
郡庁
引き起こ
ガル
広報
指示
日中
評し
最寄り
猿
神田
##de
宮殿
ぞう
もうけ
迎える
##ナント
##左衛門
輩出
恭
階段
チリ
予算
##受け
上場
先輩
解除
慎
詞
催
欲
がく
引っ
ミドル
##int
ma
築い
トーマス
簡単
##our
亡命
日産
準々
牧師
地中
モント
農学
##メル
橋本
焼き
吾
謙
##uro
少数
qu
オレ
利益
驚
##ose
外科
兵士
種子
飲食
山号
検出
soft
還元
スパイ
全面
教科
坂本
フィラ
琴
伊豆
豊臣
クロア
化石
則
磯
双方
所蔵
幼い
教区
##ペーン
pre
ロイヤル
厩舎
水道
いた
メガ
グア
書く
桃山
於
開局
スポット
縄
扇
##ローズ
じんじゃ
特急
ミラノ
降伏
##ヘルム
同作
満了
##ニコ
依存
違反
##バーグ
##組み
##きり
##レム
周波
栄養
山陽
豆
モバイル
臨床
結ば
書房
##チック
ダウンロード
着用
ないし
前橋
庵
##がい
上陸
技師
主役
グレイ
刺史
法務
アンダー
夜間
迷
専修
権力
辛
ゼロ
機動
著者
表紙
クリア
クロアチア
##ッラ
専念
テープ
シアター
特集
陸地
ワイ
循
負担
キューバ
人種
送ら
##シュー
##ーゼル
胴
##ッヒ
安打
手紙
寛文
ボタン
<
逃れ
おそ
来る
もん
阪急
じゅん
ボート
控え
##五郎
小さく
##ーニャ
宿泊
考慮
ディー
ニー
定理
成人
道場
エリザベ
あお
##上がっ
殺し
ナン
ヤク
##立ち
久保
##ートン
##日市
建国
##たび
操縦
首席
lin
アルコール
英雄
ミッション
ディフェン
デモ
##pt
##ys
学者
チャンピオンズ
たん
南極
進化
##are
##エット
無かっ
言える
オオ
繰り広
##ねる
示さ
聞い
最古
絵本
エドワード
出口
原料
メダリスト
鹿島
僅
ltd
長らく
招集
絶対
インディーズ
辻
戦士
やすく
##しろ
イラク
クイーン
##フィールダー
辞職
ミッドフィールダー
入手
移民
名づけ
##シュタイン
表さ
will
##ペル
爆撃
首長
ボラン
ウッド
総理
装飾
宮廷
さか
生年
##グレ
特許
##かく
★
倫
##当て
##ジェリア
らしい
退役
大隊
皇太
##テーション
嵐
敗戦
シニア
言及
幅広く
ds
殺さ
インスト
寄せ
探検
異常
グラス
##ジメント
##まら
フォード
ジョージア
総長
うる
黄金
連結
ガイド
ヶ所
ハイン
小笠
##ノフ
嗣
楕
ジー
##ルトラ
チュ
##arl
楕円
細川
幽
定数
扱っ
##掛ける
##向き
総裁
烏
night
綴
夫妻
領土
##エア
入力
リミ
市営
皮膚
圭
##テム
だん
業界
液体
聞き
解雇
鉱物
山中
考古
課題
力士
融合
ダンサー
腫
奨励
##ong
今後
毎月
##リーガ
##ドラ
マドリード
##mer
優先
視点
坪
判事
山下
ドライブ
##フランシスコ
椎
##50
捕手
##じん
文章
中日
ならび
課長
##ネイロ
すけ
記す
ウイルス
就航
タッグ
アタ
南端
航海
##テイメント
拘
摩
##ッキング
ホラー
サンフランシスコ
猛
ヴァージ
アドベ
皇子
オレンジ
ヴィルヘルム
戯
猪
##わし
戦う
筒
大佐
暫定
酸素
ドロ
##カリ
##per
育ち
宣教
文科
アナログ
マネージャー
周り
没後
ボディ
向かい
##ae
出席
最低
tube
陥落
gen
恐れ
紛争
##ガース
##フィン
カントリー
講義
アトランタ
##att
マツ
墓所
姿勢
上級
嫡男
攻略
当たっ
##old
ぴ
スミス
牝馬
マイク
##リティー
##書き
供用
コーヒー
白色
浄土
##ちゃ
出品
技能
日野
農民
##yn
揚
積み
膨
##フラ
匹
八戸
安芸
##olog
宝暦
ミネ
突破
ブーム
マンガ
含ん
##land
##ほう
任官
経路
したがっ
ジャイアン
すい
キャンペーン
##ara
初戦
マネジメント
##ニカ
##ジュール
旨
##ラク
el
陸奥
絶滅
##クトリア
##ydro
恵まれ
##ous
牧場
ピンク
裂
住友
サウ
行列
飯田
大夫
##ジャネイロ
特性
均
天神
悪魔
走り
高野
##しょ
認知
##ystation
立つ
ゾーン
主導
高崎
算
入れる
ドリーム
ブロード
##リンズ
##ife
クライ
playstation
ass
臣
握
##っぽ
野村
作風
ダイヤモンド
人事
実用
1000
水泳
代々
循環
たとえば
出店
接触
##ヴェン
支社
橘
イースト
ハリウッド
ローズ
忘
薫
アキ
キル
はん
送る
開放
越後
釣り
湧
##トー
妖怪
つか
歌人
##さつ
一軍
出雲
本土
勉強
生かし
##もん
確率
みどり
抱え
走っ
国籍
若干
野田
舟
##ギス
can
実家
本体
立体
モンスター
ハンドボール
触れ
バーン
本編
外側
政務
襲撃
配布
##チェスター
名所
赴任
ウルトラ
アドベンチャー
崎
戦時
ボード
右投
一連
短縮
##イセン
脂
iso
カウ
侵入
訴え
ろう
リク
吉本
繊維
探し
ガード
功労
キャプテン
揃
劣
ナチス
はな
旧姓
熟
稀
スコア
あらゆる
ジャイアンツ
カム
後ろ
寸
小田原
和名
ペット
##ram
プレス
ストック
就い
班
内側
##ベリア
バイオ
庫
レジ
商人
国務
エキ
但し
止め
頻繁
標本
クリスマス
集まっ
教諭
沿線
騒動
リズム
療法
中京
カーブ
##くま
需
high
##ict
継ぐ
##ウンス
たろう
レビュー
取り組ん
くら
##ance
##コス
##ニーズ
エレベ
##オル
ばん
言え
起こす
放出
下院
##入り
太子
妊
決める
ビクター
炉
エミ
女神
心臓
検索
comp
ビット
##ux
打者
欧米
シート
小笠原
β
溝
魏
全般
コーポ
日光
集配
ウォー
blue
佐世
実況
大山
サンデー
魅力
一郎
レンズ
従い
##デジャネイロ
いろ
vo
川口
##王子
嘉永
リオデジャネイロ
現職
鑑賞
パターン
ディーゼル
鍋
インディア
商学
認可
チベット
台風
脱出
呂
閲
同僚
越前
抜け
pop
##テス
電機
エッセイ
ボクサー
##のう
##ベース
ラーメン
泥
製薬
はち
会話
バリ
武蔵野
タイガース
霧
近世
ライバル
鴨
##ナーズ
南北朝
##コル
ヴァル
看板
part
覆わ
gu
公募
セン
専任
斎藤
再婚
運河
八王子
潤
シャルル
中断
ディス
ヘビー
セカンド
##ズベ
##ツィオーネ
腰
##ild
振る
アラン
棋士
朗
##itt
窓口
##ザス
入居
笹
出生
がた
しろ
れい
母体
ガールズ
進水
交点
老朽
盆地
うら
##lect
ab
爆弾
真言
柄
翔
ラスト
夏季
引用
スーパ
元和
##プレイ
##ata
浴び
シングルス
報じ
橋梁
ディフェンダー
##デルフィア
##ros
##ペット
監査
ポンド
婦人
フィラデルフィア
商標
くに
ゆく
蛇
模型
氏族
道具
ぽ
キム
フー
不良
到達
履
牽
内野
漁業
スライ
プラザ
セントラル
改装
要塞
##ビリ
景観
野菜
##ンジャー
残す
不可
急速
タッチ
仮面
意図
競争
縮小
達する
郷土
させ
巨人
with
本山
ベルト
スティーヴ
##ower
##ward
方程
##シェル
アナウンス
経過
ドコモ
##ystem
##ぼう
異動
墨
##ラト
この頃
フェア
武道
##ンダム
リン酸
##itter
ピー
化粧
衣装
主将
国連
成る
ミステリー
嫁
高層
佐世保
girl
安土
##ise
著し
藤田
銭
難しい
鳳
城下
荒川
スピン
フラツィオーネ
胡
蕭
雰
マニ
犯人
プログラ
換
煙
保管
甲府
誇る
避難
"」
移植
西方
雰囲
##kyo
雰囲気
##ズミ
コネ
シェア
尺
疎
近藤
time
vs
気温
カテゴ
ゲイ
stud
百貨
mag
儒
醸
伊予
襲名
##ナタ
天使
##ビング
懲
調理
プロイセン
篇
##すけ
くま
博覧
##ハラ
樹立
##セッツ
der
アイヌ
ウイ
##ハウ
如来
news
旭川
親善
首位
事前
参事
死刑
浅草
定める
ぼう
乗客
幹事
絞
語り
ょ
割合
海水
経歴
余儀
入場
条例
羊
脅
季節
##ジャン
##ゴー
すず
常陸
約束
公務
所管
院長
dream
涼
マサチュー
ミズ
マサチューセッツ
弘前
完結
スロー
ox
ラウ
ロマ
吉川
構え
鐘
起こり
ヒーロー
フレーム
##me
踊り
閲覧
センチメートル
##ばら
叙任
宮内
博多
戦力
母音
鄭
##iam
こん
パト
子爵
正面
ダブルス
##セイ
##チナ
フィルハー
##ics
出家
担う
領事
濃度
rob
セブン
込め
ホッケ
盗塁
##メイト
朝廷
総会
オーナー
トウ
最小
del
刈
髪
id
予約
あろう
主流
内戦
スル
リバ
小屋
##ジュアル
life
ネー
播磨
コーラス
大井
レーシング
スターズ
##ya
##さか
fo
単語
ケー
弦楽
冒頭
広げ
想定
system
四季
取ら
大塚
借り
衰退
レスリング
##ca
曾
##こく
細菌
出張
終結
ワークス
虚
太守
待合
殿堂
##cl
カザ
福田
正月
後藤
防ぐ
阿波
##ターズ
##マラ
実装
##上がり
リスナー
滅亡
需要
##スパ
起工
アイテム
チョウ
東海道
媒
ドメ
俳句
##テク
官房
バイク
態
選ん
数値
強豪
泊
親交
拍
吹奏
ゲート
専務
熊野
ゴル
三木
展望
阿部
刺激
細長
##ズル
ブリー
サント
tokyo
本堂
ざわ
##orn
プラットフォーム
移さ
##ンスク
アベ
携わる
憧
勝負
松田
ゆめ
参入
保育
##っくり
クラウ
##ott
診療
##ero
筆頭
中核
従業
ジェフ
水上
孔
響
奪わ
強力
次郎
コスト
卸
興業
##ロフ
アール
音響
パロ
##かす
寄付
##pr
##キット
##ゃく
##グリ
アサ
中津
グラフィック
##70
動員
貧困
プレート
##思議
公卿
##ject
##回る
住み
図っ
ジャクソン
籍
##エゴ
検察
甲板
##ヴィヒ
##けい
敷設
青木
謝
接近
緑色
励
##グアイ
大気
答え
三島
靖
##ガニ
日蓮
銀座
オプ
技法
本州
天平
封入
新作
##ail
行方
加わり
##rd
鮮
アリス
##ps
住吉
気筒
ついに
引き継が
談
麓
典型
司馬
不全
損傷
テレビジョン
歌い
ひょう
苗
モーニング
癌
冠し
高木
世田
刑務
off
エンターテインメント
家系
line
ホッケー
針
根拠
兼務
同局
チャンピオンシップ
創始
同地
かね
##oo
##ale
ボリ
##pl
袋
##入れる
容疑
降り
ペンシル
international
pe
汽
調べ
joh
低く
剥
鍵
国体
のりば
世田谷
中等
前者
工作
発祥
##ley
スティ
ガイ
反映
正規
船橋
討ち
ハーバード
洛
圧力
ピエール
##ラーズ
賃
##ガイ
上院
今回
実在
ナビ
張り
ディア
王妃
雇用
再興
旅館
まんが
治世
知名
遺体
##ウィン
ファー
久留
欄
施さ
歩道
by
誓
##ザーズ
老人
逃亡
取り付け
##ウェル
ブルック
つる
黒田
##ライン
##ition
燕
##じめ
伊東
駆動
品質
##ムス
ビン
##oll
##ung
短く
##上げる
コラボレーション
天明
##ka
向き
##アップ
こい
瓦
##らさ
##ホン
渓谷
分校
貴重
得票
男優
歓
館長
狭い
長谷川
譜
##ino
ピク
丹波
##パール
##ii
西暦
北極
妊娠
##ざき
題名
かかっ
##のり
さえ
福音
菩薩
プロテ
アンドレ
券売
##ミット
mic
ひろし
ステップ
ルネ
ガンダム
ビジョン
祥
##下げ
##ンジェ
マジック
とうきょう
再選
提示
ヴェネツィア
地価
皇族
ストア
魂
"-
マカ
不思議
##クトリー
オスマン
##さと
栄え
空襲
菊池
ボーイズ
邑
モロ
営利
##レオン
res
##ork
れん
南朝
##urn
受信
ヘリコ
ひで
ロール
ナレーション
まい
修復
台地
発し
エレベーター
代行
省略
だいがく
水路
bill
実力
リーガ
眠
明石
淡路
都立
##フスキー
エリザベス
リメ
えん
変動
データベース
##つい
秩父
金庫
瞬
概ね
##レード
詠
##てい
er
藤沢
##ビシオン
チェンジ
ポルノ
マルクス
手掛ける
‐
偵
クール
アポ
三田
佐野
外観
エスト
univers
有権
ダニエル
府中
##enter
下し
着手
トロント
教官
##まえ
さき
ユーゴ
親しま
ベースボール
うま
基部
##tr
あの
独占
バーク
回収
ガリシア
シンボル
クリスティ
同誌
職人
med
レーダー
事例
##ケード
ソナタ
エコ
オハ
作中
封じ
##インズ
トラブル
従兄
殆
文久
踏切
ギャグ
力学
プレゼ
教団
膜
時刻
##シウム
小島
##コク
シロ
符号
フロー
ローン
そば
ロッテ
騎兵
ウォーター
識
原産
左岸
取り組み
ドリ
篤
北端
敗れる
グローバル
鋭
伝道
例外
川越
##ンドラ
落とし
かな
遊び
イリノイ
国分
意向
菜
品川
戦艦
熊谷
残留
語源
im
ヒドロ
下旬
当局
こうえん
##ラド
ヨハ
卓球
輝い
変わる
偉
勾
セラー
役場
読む
別れ
忘れ
ヵ
ストーン
コウ
##コフ
##ony
ベンチ
生育
国内外
ルーキー
亜科
休刊
受容
特化
大久保
コロム
倒れ
##ュル
佐久
クロー
低迷
横山
アウグ
彗
取扱
フランツ
あや
ヘリコプター
##カレ
##tt
酒井
最中
艦長
開き
偵察
パック
##be
##ank
インテ
セガ
まつり
ランプ
肖
郡山
東山
ste
ビルボード
今作
僅か
あし
余り
藤井
なき
##ドール
##トリウム
##止め
特撮
砂漠
##レーン
ミックス
##しゅ
まり
##ドウ
はい
##リアル
ほっ
入隊
発覚
農村
飲料
悠
プリンス
(-
ボウ
基督
明和
漫才
隋
##ンシー
プロセス
ちょ
切れ
教鞭
##バイス
##テルブルク
胤
よこ
浮世
補給
ジョーンズ
平行
絡
幼名
彗星
致
藍
虐
市道
##当たり
殆ど
挿絵
顧客
馬場
慰
##ッポ
##ode
チン
野生
和泉
舞踊
閉じ
sm
胃
一門
斜面
##ult
くろ
ぼく
対決
町長
軍隊
##ダーズ
##ther
子役
セルフ
内陸
スタンド
ストップ
平面
損害
アダム
##ヒト
理工
キャニオン
下野
光学
浅野
アンリ
シミュ
か所
悪い
有数
伏見
捕虜
那須
電池
ver
にくい
きり
延伸
感覚
帰っ
捕らえ
リベ
右打
戒
##ame
法則
通路
##ジウム
デン
出羽
見せる
きら
bro
##モリ
解任
rock
##びん
タム
ろく
入院
選ぶ
プロト
束
もし
年末
春秋
疑問
鎮守
##ald
南米
証拠
関節
さわ
入選
努め
ユーゴスラ
くらい
活発
彰
##ius
育っ
通貨
扉
喪
学芸
権限
下関
##たん
コロムビア
##ヶ原
セー
パンク
隷
列島
特記
長調
クリスト
高岡
綿
ハッ
南京
回路
駆け
バージニア
発信
丈
決議
##美子
倉庫
em
悟
楠
適切
cap
大内
車種
サーキット
焦
ブン
閉店
出会う
晃
明るい
体長
知的
語学
郭
ひさ
成し
三国
原理
育つ
不動
レール
あくま
スプリング
大衆
寄与
マスコット
##ear
右岸
赤色
巻き込ま
##ゾナ
たつ
サイン
はっきり
ナレーター
済み
透明
犠
鋳
##que
大輔
捨て
twitter
門人
##ニウム
出会っ
つれ
メタ
安倍
カプ
西南
ワル
##返す
##ヴィー
クルー
レアル
ぞく
牽引
つくば
岡本
題し
##ッシャー
##ブール
掌
ジェネ
プレミアム
##au
先住
船体
ポニー
評判
ヘイ
##ッスル
食事
アンナ
エフエム
##ケティング
スクリーン
那覇
##ラーゼ
煮
都合
洲
歌わ
絵師
壮
ヨー
没年
領地
har
生態
鍛
##ade
充実
red
捧
党首
基質
山内
とて
系図
鞍
リミックス
chr
スプリ
評さ
シード
ストロ
##ずる
##ダイ
##ッシー
茅
憧れ
湘南
##ースター
白石
グッド
舌
spec
ライオンズ
fr
豊橋
涙
砲兵
乗り入れ
##プレス
カウン
って
集める
同県
洪水
滑走
死者
オハイオ
##ki
分かれる
アセ
##rans
center
鱗
##ヤン
信じ
国語
##ロック
ネオ
天気
食用
一宮
広東
リメイク
##ins
すみ
##eth
パシ
##かける
グラフ
##ケイ
町村
クレイ
メロディ
##がた
酒造
妨
##われ
尋常
##orm
反発
改題
##ョウ
射撃
ワーナー
明日
##enn
法科
ゆかり
同行
チェロ
ヴォル
ハロ
##ッセン
被災
請求
int
おそらく
##ぜん
反射
柴田
なぜ
正教
麻雀
##ナップ
out
ペー
署名
ガーデン
##ヴィス
アンソ
ブリッジ
##沿い
木曽
2020
たびたび
##30
##der
基金
薬師
##んどう
po
原田
圧倒
厳しい
回り
左翼
バンダ
プラハ
|-||
鶏
ざる
駿河
ジェリー
ナトリウム
分間
両国
歩行
鎮座
なくなっ
支線
等級
##ヴィア
石炭
みる
延喜
comm
##アミ
##oph
ダル
劇中
造ら
高麗
ラップ
舞鶴
ユーゴスラビア
##取る
抗議
擁立
水田
叩
圧縮
小樽
戸田
釧
##ett
af
厳密
島田
気持ち
クリーム
ドメイン
凝
オム
変遷
##じゅう
内海
ホークス
トニー
ユニオン
##we
博し
色彩
衝撃
リトル
「"
中隊
##inal
アリゾナ
ルーム
後年
上方
不振
##プトン
##あき
##lex
アパ
防災
隠し
ギル
イチ
ベー
要因
##リク
はく
皇太子
グラウンド
ふた
チェル
ホップ
ag
師匠
度々
コマンド
佐伯
ようやく
あか
動向
論理
##ホール
バード
##デア
きみ
##スロ
軽量
##ヴィン
ウズベ
受託
つながっ
名詞
sec
カザフ
ホット
オックス
##から
動脈
暮らす
キーボード
容量
本当
犬種
ソル
犠牲
尚書
譲り
間隔
##ヴィル
アミノ
シュート
親友
擬
梨
木材
フィルハーモニー
立憲
パネル
年少
inf
マーケティング
腐
虹
)"
アルゴ
トリノ
個性
改築
施工
白人
##ドニア
##ブリッジ
介護
剣道
##ロイド
イル
伊賀
ナポリ
クリスチャン
サンディ
バッ
ビート
アルバイト
##わさ
立命
箱根
五郎
水源
監修
##sc
チャイ
##xt
立教
関わら
褒
出向
##ミック
架かる
mich
遡
検事
慕
諡
メカ
西村
##はり
つと
奴隷
シベリア
ヴォーカル
宗家
分散
復元
部族
隊長
ターボ
休日
セッション
##por
そん
臼
シチ
名門
ヤード
リッチ
変わら
ヒップ
もたらし
灘
太鼓
安田
中東
呼吸
松江
肖像
レイン
ブライアン
蓄
人権
園芸
富田
ブレーキ
加速
事項
意思
激しく
##ym
なす
ペルー
ませ
ウエ
不満
削減
水野
##リオール
割り当て
身分
西ドイツ
なつ
加熱
目黒
エレクトロ
入省
pol
やく
抑制
立川
ドラマー
口径
赤坂
クリエイティブ
総数
##ファン
ショウ
関わり
臭
##ene
交際
偶然
日高
部長
ind
阻害
避ける
安永
町田
石田
紀伊
学級
終盤
フォト
##pg
樺
##ビュ
最上
クイーンズ
##パル
##ヴァル
ウェールズ
保全
執政
招聘
代謝
捉
展覧
サーバ
ナポ
倉敷
輔
鎖
曲線
直轄
住職
特異
レオン
是
メチル
##リエーション
噂
管内
量産
##タント
ブラウ
石垣
空中
美容
##抜き
##ラード
あくまで
グレート
奮
##ロド
松井
ノーベル
##ソワ
移る
##エンス
着工
降板
跳
観点
逆転
斗
円形
コラム
スワ
失点
抽選
招い
堆
双子
.")
##和田
広大
次長
##クトペ
ボランティア
##まつ
ゆえ
##ーツァ
おさ
一角
alb
全英
感情
澤
##ood
薬学
アルメ
振動
オプション
ウィリアムズ
罰
ボイ
先代
みなさ
征服
##チェン
リスク
ty
pet
open
fc
タキ
対称
改組
築城
##ball
増刊
ドラゴ
##vel
後輩
真宗
ジョンソン
澄
アソ
トリオ
峡
東急
フルート
継ぎ
フード
##げん
半数
至ら
ドナルド
##ニズム
棄
塩化
摂津
##バーン
公職
新曲
稲荷
コーポレーション
産地
満たす
アーケード
松尾
ジュー
靴
##iro
##まい
##ute
マケ
セーブ
磁気
譲っ
併合
外れ
ヤマハ
本田
特命
神聖
パーティー
はし
少尉
本願
ドール
過ごす
日向
職務
ザクセン
後漢
要望
河原
進める
僧侶
渋滞
euro
暁
##渡し
##ake
全身
着陸
やはり
##port
##ポル
コンテナ
associ
バルト
ブレイク
タイヤ
ミラー
エリック
バンコク
##チカ
##切っ
##ネン
入会
放棄
コントロール
フェロー
マーティン
商事
株主
マンハ
マーケット
発注
西宮
高島
久留米
女の子
##クトペテルブルク
##四郎
釧路
名乗り
##ek
タル
レク
平地
釈迦
あつ
同郡
天国
役職
活かし
杜
津軽
フュー
セールス
公司
本多
東武
水中
装着
運命
佐竹
サマー
アムステル
オックスフォード
尖
松原
開く
芽
御所
##ネーム
マウス
見つかっ
混同
艦名
親子
チョコ
守り
水平
法令
芝居
##ズエラ
びょう
留まっ
配列
漏
か国
失い
農家
分かっ
##スラフ
見つけ
ゆうびん
カルロス
champ
鎮圧
ソックス
project
アプ
正義
パレス
オートバイ
揺
##コム
本貫
tri
book
ナポレオン
獅
謀
##づくり
##ator
##board
アレクサンドル
##ピオ
きれ
##ツォ
ボブ
フォル
要する
bre
##リューション
キス
賑
併用
切っ
救急
消し
桓
##なす
##ホルム
キエフ
デラ
乗せ
浜田
転身
重力
予防
踏み
##ディン
テキスト
##シナ
人名
mat
star
##ana
直通
適し
魚類
##バッハ
ペンシルベニア
##na
全部
政界
##替わり
モーツァ
療養
豊島
ラリー
ゴム
エージェンシー
いす
契機
##uctase
窒
注ぐ
倒産
大社
ナム
##ットー
カヴァー
断念
社殿
##ピュ
##anc
セグ
サクラ
避け
恐竜
村域
足立
電動
セキュ
アンティ
フットサル
元気
片側
呪
まき
定員
科目
##ロット
とても
ファクトリー
鴻
付加
菩提
講習
##osh
元素
理想
米軍
進歩
ブリュ
##ろん
全権
トゥー
メディ
闘争
予報
取り扱う
ケンブリッジ
##れん
立法
親衛
##バルディア
使者
小売
白山
常任
くり
前日
大河
ハインリヒ
##わけ
数十
植え
話す
inst
惜
バカ
視覚
##チンコ
小泉
筋肉
##ハム
セントル
かける
ネパール
置き換え
ココ
当社
個別
待ち
日活
##ッリ
##デュ
黒人
ブロン
アンテナ
アムステルダム
葬ら
造形
ケンタ
腺
座席
##ソル
削除
早世
スノー
メリー
寄贈
枢
fe
硬式
イヤー
ニックネーム
エンターテイメント
培
醸造
青い
##テレ
不安
噴火
配下
national
##ホー
染色
通勤
うん
錯
嶺
大師
くみ
地獄
##がら
海戦
##キュー
アイスランド
叙せ
アスレ
##なべ
ベネズエラ
諱
##エイ
薬剤
扶
##fl
多用
たけし
ループ
ザン
儀式
北魏
話者
週末
フランソワ
##くし
抄
大変
釜山
##ンガム
ロータ
フォーマ
亜種
もらう
ダート
ドレス
曜
ストライ
廣
##もの
灯台
##ラスカ
##だん
都心
おこなっ
腎
貨車
ミシガン
唄
イノ
源流
高め
##tc
生理
micro
##セフ
三好
跨線
去っ
変える
ふるさと
ラヴ
成年
改訂
広がり
墜
暖
アロ
##ッシング
祖母
##リッツ
傾斜
tom
原型
策定
##しゅう
真理
遺構
アーサー
シグ
後部
楽しむ
俺
ベクトル
##下ろし
ムーン
安藤
count
女流
##イアント
了
酢
日程
認証
遣
珠
建っ
隷下
鷲
シャトル
繰り広げ
ブロードウェイ
##ギン
河北
変わり
ウエスト
サンクトペテルブルク
##ッペ
好み
胴体
調達
レーザー
葬儀
豊後
##カリスト
哀
新町
##xy
ラジ
東端
松浦
貼
##取ら
声楽
##ームス
淀
ペイ
回避
米子
プレゼント
思う
開山
##バース
早い
生きる
伸ばし
ダグ
基幹
骨折
惣
塗装
チーフ
珍しく
泣
あて
宇治
けいさつ
哺
豚
バナ
垂直
飾り
ウェル
コミュニケーションズ
尿
愛好
流し
公示
戯曲
駐在
##ポリス
魯
開店
サイクル
手伝
照明
逝
##ita
麗
##ープル
集まり
代官
徹底
田辺
辞典
取り戻
対岸
##リアス
スロバキア
倫理
吹替
多岐
天津
嫡子
整数
mac
亘
大友
婚約
ドミニ
ベッド
ギャラリー
ネル
氷河
中原
##ぶつ
帯び
艦艇
サロン
ジョル
モントリオール
なみ
海底
プログラミング
食料
##ランカ
駅伝
富士見
メソ
理念
おおさか
マリオ
北上
カート
脊
##ゆみ
哺乳
破産
ノート
含める
産駒
##サンダー
朝倉
造成
グッズ
パシフィック
怒り
探査
遠藤
とりわけ
会見
灰色
ナイン
論争
路面
農地
ファーム
樋
加茂
後世
祭神
角度
語る
開け
ドラゴンズ
傑
投与
とどまっ
紡
ガラ
レシ
民謡
クラン
ファル
聡
介し
愛し
流出
遂げ
イエス
##リッシュ
ソウ
今井
属す
##デント
オルガン
##切ら
電撃
##ベール
ていしゃ
本郷
梶
甚
大い
討伐
アルファベット
兆
##ama
##ッタン
christ
広州
満期
つう
大石
クラリ
サンパ
ショック
##フィールド
正しい
ブー
マキ
##ソリン
西端
辞退
ストレート
##ato
コパ
##chn
他社
造り
零
導体
死ぬ
民衆
発症
花火
緒
宝永
スタンダ
##ルツェ
##レール
アントニオ
演習
頂点
##ぎょう
市販
強調
新潮
自称
ワード
アシスト
チャンス
##ノキ
##ger
墜落
アーツ
##なく
ミー
通商
重点
再発
恐怖
津山
語族
重臣
ガソリン
玩
藩政
##フルト
桐生
まとめる
哨
##オケ
ラト
city
蹴
なれ
一揆
先頭
公会
前提
浮か
飲み
##ボーン
ビートル
パキスタン
招か
カレン
椅
##マト
保証
固め
シミュレーション
##馴染
変形
工程
半径
ピース
有馬
牧野
加える
漂
##タス
名跡
湿地
王女
異母
部下
パーキング
##ジラ
くじ
地蔵
##aster
パチンコ
ムービー
箕
通い
モーツァルト
フェリ
ロウ
籠
ケア
台車
桜井
見解
近縁
付与
飛騨
台東
##ーゼフ
##able
入植
八重
好評
越える
楼
有形
サンド
スロベニア
公使
在職
新しく
松下
海兵
海域
測量
##タール
ポケット
晶
改めて
エントリー
##ele
トス
age
##リム
すら
返還
フォース
カンザス
工房
おと
単発
ヴァイ
右衛門
穀
逝去
付ける
ショット
ルートヴィヒ
##ura
竹内
農場
ペルシア
メニュー
セラ
val
ハリー
治安
ピーク
すす
廃校
熱心
##リーグ
膝
##クリ
ic
予測
順次
##app
ベア
態度
ナイター
アイランド
便宜
土壌
紅白
##ナンド
比率
祀る
こだ
救援
ちなむ
告知
椅子
量子
##ゲット
しお
ホス
新興
燃焼
cal
行なう
名人
感謝
脂肪
##ンガー
利根
ワイルド
ヒューストン
萌
##ric
庶民
精力
咸
闇
アッ
アバ
京阪
施し
##ペラ
示唆
吊
揖
ばら
権威
配慮
ヴァージョン
指数
詳しく
##オラ
居城
##wn
内田
救助
チーズ
##ゥル
##タナ
##ハイ
唱え
凍
一説
並べ
自作
club
##ベリー
ter
田園
飾る
メモリ
ギア
叙さ
コロラド
コンサルタント
生存
純粋
アーチ
点在
入部
大切
チップ
乗員
閏
##ゥス
延期
獅子
読ん
リクエスト
##ウリ
大神
腫瘍
ムス
とくに
宜
動力
儲
fri
相模原
汲
両側
所持
運搬
##ソタ
延宝
砂糖
##ディネ
##付ける
des
拾
努力
廃業
負っ
##ニクス
##づき
##ini
玩具
頭取
テーブル
サンパウロ
デヴィッド
キリ
##ブライ
槍
##アラ
前線
コンスタン
眺
エム
##ベート
フィー
日本橋
ひこ
教職
西鉄
飛鳥
アーム
ニュージャ
分家
四郎
想い
##プール
こども
ブラッド
吐
##二郎
洋画
転用
ボイス
メアリー
##ple
しら
排水
築か
車庫
運賃
カラオケ
シアトル
架け
症候
特番
統制
リュー
クラーク
消化
##ナート
##ドミ
弱い
マンチェスター
##ane
スモ
読書
転写
eng
くれる
コンゴ
はた
タラ
番線
今川
造営
備える
フィート
天台
che
##回っ
##awa
長州
径
内藤
川上
排除
崖
##ぞう
##ヌー
喜多
手前
公転
追わ
mod
ハンス
disc
ライナー
スペクトル
チームメイト
しみ
##ンタム
伝わっ
テナント
再会
巡洋
有人
コンサルティング
##好き
掲示
限界
エージェント
##yth
下総
中田
山陰
バランス
知行
先駆け
@
本国
能登
市原
リポーター
招き
裸
きち
公明
古川
##illa
mot
バレン
amer
導い
授け
##やす
ラフ
直営
##ited
スイッチ
主席
宮本
海賊
幾何
##ハルト
内蔵
##ogle
吹き替え
プエ
不正
ロビン
メー
個々
営む
鈴鹿
##ari
わかる
show
腸
##クレ
捕食
さとう
へい
世話
懲役
質問
ハウ
前面
jav
ダーク
プレーヤー
champion
##まさ
号し
trans
出荷
汎
袁
突入
汚染
セントルイス
広義
##ラート
大将軍
アフガニ
狼
釈放
##モンテ
eat
ニュージャージー
仰
以南
書紀
##デター
##ばん
##ロル
ke
大垣
次女
礼拝
花序
革新
アフガニスタン
billboard
津田
野外
##キサ
在日
美人
邸宅
賭
##ワーズ
##マリ
中盤
稼働
顕著
cod
鳩
同等
河南
##ボルン
チェック
power
アニメーター
搭乗
旧暦
邪
勾配
諸説
バッハ
出仕
マケドニア
麦
採掘
確実
血管
ミネソタ
フォーラム
外見
##しかっ
ぃ
萬
鉛
フレデ
キャップ
ビートルズ
google
##ven
任さ
廃棄
線形
##タミン
##ナイト
over
play
ヨーゼフ
sport
##ゥー
将校
民事
重奏
ニコニコ
叶
##rag
ふれ
ゆり
ほしい
ホンダ
##ler
しれ
ふみ
法的
##ータル
geor
##fer
天井
鳥居
##ディス
##ames
組み込ま
刃
枯
-」
朴
##トレ
モリ
ベリー
サンディエゴ
##ロウ
インディアナ
漆
ホセ
快速
ヴィン
##グア
哨戒
ber
磨
ハナ
いわき
繋がっ
セキュリティ
association
標識
group
巧
##ano
バク
校名
reg
##ドー
参画
side
##ぼし
なな
貞観
カンヌ
バンダイ
##ih
がち
##ヴィッチ
robert
##ner
ホリ
大森
定住
硫黄
陥っ
ヴィクトリア
変数
尼崎
ラッシュ
出入り
##渡さ
うつ
無限
マリン
ロープ
インディアン
##ee
幸せ
機材
自立
いとう
エール
拍子
消え
貸し
トランペット
穏
ゼネ
新羅
手続き
樹木
mor
ブンデス
圓
##ena
gra
胎
因む
ストラ
引く
惨
たっ
文禄
遮
##打ち
互換
##ケー
日露
運送
呈
太夫
##own
カレー
##づく
北野
土俵
瑞宝
阿弥
##ラリ
タブ
累計
遠く
非難
rh
レバ
性的
拠れ
リース
##リヤ
戦場
日付
生前
生地
金子
関ヶ原
##クシ
su
のぶ
ロイ
制服
固体
生え
ブンデスリーガ
テネ
目撃
計測
アデ
グレゴ
from
イソ
望む
集会
デトロ
北道
山麓
競合
ニコラ
ビリー
ウィーク
air
ブダ
母国
繁栄
サスペ
ターン
デュー
ever
##ータイ
いな
病死
##ペスト
デトロイト
##醍醐
宇部
母校
##ima
je
サク
ヶ国
のう
ハミ
中旬
アイオ
gener
綬
william
##ほど
まこ
マンハッタン
エロ
社内
帽
cy
冷却
微分
説得
まったく
ぶつ
ケル
天満
ハンター
宴
のぼ
##ael
cd
テオ
味方
緩和
##,3
旋律
普段
light
也
とん
大同
宅地
物体
##work
ホルン
##cc
奨学
書道
##ナール
商号
喜劇
##ディオ
2,3
シチリア
たて
大尉
易
阻止
##ネスコ
尻
##ナウ
明神
radio
曰
##ark
原画
丞
カリブ
集まる
プロテスタント
ロンバルディア
広瀬
廉
しげ
対照
流入
プリンセス
カザフスタン
オマ
フッ
売れ
母方
パンチ
眞
たた
国旗
平家
studio
##su
##据え
ビス
挟ま
数百
カタログ
ディビジョン
猟
カク
塩基
廃車
堆積
掃海
頼朝
四日市
しかも
伸びる
##ツィヒ
good
薬物
nor
ボスニア
中高
助演
同型
幕下
識別
皮切り
##通り
古巣
持株
長尾
ピッチ
ミハ
クラフト
##かいどう
殻
暗号
渡米
航行
こなし
##バイザー
##inc
友好
版画
除去
##ival
マット
まれ
アピ
名鉄
間違
##ヒドロ
丸山
マスク
タカ
窒素
ペース
全集
物資
ともない
##ml
ヨン
延暦
抗争
河野
短歌
わかっ
##てん
告げ
##グラム
トマス
コンパクト
杏
荻
カジ
ウズベキスタン
伝達
土器
石原
薄い
酷
気圧
アパート
知り合い
風俗
アウグスト
##じま
各社
##ye
砦
##ぱい
緑地
隠れ
ポスター
祈願
魚雷
司祭
強度
軍用
##ビッド
いずみ
シルバー
##ーマーケット
##はら
薬品
高地
アルメニア
窪
少佐
フェザー
亡くなる
##ze
かぶ
永井
郵政
##ニク
宮古
グラム
##いろ
##デイ
イレ
急死
模し
結城
ツァ
伊丹
天下
断層
理科
アワード
スーパーマーケット
侯爵
衛門
いれ
##ディック
ほっかいどう
稚
##alk
あま
しの
大村
奥州
紋章
西川
養父
もらっ
ジョゼ
ジャンクション
蝶
突起
##ーシスト
クラリネット
語ら
悪く
田原
ベーシスト
##づい
上智
告白
訳さ
エステル
バンクーバー
テック
なかなか
粗
くだ
クォ
後援
ディオ
旭日
##トリー
どおり
インス
シェル
フォーマット
##po
巴
証言
##ブリン
フォーミュ
壬
木製
移り住
帆
休養
実写
支局
木下
西口
違っ
面白
tak
フラワー
古河
ライプ
キーパー
モロッコ
宰
##ral
##ベック
すずき
しず
劇作
祀ら
総額
逃し
オイ
合作
捜索
無し
地盤
延び
頂上
##ャンマー
##ロコ
##vex
炭鉱
##ship
認める
柿
缶
ニュ
中西
八十
吾妻
##ology
μ
##ヶ谷
収蔵
排気
##リッヒ
加わる
見舞
バスク
ジャーナル
単一
##ors
合い
墳丘
好ん
方形
本家
##張り
ミャンマー
mg
公的
多年
サントリー
官職
蒼
セリ
ツイ
ドミ
天才
はるか
むしろ
上がっ
クーデター
垣
岩崎
早期
検証
金剛
鶴見
##ンジュ
側室
菅原
高温
かし
断絶
##ナーゼ
板橋
ターゲット
##ノコ
##ind
媒体
香り
ハイド
ディスプレイ
就く
##ゲイ
放っ
ユネスコ
##ans
カタル
ヨーク
もちろん
##くら
メルボルン
バウ
特色
##oh
楚
飽
喫茶
サスペンス
湊
尾崎
ゲオ
not
コンペ
グローブ
覚え
シェイ
リバー
アップル
カテゴリー
抱い
県境
解明
詩集
フェルディ
凱
粟
にい
ママ
しょく
award
ゲー
パウ
電化
フェラー
舗
国府
祖先
##じゅ
免疫
振付
最長
電流
実務
寄進
細長い
##キル
伝記
スラム
oxid
年寄
江戸川
エストニア
ざい
順調
黎
新生
アース
マップ
avex
つながる
enter
備前
大崎
採択
よしもと
ヒドロキシ
寅
下表
落下
##シカ
付く
モナ
山間
パナマ
フォーミュラ
頸
やる
御殿
明け
欠場
##ネイ
ジオ
文法
洞窟
##少年
##着い
体調
アソシエ
問屋
玄関
青少年
フランシス
プライベート
三位
平田
楽譜
sol
ケンタッキー
囚
弾き
仕組み
硝
俳人
遭遇
##スキー
work
special
ヌー
リヒ
トロン
−
奉納
本書
sing
灌
奪取
##ューズ
str
平原
斉藤
流用
##メンタル
##ファレンス
ばし
幼児
添加
渡し
##サーチ
比べる
埴
棚
同梱
大地
見な
sum
ボウル
対馬
祝日
上げる
肢
公安
##ラシ
旧名
縄文
##ision
クリエイター
スタンダード
鉄路
信州
多彩
樹脂
せかい
##しき
勝っ
##ハイム
始動
船団
詰め
進級
##ッテル
しゅん
##ko
渦
##ポー
神道
黒色
##ater
##っこ
楽天
オイル
切断
精度
系譜
魔女
ルーツ
##ごと
ul
異性
見学
ヤクルト
宛
##uch
もも
杉並
秋葉
製鉄
ang
旗揚げ
代数
苫
頑
豪華
カープ
##ジーミル
スクウェア
書物
短調
old
あきら
オタ
本校
金額
ベラル
楽しめる
ウィルソン
##asc
じゅ
定時
リマ
大王
森田
グリー
パロディ
絹
樺太
こうじ
##ala
連動
降下
スズキ
ブルク
type
チェコスロ
リハ
北海
電源
##りょう
カスタ
手続
##les
エマ
先祖
破綻
クルーズ
ストックホルム
ウェルター
交易
早朝
##チョウ
餌
写本
根本
霞
##小路
綬章
泳
フリーランス
柔術
cent
soci
##ロメ
イブ
タマ
志し
##ッスン
大いに
廻
最強
擁する
##br
##休み
侍従
瞬間
アルミニ
山東
新井
cre
搬
##sch
入党
分泌
文理
呼びかけ
##ディビシオン
加増
従う
日米
パズル
##ナラ
##レア
増大
後進
洗礼
ジェン
スウィ
入れ替え
##ソウ
##作り
ネコ
競艇
ひめ
主教
入所
八木
寄稿
米沢
聖人
軍勢
ピッツ
##プライズ
載せ
パラダ
##マーシャル
胞
友達
文京
硫酸
アルビ
シュタ
コンピレーション
##ta
醤
久米
元号
大洋
最適
置換
蜂起
station
dav
メイク
マスコミ
永正
赤穂
起訴
養老
正体
石灰
ann
john
相馬
薨
抜き
星野
##ファイ
卸売
新型
習得
鳴門
##ヴィエ
##ille
マーガ
ウー
武術
##ザール
パド
幼虫
別冊
弥生
応永
カンボ
欽
葵
家具
惟
流さ
碧
##ガメ
##ローチ
通じる
ブリティ
死体
混ぜ
解剖
追っ
##roid
##ズマ
ちか
収益
因子
変異
年金
ブルックリン
外来
物流
発刊
目立つ
##che
産出
##ショップ
パーセント
々
円墳
函数
フレン
高める
port
##ush
帰り
陣屋
四川
帰郷
水準
法名
淵
三塁
事典
器具
服部
永遠
誤り
讃岐
##ッサー
sel
girls
##ble
くう
戦績
尹
緯
狩猟
##引き
伯父
伴奏
産む
公民
sou
ブリティッシュ
##クサ
話さ
##ster
##ブランド
タバ
##ピング
ジャニーズ
粛
把
豊川
##レスト
セミナー
盲
正徳
沼津
焦点
良好
誘い
##マイカ
ufc
ゲージ
出展
含み
真実
退い
適応
##ぐる
背面
露出
ベラルーシ
##並み
共著
征伐
##フェル
##ution
たいかい
取り扱い
セネ
宇和
現状
##テンベルク
除籍
##ナード
##ハンマ
カウント
バンタム
フォックス
##バナ
とし
ほく
住人
届け
左側
抜い
背中
連ね
##ブリア
アベニュー
後日
留守
霊場
たなか
アルミニウム
ダイエー
戊
督
アグ
庄内
マール
##yle
疑い
閉校
##ンスト
みなと
スプリント
ナイジェリア
佐渡
初日
右側
電磁
上回る
ヘルシン
棘
はつ
変光
##カナ
無事
めぐる
位相
ウラン
##ストリ
留まり
グラフィ
techn
不能
肥前
カンボジア
##てる
さす
クワ
秋季
肺炎
青葉
##ull
行進
頻度
プラスチック
習慣
オフィシャル
##かせ
三宅
常設
##ラビア
阿弥陀
##ji
舘
##ハウス
棲
井戸
##ニカル
リサーチ
ジャマイカ
アレクサンダー
畠
テー
長門
##グラード
pres
ファイト
##gr
じま
ウス
交え
戦術
ケルン
いり
主婦
屋外
途上
your
大連
歌川
武帝
##ジャース
インテル
コマーシャル
与党
復讐
金山
オファー
切り替え
##ior
以北
歌曲
満足
##モント
##sp
アジ
地面
大川
締め
見なさ
##ヶ崎
##キース
##ouse
フロア
アコース
##ety
きよ
上手
土岐
##らしい
トライアル
##へい
##era
##oto
特有
追贈
パイオ
なかむら
エニックス
オークランド
捉え
淡水
湾岸
ヘア
実弟
武家
デュオ
##sd
寄生
水面
江東
社格
##とり
きた
国営
沈没
##マンド
側近
予告
異名
白鳥
どれ
サス
幻想
抱き
茶屋
鳥羽
エンジェル
##"』
民家
河合
コーン
みき
京成
出血
本戦
権現
組ま
見事
通訳
入り口
アルゴリズム
曰く
火星
県民
##サイク
スリランカ
せつ
プー
及ん
アイオワ
タイムズ
容器
製紙
##上がる
はじめて
リハビリ
##ボク
ふさ
供養
狙っ
プリメ
懇
##まち
サタ
今治
指標
チョン
リーズ
田舎
敢
かす
二男
奇妙
州内
極東
##ハーゲン
##っち
##詰め
ジン
醤油
##ーニュ
生き残
##トリア
sal
すぎる
ウイング
ヘブライ
出陣
北欧
わたし
仕掛け
決まり
##フィクション
bank
仮想
尾根
耐久
惹
耶
平定
##ソニック
カップル
ウルグアイ
轄
サテ
風土
##ラルド
フェイス
エクスプレス
##ボリ
全日
パイオニア
アルジェリア
ウラジーミル
アコースティック
倭
##バマ
##aka
係数
演歌
リボン
カスティー
##urg
ヵ月
堤防
神殿
##グルス
##プラー
ヴォルフ
サイエンス
大敗
掘り
異例
石室
アミューズ
カタルーニャ
##なら
##ヶ丘
##ese
中佐
内科
確か
コナミ
スケール
市域
常磐
曹洞
##ored
勤める
charl
藝
##net
今度
日清
ハンブルク
##da
##わい
日経
玉川
conc
レッスン
害
くち
懸念
日系
"、"
鶴岡
##tain
##ハンマド
飢
##リラ
守っ
築造
##サンブル
マイアミ
以て
巡っ
王族
要件
##つける
ブダペスト
榎
遥
名物
探索
させる
ツイン
ハーン
仕える
##ico
##ody
kw
ムシ
阿蘇
##ントス
bas
mer
アルプス
慢
ゆる
サマ
自生
レイク
vers
スパルタ
ブラウザ
ノンフィクション
##ism
ゼミ
肥後
過剰
一色
警戒
エチオ
チョコレート
袖
大江
舗装
野党
電圧
排出
若狭
##はし
##ual
支所
東亜
らしく
フランクフルト
疲
漁港
買っ
map
ドクター
モジュール
いら
侵略
部位
マウント
android
法華
マニア
##チャーズ
婿
諫
始祖
炭酸
無視
広まっ
##フレーズ
align
ノルディック
刻ま
##っかり
バーグ
引き起こす
##oss
旧道
スクエア
カワ
一躍
練馬
花弁
##シティ
シンク
##ンスキー
光年
建武
オムニ
##ブリック
世間
園内
西山
##ッダ
ゾン
上旬
食性
ちば
交付
壊滅
小牧
もたらす
エチオピア
エレクトリック
あだ
債務
踏襲
集積
tre
オーディオ
カロライナ
本機
長寿
脈
ノイ
池袋
##ッツォ
大映
造語
遊撃
かたわら
ライプツィヒ
閉館
二塁
式典
セックス
チェコスロバキア
championship
##ガタ
##ira
公衆
シンプル
名声
ヤンキース
秋山
キッズ
またがる
後楽
レコーズ
躍
アオ
立花
瞳
品番
拘束
目覚
sound
萼
市電
水深
ビジュアル
壱
##スル
##ビナ
商科
安置
市制
移設
華族
誤っ
ダグラス
ヘルシンキ
##uel
残存
チェス
ぐち
ツェ
逸話
順序
クラウン
テイラー
処女
常連
突如
##ague
フアン
university
多発
忠実
於い
バッテ
支える
ミン
三原
加古
子女
起きる
##genase
ブレーブス
チケット
らく
中性
多大
本館
ティン
アンサンブル
不要
東経
発動
近接
食堂
##ケート
アンモ
目立っ
エウ
ゴン
一条
稲葉
ele
発する
書き下ろし
##ola
王家
セメント
春季
開花
lib
嘱
##メイ
側線
深刻
グレー
スーツ
アンジェ
tu
織り
##ボウ
ラク
免除
せよう
ウィー
デバイス
隙
##嵯峨
他人
王室
豊岡
野口
高雄
##レータ
パナソニック
抹
台頭
工廠
総監
シップ
国産
川内
推奨
##フィス
グルメ
中毒
所沢
ふたり
カーン
アルバニア
痕
隅
信者
実子
##ural
おおい
ブドウ
カクテル
わが
矢野
##ジング
つば
営ん
小児
揖斐
##ement
隼
宰相
液晶
積ん
西北
単なる
##リニスト
タケ
千歳
落と
薨去
過激
川沿い
キャッチフレーズ
菱
きし
先進
部会
ファミコン
北緯
実証
都内
サンダー
所得
据え
##イトン
コスタ
簿
注文
都督
びょういん
さと
不定
誇っ
駆使
オレゴン
窯
##ont
急性
未だ
聞く
テネシー
マーガレット
シューティング
祇
オア
原稿
果て
##らん
津波
南道
平坦
急遽
成す
百済
パーツ
コンピューター
蛍
##サギ
ハド
一塁
初出
工藤
着任
葛飾
バット
ヴァー
クリップ
アプローチ
双葉
豪族
アドバイザー
西尾
金銭
馬力
パーソナリティー
凶
東ドイツ
獄
上皇
摂取
シンセ
童話
##フォー
sci
生み出し
替
真田
see
ヌード
いじ
開園
風呂
##シアード
##フェース
class
椿
安価
尾道
擁し
腹部
ゲオルク
##サイド
hydro
忌
引い
ちょうど
奔
##ink
かき
ナウ
一気
大原
奪い
撃破
旧称
紀州
芥
##たか
##ora
ポンプ
デイリー
ささ
土浦
客車
ps
原始
報酬
日比
物産
##プソン
喉
元帥
四方
たき
公布
式内
神々
面する
##ルツブルク
モニ
山名
昼間
郡名
##レラ
低地
東口
特筆
追求
分かる
prod
ニコライ
伽
戴
##明け
os
慢性
朗読
うまく
流派
満点
アゼル
ハロー
支払い
next
サウジア
殉
蝦
##ぶん
ニア
公家
通告
カスティーリャ
八尾
水雷
襲わ
##シャワ
スープ
プエルト
禄
##より
奇跡
悲劇
摂政
札所
##せつ
##aur
##ubl
元来
家畜
白河
##ましい
##スコン
ジョニー
バッテリー
崔
名残
執り
海老
##ートー
テイク
イスラーム
##ちに
モア
##キンス
ケニア
シュル
繰り返す
フェニックス
モデ
宝石
紅葉
##レッド
ニンテン
black
笛
##本木
原案
巡る
陽子
ハリス
##リントン
木星
デルタ
翁
ハマ
サウジアラビア
悦
信託
叙爵
##ings
パイプ
堰
ジル
末裔
永久
古来
領有
コイン
back
出征
県庁
石橋
誘わ
村田
生ん
##ゲート
##セッサ
従兄弟
ハッピー
冨
琵
不在
おもに
若松
つくる
やまぐち
争っ
対処
羽毛
##グループ
##ヘル
##高い
ヘリ
捧げ
松戸
西岸
##バリー
感じる
変身
雲南
単体
梅田
パレード
##ひこ
やめ
ゲン
ピラ
賠
ぎん
校地
麻薬
##berg
mem
バブル
ファイブ
##dd
廟
胆
さだ
京王
組成
賠償
乙女
極端
演算
##バック
孤立
対空
##アンド
##ティション
ユニバーシアード
アビ
召集
琵琶
アドルフ
きく
参拝
ブリュッセル
改易
救済
儲け
右翼
正統
カルボ
バリア
取り組む
玲
無形
ダイア
ハワード
具合
英名
ドッグ
取り壊
詳しい
##ウンテン
ジョセフ
有志
輝く
麻生
##コーン
##ユーズ
マルコ
合理
川島
骨格
エリー
##let
ヨル
北見
リンゴ
タグ
小名
幅員
臨海
辺境
ずっと
アイデア
ウィンド
畜
顎
##ムシ
リエ
ロベルト
##帰り
家屋
バラード
よば
不二
争わ
##マリア
##クタール
引き分け
##オブ
##ノル
##ヒド
おは
体色
右手
バイト
メイド
覇
政令
寵
畳
##オロ
##サラ
メド
石器
竹田
ひろしま
##バイジャン
ボーカリスト
パラリンピック
dr
馬身
mel
ハット
レーン
おんせん
濱
密着
筑後
背負
演説
遊園
生体
禁じ
stre
ケータイ
ヘクタール
##がみ
##ずみ
##むね
三条
新築
重傷
串
共作
収穫
同居
客室
ホスト
アルフレ
pg
売買
特産
linux
書院
無名
調節
部局
ボーン
ワルシャワ
董
##oca
カモ
実習
アンドリュー
アゼルバイジャン
妨害
ピエモンテ
league
櫻
乗組
救出
石碑
##itch
pal
出世
授賞
真っ
淑
動詞
宮中
##サンス
稽
ほり
工夫
観戦
##スティック
襄
勢い
地頭
オース
codice
挨
##ざい
##なぎ
ふう
磐田
##ason
nat
詐
##itz
sil
レッズ
グラミー
グルジア
ポップス
フレデリック
シリ
独奏
わたなべ
っぽ
エヌ
ヨウ
争う
合弁
寿命
挨拶
##ティエ
##レージ
おおむね
パラダイス
##air
屋号
替え
狭義
誉
##切る
積分
##ーロン
増やし
ふれあい
凡
##ケス
ペドロ
bel
喧
迂
corpor
会合
##lection
憂
うけ
喪失
採取
格子
見直し
ドラッグ
昨
介入
みゆき
カメラマン
ミュージアム
まえ
倒し
狭く
食材
##リオン
##ルトゥ
アシュ
キャピ
ブエ
同曲
ネズミ
オリオン
ソユーズ
プリント
##ipp
よん
味噌
撃墜
##ちゅう
##ッチェ
##ars
山手
長老
顕彰
あらか
リタ
切手
強盗
車内
邦題
##ルツェゴ
盾
上越
投じ
没収
百合
鉱業
長安
act
」("
いちろう
ユニフォーム
奄
##ウイ
##デラ
運ば
##ents
##レックス
カンファレンス
浙
##aki
志願
採集
荘園
高槻
phil
##シュタット
エグ
仮称
勝手
荷物
こなす
ハイビジョン
プロフィール
michael
増殖
失う
##クラブ
バート
縫
律令
づくり
##ole
成熟
辞し
グレン
ッ
蓋
##まし
うみ
ナル
入ら
天候
払い
曜日
温暖
造園
atm
シャツ
上がる
fest
ジュリア
##そく
##セラ
ep
コカ
大沢
##way
下車
遅く
ウルフ
レート
mark
まつわる
ファイナ
エルンスト
トレーナー
バリエーション
##立た
代議
仮説
別府
志望
##ital
もらい
##プレックス
肌
##ワフ
太政
帰化
辞め
祀っ
神名
銘柄
キット
ティム
セグンダ
アレックス
こば
会派
屈指
無理
由紀
白川
耐え
コペン
鵜
ミカ
例年
室蘭
めぐみ
litt
カルシウム
##ハマ
##プチ
ir
上総
早川
自国
##っぽん
つもり
キネマ
ヘッセン
謳
##コブ
##牟田
若く
轄区
サザン
ウォルト
熙
##ーダ
同意
山西
近辺
##rich
def
doc
mid
マニュ
ロマンス
鋸
麺
仮名
本庄
癒
イズ
レフ
国定
急激
有田
東高
民放
浅井
##チレン
アーキ
ジェイム
##ck
##ある
##十郎
中堅
党員
宇佐
浮上
##アンス
アトラ
ヤマト
rich
凌
さし
ほし
押さ
草原
食い
たかはし
取り扱っ
スティーヴン
爪
エビ
周防
島原
捕獲
村名
正常
gar
欲しい
ok
仮定
児玉
名簿
実態
深め
zone
宙
中型
円盤
鉄筋
列し
沼田
酢酸
##レーツ
清朝
##タイトル
なかよし
ブッシュ
オムニバス
##ll
多少
洛陽
精密
network
ちん
乗務
廃線
群れ
選帝
##ジック
##ディアン
ユリウス
ボーイング
デイヴィッド
コペンハーゲン
嶋
##row
亀山
親族
論じ
転校
マイン
富士通
決して
alex
##ベーション
フラッシュ
##oreductase
##ij
蜀
##パラ
半球
奄美
選曲
##ビアン
##リンク
つながり
ロータリー
##ばり
備中
ヴァイオリニスト
##もう
日刊
献上
閣僚
ミズーリ
漬
##rop
うど
思い出
クライアント
##ネタ
."
どんな
kiss
イーグルス
サテライト
##ッロ
臨済
エステ
##ハウゼン
##のぼ
ウン
同性
貝塚
ユーザ
##ren
にち
小麦
真空
藩領
道中
クラウド
ゼネラル
oxidoreductase
峯
##きん
問い
天理
起業
ホルモン
和解
本殿
happ
ピッツバーグ
##リュ
コモ
敵対
浸透
ハミルトン
多額
松島
金田
##テット
あいだ
フェラーリ
莫
逢
だり
マヌ
元老
築き
西田
久保田
瓶
イエロー
矛
以っ
手塚
抽出
翌月
##ガンダ
##抜け
深川
進路
inc
明るく
サポーター
イヌ
法制
難民
##ローラ
##ican
ベートー
ルクセン
オリックス
いと
ひた
巡回
##ication
信徒
大東
情勢
留置
行使
パレスチナ
ラインナップ
入浴
rev
##iy
債権
直結
face
別々
扁
##イェ
##ホマ
##ラウ
うじ
重大
mil
使える
##ルツェゴビナ
閑
南下
挑む
あさひ
げき
##カゲ
クマ
毒性
火力
美女
花園
アーク
クリーブランド
蒙
キャス
デッキ
ワンダー
house
ファイターズ
杭
##オリ
途絶
fer
ヘヴィ
ml
中古
弘化
把握
水分
相違
##メット
エルサ
ベール
知り合っ
佑
##寄せ
##oma
任天
国史
アルミ
##ox
へん
虐殺
降水
下ろし
ミシェル
##ga
爾
##麻呂
ピット
ムスリム
掴
暗い
追う
ついで
compan
諮
等しい
フランチャ
迅
全編
刈谷
背後
藝術
##ヤーズ
アルト
収める
著しく
##ツキ
キプ
教習
軽減
ローレンス
みの
モス
家政
徴収
横綱
西郷
とある
嵯峨
後退
##マーク
ソリューション
幼年
林道
補強
トルク
アラスカ
受け継が
京畿
唐津
打っ
荒廃
アクア
教える
corporation
危惧
古今
志摩
曹操
細い
迂回
##ショウ
ローリング
ヒメ
結核
蝦夷
車輪
あゆみ
成し遂
thom
ステレオ
プライム
##ドミントン
告示
法廷
発酵
##コンド
##ross
sim
ストリ
マクロ
フォント
瑞穂
祇園
ギャラ
離れる
盟
江蘇
##ニティ
ミスター
藻
##ベイ
二郎
偏諱
地表
##ードン
つくら
ン
宮川
巡礼
平井
資材
##ンジー
##チネ
えり
凱旋
当然
持続
東郷
西経
長良
##メリカ
シフト
##レク
##amb
ラボ
バドミントン
天草
拳銃
支給
エスカ
レポート
ライブラリ
上洛
好む
青色
##ンタン
ケリー
フェン
エンジニアリング
借金
難波
##チウム
リヴァ
郁
##enz
北口
年始
遺物
レバノン
プリメーラ
登記
素晴
##ベガス
ノルマン
猶
探す
文藝
##オール
スルー
にっぽん
老舗
赤道
乏
##ソス
乗用
little
バグ
休業
皇室
成り立つ
扮
##ike
商会
架橋
片岡
バーデン
ルクセンブルク
盧
##ニウス
フロン
mart
ヨハネス
嘴
イサ
鍾
ヘー
海運
独裁
引き継ぎ
バレンシア
##がん
ev
ひま
オト
ant
読み切り
##omo
オカ
交互
実戦
稽古
バロック
フォール
千里
栗原
みょう
イレブン
黙
参与
松岡
違法
##ジアナ
サイモン
##lo
剣術
怪獣
追悼
追跡
ソフィア
stage
レディース
インストール
云
##ons
序盤
鑑定
マック
佐倉
堀川
筑紫
聴い
ルーズ
rain
助言
各々
許し
##チスロ
ペーパー
スナ
帯広
部落
##アーズ
##ield
吉野川
##cy
土屋
弾圧
水溶
益田
開基
かかり
チュニ
パルマ
ポピュ
厳しく
##レンツェ
ミステリ
娯
レア
京浜
医者
商船
気付
牛乳
荒木
転々
##ミール
レシピ
ムハンマド
##ヘルツェゴビナ
マネージメント
毅
忍者
リヨン
ホームズ
マーシャル
##じっ
ひん
座標
宿場
訪ね
リム
帰る
情熱
種別
『""』
サックス
紳
##ゆう
アング
カルチャー
ブラザーズ
入局
制約
大関
家人
復刻
枚数
紀行
叫
溢
聯
個展
寺社
業者
河岸
誘致
##カーン
ミシシ
埋め立て
##ストラクター
##かつ
儒学
混雑
父子
##ントロ
まこと
シャープ
パチスロ
孟
碁
複素
オンタ
##ッケル
les
##ニングラード
曳
##ere
マダ
学制
戻し
##ミュー
フィクション
ブックレット
##ダス
ピカ
台詞
彦根
警部
##ヴァンス
ラスベガス
四十
字幕
肉体
ゆうき
オクラ
ハノー
ベートーヴェン
ピュ
合金
山川
左手
星座
グレード
元服
商社
番付
称え
さかい
キングス
ノーザン
##デンブルク
##ho
##els
公正
南口
娯楽
湖南
濃い
賜っ
lou
ルネサンス
##めん
中尉
休憩
八代
実父
諸語
##ットル
ムーア
叢
##イー
公団
家業
寺町
考察
##ゴラ
##ien
グー
食糧
##レーヌ
コーラ
食べ物
##ンジャーズ
クレーター
ソーシャル
ドキュメント
##ガモ
##スン
うし
内外
初等
動く
岩石
選び
マルタ
オンタリオ
帖
##アム
いん
小字
じけん
クリスタル
##トウ
rem
テンポ
トミー
いっぱい
ロジャー
無効
##ビット
崩御
聞こ
スタメン
婚姻
最盛
羽田
受け継い
ルイジアナ
さつ
坂井
屋内
絶え
静か
つくり
トレント
イカ
往来
重い
シクロ
没する
##ラマ
##ada
仲介
名目
我が
景勝
桑名
##換える
かわい
ポロ
共用
指令
村山
生駒
##落とし
溜
##わす
戊辰
赤軍
遊歩
java
ディヴィ
サブタイトル
枕
榊
導く
復旧
政友
管制
##ックル
パール
スーダン
可愛
系外
草津
##じゅつ
ラオス
ラック
申し出
高かっ
final
space
隕
##コロ
基調
無償
fil
エキス
尽くし
國學
長浜
大好き
カエ
並木
未明
補欠
pri
けんじ
正しく
ルドルフ
sw
ホン
星雲
神楽
見送
##ダウン
細かい
たくさん
##ギニア
国人
##デヒド
ベンチャー
##ナギ
##uck
北村
浙江
病理
グスタ
ビルマ
##がっこう
コンペティション
己
瀧
##がき
ケネ
ベテ
健一
定番
視察
調和
近似
マクド
アドレス
レジャー
人質
奪っ
書類
消息
移す
誤解
諸侯
加古川
パーティ
mp
上述
丹後
亜目
哲也
弾薬
形容
##ense
めぐっ
マツダ
宍
頁
##千代
娘役
有利
蔵人
軍艦
那珂
ベルク
高まっ
スキャン
フレンド
instit
company
高砂
くみあい
沸
av
救う
谷川
カセット
##早く
わん
オセ
ホウ
大寺
##ative
summer
天野
富岡
雌雄
##コード
##ナーレ
抱える
days
サラリー
ランダム
内包
回っ
日報
オット
ジェノ
アーカイ
##コミ
##ヤマ
子音
標的
賛成
趣旨
黒川
david
sports
紗
定か
必須
松前
賞賛
鉢
##つか
メリ
平塚
いこう
交わし
餅
ru
五男
役人
疎開
隔て
斯
ビア
体内
吉良
大學
投球
生誕
郷里
マウンテン
##しむ
yo
協賛
密接
略し
集約
フォート
stand
メロディー
転移
トール
マッカ
##aut
佳作
ロッキ
##サイクル
ウェーブ
トリック
テクノロジー
潰
つね
にし
其
隊員
たかし
見舞わ
アトラクション
##ナモ
奉仕
薄く
代用
割引
役目
本曲
水力
遡る
シュトラ
フィレンツェ
刷
嘆
ix
すご
中頃
コースト
シュトゥ
プロトコル
失脚
帽子
江南
現金
jose
パトリック
##ぼす
咲く
アリー
ウィキ
ブロー
##uction
entertain
##ng
##ham
自害
##ツジ
りく
勧請
城山
左京
クレー
ミシシッピ
屯
##集院
本文
mal
伊集院
festival
くぼ
イオ
小池
当寺
藤本
##ザース
pat
##タゴ
パパ
一線
演芸
畠山
##替える
サード
代々木
触れる
##テナンス
稜
コバ
目次
##ダスト
主翼
屋上
本数
紙幣
##ウォー
佐久間
sony
ブリテン
エルサレム
別荘
踊る
##press
姪
辺り
隕石
##hydro
##ニシ
##焼き
列挙
チェン
ニール
ヘルマン
辿
聖職
##ated
ナビゲ
上がり
ソフトボール
構える
##cd
##ロイ
信任
実兄
悩み
シング
亡くし
##キャップ
はま
六角
島内
養女
アルカ
アトリエ
office
##ゴス
エナ
初版
幸福
汽船
赤字
除外
##ラシア
way
チャーリー
##ボエ
感動
赤外
##モール
わから
行える
きわ
ふん
ノウ
帝京
棋戦
賃貸
##ティーノ
コリ
周回
図り
混血
赴い
ウォン
リール
フレーズ
##ゲス
##ハル
増し
有明
椎名
痛み
あげる
代わる
##ブレッド
アピール
塊
勝者
石見
郡上
ウェア
ギニア
いしかわ
偉大
大平
幕内
打席
歩い
真珠
##まね
本質
空母
那賀
##わしい
うどん
タバコ
バックス
オクラホマ
アトランティック
##yr
各駅
撃退
波長
海南
ドット
ハイデル
おじ
イヴ
一生
志賀
掌握
組む
花期
シーク
##フェンス
コーディネ
##テー
##小牧
##iko
くさ
産卵
ラファ
宇和島
苫小牧
society
##本松
あす
ベリ
聖母
##カーナ
アレン
メンテナンス
##つく
元治
クリストファー
シマ
ベオ
嘱託
平凡
落合
迫る
一新
吹田
国宝
塗り
要員
誇り
##エンヌ
ear
仕上げ
平山
目録
##osph
夏休み
ネイション
大成
小沢
日置
誘拐
バナナ
プロフェ
或
部数
インパ
ヒスパ
##よそ
万葉
伊那
演目
マスターズ
剥奪
山村
揃っ
##ガルト
上り線
style
サラブレッド
##va
円筒
包括
新宮
溶液
狩野
田川
雑貨
##ッケン
おおた
モーリス
##しめ
##チー
イザ
財閥
行き来
##ョー
くす
イグ
イマ
交配
傑作
干渉
新川
ステン
テトラ
下り線
ウォール
ラッセル
スタンフォード
##go
開戦
マクシ
サイバー
american
##タイプ
アライ
ルノー
牙
##ノミ
クス
ヤー
出撃
執っ
想像
民政
源泉
獲物
百科
赴き
阿南
##マール
モダン
決まる
いったん
##プー
ノア
転居
遭い
バファ
ふくしま
ネク
バタ
国政
六本木
ふくおか
science
檜
古賀
痕跡
頭角
arm
赤松
##リーブ
マート
ベテラン
引き起こし
雀
##が丘
##ヶ岳
ちら
儀礼
多項
運ぶ
カリウム
ギャング
俵
中南
向い
##チャル
##ッテン
state
ハイウェイ
廠
##ペイ
小浜
敦賀
結論
茨木
鋳造
鍋島
センサー
プエルトリコ
はや
保っ
恵那
栄誉
マキシ
おおよそ
ヒューマン
##com
クア
ルナ
尊敬
石狩
芳香
##ネグロ
カタール
ワークショップ
仁川
村立
林業
準州
石巻
西条
jra
ひかり
ゲームズ
スティーブ
櫛
カレ
徳間
東岸
hen
韻
##くう
##メラ
回答
国造
祖国
組曲
電信
デッド
zero
ボリビア
white
ストローク
entertainment
雍
廃藩
放置
流路
浪人
カルロ
サラリーマン
紺
##がれ
硬貨
しょうじ
オスカー
ホイール
股
##ery
##デート
ホーン
ラング
スカパー
##ボクシング
庇
##ガラ
増設
発作
駒澤
ビーム
##ファルツ
paul
リリーフ
イワ
原発
多賀
妖精
抽象
注い
防空
レモン
##フォンソ
引き上げ
アルベルト
ナー
空き
転任
預け
バルブ
パラメ
踏まえ
託
##ばす
投下
分ける
ドミニカ
17
気体
陰謀
順番
ボルチ
ヴュル
charles
国文
家電
裕福
ケーキ
ポピュラー
察
樽
酔
if
内定
戻さ
ひとみ
レーサー
サイレント
street
##ビロ
代役
##がたり
perf
コントラ
フランシスコ
かま
上空
主君
取れ
##メール
ポリス
せんしゅ
打ち切り
レンジャー
pi
フン
天王寺
携わり
やまもと
##カロ
同窓
援軍
昇叙
高台
やまだ
##ドス
##バダ
ob
ts
けど
激減
萩原
貨幣
green
james
##ぎり
戦功
歩く
かとう
ウォル
インストゥル
鼓
既婚
自伝
被告
こばやし
ボルチモア
オブジェクト
瑠
##ロニ
dl
ボヘ
利点
越冬
グライ
愛する
トレイン
ビタミン
##ヒル
##uss
かり
居士
左派
慶尚
謝罪
-』(
ult
ウォルター
檀
鮎
##らぎ
##ペス
とち
カミ
ベラ
上川
出自
参道
巡り
当事
ボロー
国分寺
free
ヨシ
挙兵
改宗
移築
迫っ
じろう
悩まさ
##じみ
##トス
クモ
高まり
##リンゲン
オーボエ
引っ越し
坐
究
ムラ
会い
召し
意欲
知多
車輌
ハイデルベルク
##越え
hy
作動
埴輪
小坂
志す
時折
落城
運び
テュー
マカオ
ケプラー
元町
公営
平城
##トゥス
##vice
home
〕
##ェン
いさ
カブ
マヤ
進展
##ホーム
trax
ハードル
ヒトラー
トキ
祭祀
##トラー
##アイレス
##ドキ
大工
仕立て
ジブ
免れ
福建
##ello
フェス
dist
##レナ
受講
地主
平壌
後見
dec
now
リフト
少なかっ
##スコンシン
##プテ
ヒュ
差異
建つ
顕微
##サール
兼ねる
year
ブエノス
加水
原爆
独身
jun
たかっ
シンシナ
ウィスコンシン
##之介
30
どん
乗る
凍結
嫌い
海抜
灌漑
織物
ダニー
ピック
組み立て
cross
モンテネグロ
##ney
新城
欠点
返り
##ideo
bir
アウェー
ラトビア
繰り広げる
叩き
喧嘩
斑紋
grand
上原
世子
全土
##unes
cat
sub
wil
バークレー
京極
人体
体格
分断
芥川
rom
クロード
パイレーツ
スケジュール
コク
兵役
岩国
川村
穀物
##ッツァ
##チカット
ヴュルテンベルク
·
##olf
白井
日テレ
town
##ざん
コリン
##ディーン
##ester
索
イタ
著述
詐欺
随筆
麻布
lim
sur
ケープ
ゴードン
カニ
ハイム
難しく
シンフォ
建て替え
アンソニー
シンシナティ
##ba
矮
伝導
但馬
##raph
旬
##ベス
優駿
八郎
曾孫
##ニール
三味
志向
概要
遠江
めぐり
ソルト
ひまわり
##オーリンズ
##めい
換算
数千
杉山
歯学
総括
道徳
##ーツク
サヴォ
ライアン
コネチカット
ニューオーリンズ
##だし
崩れ
##サリー
joseph
##80
せよ
損失
特任
陣営
##ling
##フォーク
租
図ら
売ら
怪物
藤岡
##ンドル
hol
コンポ
満たし
巌
かえ
待っ
最速
読ま
##ニアン
##ネーヴ
山林
新星
日韓
##ハーン
fir
ジェームス
カ月
中枢
体力
辞書
レオポ
##寄り
##返さ
入間
売店
row
ベルン
ブエノスアイレス
collection
諦
譚
めざ
乗馬
前漢
採ら
斜め
法案
磁場
計量
##アント
わかり
オリエ
ジャム
成し遂げ
##ステークス
da
全盛
岡村
校歌
ユニーク
##アイランド
〔
慧
千秋
国歌
土砂
新報
##リーニ
團
製菓
アトレ
コンチネ
シンセサイ
リバウンド
拉
浅い
移封
臨ん
##ella
ジョイ
##mo
小室
棄権
秩序
##ザード
アイン
キリン
日比谷
ものがたり
##ジロ
14
公主
夜行
天狗
成虫
武官
現し
転落
##ステン
バラエティー
インストゥルメンタル
幡
##モー
##リナ
##屋敷
客演
有罪
村長
溶解
dig
ドバイ
7000
ジュネーヴ
矯
使節
堀江
ペトロ
デュエット
county
ネス
久喜
経理
複線
##za
爬
##祭り
ho
各務
遼寧
階層
タイガー
エンタープライズ
蔡
##あげ
##グマ
添え
議院
越中
franc
ウィンター
なご
ぬま
新庄
祈り
蔵書
アストロ
タービン
プファルツ
é
ナノ
商用
大国
真相
碑文
##えもん
##オリンピック
ハードウェア
陝
##落ち
ルカ
畜産
バッファ
レパート
朔
若年
殴
##ニェ
中道
別人
惹か
小田急
アクティブ
礁
##ノム
##切れ
##rit
sl
ラマ
柵
##ドア
##ムズ
ol
和平
馬主
オルガ
##bc
##pm
ふり
プチ
公子
区立
委嘱
##mann
イース
ポートランド
貰
ハチ
回線
局所
陰陽
陶器
コンチネンタル
梗
クビ
ユタ
ワク
厚く
東大阪
おこなわ
##ざわ
##ズラ
脇役
誌上
##リーヌ
アワー
シラ
市議
賀茂
##ミュエル
セルゲイ
colle
レパートリー
内装
地層
築地
路上
養嗣
##ツキー
ファシ
マント
##ブルック
ウィング
フランクリン
稔
##ッホ
一行
合祀
生母
養護
高価
##フマン
cos
つなぐ
ダラス
緩やか
just
park
インフラ
チューリッヒ
シンセサイザー
γ
写像
可汗
大小
正平
淀川
田町
スズメ
ベオグラード
ホモ
所要
bal
さいとう
ケネディ
キャッシュ
撫
##おる
休暇
合宿
吉岡
徳山
特務
起動
ヲ
ログ
倒す
水族
決戦
燃え
発起
風味
hist
朋
##red
"。
元亀
占い
外伝
離党
きむら
繋がる
追い込ま
フリゲート
フランチャイズ
祠
##えて
##シマ
アエ
農協
##ique
フェイ
##バイバル
##erson
引き継ぐ
矛盾
##コック
##テージ
バース
浮かぶ
設ける
##ベックス
オールド
逓
##乗り
声明
尼子
福知
要職
貞享
bay
die
カッコ
ヨハネ
いろいろ
乗り換え
アップデート
##ja
##ンナ
カマ
文官
インテリア
庸
絆
##の丸
##囃子
平等
終着
賭け
適合
呼び名
ジョッキー
sam
人格
正当
門前
dm
ハラ
字体
支那
芦屋
馬車
ゴシック
##コウ
##仮名
友情
宣告
挟み
納め
増える
おこなう
あらかじめ
サミュエル
夭
杵
##ザル
##メス
オラ
スチ
三遊
共鳴
新居
江原
遂行
マディ
グスタフ
スタッド
フィット
sk
のぞ
上人
属名
mov
つとめる
ハドソン
便利
別当
収束
溶け
開場
##ルドバ
キプロス
ミッキー
##ぱら
カサ
初年
慕容
松阪
消失
綴り
里見
ユーラシア
チア
ヒン
以西
意義
dan
トーン
george
フェルナンド
##すい
分譲
奪還
奮闘
バリー
##リングス
party
中流
愛人
緯度
遺族
持ち主
そうごう
アンディ
バファローズ
レニングラード
牟
衡
##みん
めん
御前
清掃
青梅
抑える
福知山
立ち並
クエスト
elect
master
ボロ
両端
平戸
橋上
永田
自家
run
プロセッサ
##ヴル
##継ぎ
ナス
合法
対外
流体
環礁
裏面
nad
洋楽
狙う
version
ec
うめ
催さ
拡幅
発車
蒲生
ger
##クスピア
リモ
見習
飯塚
ディスコ
杖
翅
池上
##モンズ
幌
爬虫
縦貫
進入
遠ざ
エドゥ
ミハイル
折り返し
##ヨー
弘仁
製法
親戚
警告
豊前
##ゴット
400
ショーン
屏
会談
回想
溶媒
転送
間接
##フスキ
スワローズ
コンスタンティ
荊
##ユー
アユ
太宰
射殺
ミルク
生える
セネガル
台中
遠隔
難易
##アウト
あふ
光沢
美作
##ンバラ
いじめ
マルク
long
ギュ
承和
首脳
##コット
##テール
pan
カレンダー
ジェイムズ
小西
立方
脅威
yah
クリミア
睡
あべ
膨大
ノール
deep
アルフレッド
北川
水質
知人
硝酸
##ダール
あいち
同族
散歩
アポロ
child
デリ
ユリ
基底
打数
拓殖
放つ
foot
ジェーン
アルバート
伐
アガ
カツ
大木
常盤
慶安
拝謁
採っ
車道
リンパ
みえ
サハ
大火
好ま
拡散
魔術
増強
急逝
狩り
war
モナコ
アンダーソン
助成
さよ
利便
喜び
視野
掲げる
マシュー
コメディアン
—
下田
専業
meth
ハノーファー
レンジャーズ
##iversary
吏
##its
正則
産ん
細く
しげる
オーガ
パルス
##,2
升
あず
マテ
低温
工兵
模索
浅間
薬局
褒章
##メンテ
1,2
gold
ほうじん
video
チャイルド
メイキング
ヴェルディ
妥
動機
擁護
算出
"("
はやし
happy
##iki
アヤ
片山
org
plus
アクター
ケベック
ジョゼフ
engine
dehydro
anniversary
セク
勧告
アヴェ
分から
##ウマ
##vin
古事
塩素
学派
枚方
白亜
ウォーカー
ディヴィジョン
kb
発令
青島
みずほ
ハンドル
ウェスタン
立案
谷口
楽しみ
##アメリカ
モノレール
ムル
化成
含有
登る
補償
頓
##通し
しめ
たば
サビ
付随
厚木
溶岩
素子
若き
##ional
ちょっと
システムズ
唇
組長
聴取
集計
##ón
全勝
同義
重用
香取
vir
ホステル
世襲
入試
容姿
田畑
隆盛
キャサ
amaz
ニコラス
##ッショナル
##ペー
思考
文人
発案
金賞
##延び
jud
コック
取り除
ランナー
一面
望ん
通販
飛ぶ
館内
get
("")
アルカリ
##ごろ
##ギリ
テラ
柳川
準拠
スラヴ
##ensis
{
雛
始発
領し
センス
ボローニャ
##わう
信玄
南山
意志
発現
配達
cast
ドジャース
撰
##津川
ポケ
下水
対談
軟式
spe
レイア
明かし
lang
増田
川西
長江
hot
ふじわら
本物
満ち
醍醐
##ルスク
##ンドロ
##ison
フッ化
ミッチ
angel
モト
本島
法定
落葉
連敗
div
差し替え
##ぐり
##バオ
##ベロ
##iew
刑法
前頭
吊り
武者
神明
##ゴロド
##ダード
見かけ
publ
きょうぎ
シェイクスピア
潟
かご
混在
ナムコ
アンソロジー
エディンバラ
プリンストン
##ha
〇
主権
告発
城壁
納入
蓄積
初心
幕僚
白泉
苦労
連立
##ッラー
見出さ
##チコ
##広島
##返り
上司
上水
投獄
新書
葉柄
シール
ナイフ
ニーズ
itunes
山上
豊中
遠い
開港
エミー
岸和田
オリンピ
thomas
##ci
寂
##タケ
ak
シネ
控訴
樋口
##ポリタン
仔
##ロワ
なに
初名
格納
棋院
清和
藤枝
遺言
##プライ
##スタリング
ドラえもん
##ッレ
##合わ
##aya
ジロ
予言
元文
商務
梗塞
美し
逃走
rowspan
kn
タコ
主軸
光緒
指向
##フェクト
phone
テクニカル
フランチェ
嘘
##アリ
ドレ
出兵
書簡
末端
汎用
皇女
要衝
##ange
間違い
##こん
--
べつ
カバ
ロブ
土産
幽霊
炎症
総局
執り行
美しく
党派
秀樹
貯蔵
arch
まつだ
ダイナミ
スライダー
ユニバース
エイベックス
一流
中立
城南
晴れ
横田
##タリー
狐
##ニヤ
##eng
ぐる
戸塚
ローラ
もっぱら
サミット
巧み
柔軟
転戦
##レーナ
ミリオン
アクセント
ファイター
有無
返上
駅員
アタック
richard
匡
##lin
ひき
講和
メッツ
直ちに
サタデー
サーバー
見つける
用地
長田
##キシン
##リエン
アンチ
ギャル
サンゴ
ノック
fire
ウォーク
トロフィー
かげ
下っ
伽藍
尊氏
新党
渡来
胞子
霧島
luc
アディ
桶
汁
##タリ
しち
やら
一見
下げ
九条
宗像
横手
機雷
津島
男児
製鋼
チュニジア
上尾
右京
突撃
クロム
ヒンド
連なる
ストレス
ボヘミア
yahoo
アンコール
##レーティング
##なみ
##井沢
オズ
原点
同郷
摩擦
adv
ライス
幼馴染
ものまね
皿
##きょ
##相撲
しな
もて
事変
年長
病没
警官
ドック
おはよう
♪
kr
使え
対話
月組
破る
食物
##クトン
##ットン
##ラール
マザー
勝山
名作
電荷
こころ
ジーン
キャッツ
##サキ
こま
低木
共学
受注
有用
須賀
いたる
##コフスキー
オーシャン
クラッシュ
bu
大作
恵比
愛宕
無罪
矯正
筑前
##グナー
##ンガル
ケント
瀋
一派
交戦
坂上
孤独
柏原
次期
煙突
観賞
squ
ランス
リック
三遊亭
軽井沢
タス
意匠
日没
篠原
麻呂
なくし
デイヴィス
愚
万国
同母
天竜
割れ
南町
団長
国司
線型
last
フライト
es
ツィ
常緑
ゃく
出航
打つ
暴走
粘土
緊張
門司
ウォーズ
オリーブ
スミ
健全
切る
口腔
小平
抱く
滝川
犯行
花組
##ript
ノイズ
ホース
マーチ
モンタ
カルチョ
パブリック
リーディング
δ
榴
烈
##いく
地裁
山々
経典
##ヴォル
のぼる
貧しい
batt
exile
ゴルファー
ジョルジュ
十勝
略号
知れ
議事
開会
##ッシブ
cir
クック
##ブー
##ste
北岸
南岸
弾頭
松永
野戦
##スティン
drag
シュトラウス
メリーランド
査
##下ろ
明王
絶賛
lab
繋がり
コスモス
プロフェッショナル
ずれ
制式
寿司
日吉
道道
ヨルダン
喬
官吏
洋子
肝臓
金星
##バレー
##ring
rac
おんな
4000
レポーター
前進
##レイク
エクア
落ちる
##ゴーニュ
ステッカー
汐
畔
島々
断片
高圧
right
アーキテク
オペレーティング
$
窮
酪
コイ
本丸
##カール
ソマリア
受け取っ
##ットガルト
キャサリン
##ベリ
必殺
省庁
観世
春日井
せんもん
カウンセ
サーカス
パラグアイ
按
##がけ
##押し
カフ
クィ
ハヤ
下町
備後
単身
式部
弾道
有る
甲賀
##りゅう
##ングラ
途絶え
オアシス
##めき
可決
吉村
嗣子
従属
怪談
慣習
根岸
至り
くえん
たどり
穏やか
允
##河内
##ani
##iba
ラド
八百
啓蒙
推挙
本稿
物件
##チックス
睦
二条
届か
改定
競う
軍務
謹
##こし
ウマ
和音
英米
##デール
バター
果たせ
イェール
ディーン
デラックス
一括
冷凍
原宿
茶道
##レクト
##ette
ダイナ
むね
五島
民法
##ローナ
サンプ
スクラ
ハープ
恥
眉
リグ
封印
搬送
特例
##バンス
オーダー
ナッシュ
##ウォーキー
マクドナルド
体型
破損
長者
ハンデ
テクニック
ミルウォーキー
キックボクシング
只
##oug
いの
安曇
岩田
明瞭
正解
さよなら
commun
歪
##かみ
##テラ
つち
みせ
ゼン
円錐
勘定
aut
立てる
キャロル
store
摘
##でん
入国
各局
対面
番外
登頂
砲塔
終日
負荷
軽い
教職員
はじめる
ホームタウン
##án
ウシ
ルク
卵形
接収
老中
逓信
##デシュ
ext
ヒルズ
マネー
ネイションズ
六甲
実権
東名
火薬
童謡
縁起
落成
釜石
トマト
ロワール
けんきゅう
取り上げる
苑
よみ
キラ
優位
宇多
本流
バーナ
##セックス
acid
デビッド
##olution
dehydrogenase
嬢
すう
大町
学期
競泳
貫通
##ムント
シャイ
シティー
回る
成城
降車
カイロ
レバー
##ージナル
camp
ぜんこく
##str
##ストル
jul
##ンジョン
コンプレックス
##はま
##利き
##ret
型式
天地
暴行
東邦
阿武
##アール
しみず
分かり
carl
cont
##arm
果物
イット
メモリアル
##もそ
出番
聞か
##マーレ
dri
eye
セリフ
ヒート
ピュー
アントン
タイミング
馳
##ser
こっ
回帰
掛川
色素
離陸
but
cam
フェデ
ブース
andre
セレクション
edition
##うら
マナ
希少
復員
撮り
本庁
沢田
農産
飽和
リビア
減らし
##ニエンス
alexand
略さ
高額
##eder
swe
シリン
##ブリエル
glob
ネルソン
ハイブリ
##ナンシャル
フィッシュ
##っ子
岩井
明記
直樹
近所
オスロ
island
service
穆
ゆい
ドニ
反面
唐代
国々
推し
景気
甲州
##カーズ
##ータン
コンビニエンス
台数
山県
say
カメル
親しく
堪
雁
修業
冷戦
掘削
説い
##もそも
##プラノ
##adem
改める
そもそも
エリート
ファンド
マルティ
モノクロ
ドレスデン
シュトゥットガルト
埠
詔
リフ
主戦
保つ
千種
四角
我々
開口
セーヌ
振る舞
フォーム
孵
##ツク
sa
岩波
村社
見出し
ディスカ
ジョヴァン
mb
付録
bell
パーソナル
フィッシャー
却
##じょ
奔走
提言
田口
hum
mob
ロスト
悲しみ
ソロモン
##ヴリ
同区
表情
遠山
遷移
長兄
魔王
##ソール
トゥル
##ゲームス
しずおか
キルギス
##もっ
ur
工法
応え
星組
##||||
##ジェスト
##スタンス
フレッシュ
わら
アズ
ガム
左打
縦断
脊椎
遮断
##ダース
手伝い
捻
テュ
反響
後続
艦船
カブス
倣
##払い
おし
丹羽
光明
処罰
大介
大隅
紫色
総統
電報
麻痺
デニス
アラバマ
イースタン
##ボス
小石
##ティウス
さらなる
やき
庶子
用法
進軍
leg
バッグ
名高い
スパイク
まちづくり
淮
##回し
中興
別称
北山
大通り
##ori
eh
前衛
吉備
紡績
連想
##ージョ
一夜
多田
悪役
愛国
暴動
水谷
生後
疑惑
##キスト
##デンス
あだ名
アミン
アカウント
潔
同位
握っ
助ける
秋葉原
イヴァン
アゲ
催し
大船
広め
ヴィオラ
##キス
##ats
かさ
有り
陝西
set
ノット
コンコース
##bl
濁
臓
大道
能楽
請け
ジャワ
ロビー
弔
元就
日田
減っ
無色
")、
ディープ
pride
スターリン
スローガン
##べつ
しつ
元首
直列
bra
##シュヴァ
##ッティン
##ニッシュ
下北
信越
気味
粉末
貯水
起因
鉄鋼
雪組
がかっ
カンタ
##見沢
両手
作物
及ば
家光
教材
祈祷
筒井
インデ
ツリー
スライド
セロ
勅令
原動
夕張
延享
突出
苦手
##シアン
よしだ
ベルガモ
フィリーズ
##ズス
ハブ
虐待
部署
阿久
ジョナ
##irect
フェルディナント
えび
だし
岡部
挑ん
枢密
積載
網走
##サック
tim
ゅうおう
リスボン
噛
lu
パワ
収納
心配
絵柄
茶色
関白
##エール
##パニョ
ハリケ
ブール
##トラック
come
豫
##ます
##チク
ネン
ミツ
下さ
井伊
体積
名神
政宗
混成
衣服
##ゲナーゼ
カージナル
series
わだ
亜鉛
大門
奥羽
布教
東町
##ection
砕
mc
わき
シノ
鳥栖
アット
ティア
バーミ
ロドリ
きわめて
メトロポリタン
曖
すえ
クオ
主計
諮問
ポテン
プログレ
la
国名
月間
本誌
決着
負債
グルー
マヌエル
##gy
##薔薇
出題
崩し
抹消
曖昧
独学
職場
藩校
通知
bit
##ッチャー
##,5
##pp
嚢
学業
意気
担い
望月
次回
特権
生家
砲撃
長島
4,5
ひろみ
ガーナ
ティル
ひょうご
フィリップス
リヴァプール
アスレチックス
嗜
##ope
##ugh
にん
シオ
土井
埠頭
射程
没落
渋川
相応
スマイル
リンカーン
笑顔
融資
##ニバル
いばら
フルーツ
亡くなり
ボウリング
フロンティア
college
##育て
##ump
一斉
同書
##ウェン
cla
ウィズ
##ガスカル
チャージ
ジェイソン
捷
仏像
南陽
極め
砲弾
近傍
プラグ
支払う
キャピタル
マルティン
ザルツブルク
##ios
上る
支庁
新制
適正
##カルド
##ノイド
"")
先立っ
合わせる
トスカーナ
紐
##句麗
吉原
大黒
少輔
静脈
駐留
##ッチン
##ティコ
jct
スタイ
勝ち点
細長く
高句麗
##ブルドン
溺
##ミナ
ミク
大別
新道
深海
照射
発想
要し
エイト
ペリー
さかのぼ
カージナルス
渚
銚
##って
-(
他国
分配
rel
ボルト
マキノ
ヴィー
取り壊さ
マダガスカル
匿
ユン
勇気
焼い
知能
神父
連星
ネック
取り消
プロペラ
ヒスパニック
桟
駄
bp
クン
タジ
七尾
治め
行か
金色
##ブリー
重ねる
dance
##ビオ
南高
外さ
寺田
爆破
ファラ
マルセイ
はり
分社
失踪
好調
宿禰
歌声
身近
輝き
速い
ジュース
track
仇
##500
スム
マッ
常時
ロート
数える
ゆっくり
##やき
##ets
他方
垂れ
安徽
新進
水害
血圧
##のうえ
##チェル
##ッペン
アルマ
ミクロ
メリット
グレゴリオ
凸
巫
パク
器官
##cess
ワーズ
アンケート
クリニック
レイアウト
##ume
付着
対局
本科
習い
静止
jac
カーネ
フライング
ハイブリッド
ブルゴーニュ
徽
##バリ
なぞ
完封
経っ
通報
##シアム
くまもと
城代
基板
大物
年上
手順
追撃
##アルト
##バンド
ham
こんな
エクアドル
冥
##カム
吉祥
多重
断っ
江西
長子
プレゼン
名勝
愛さ
田代
直立
陽性
##シオナル
プラットホーム
夷
四条
歌集
生田
##リッド
マニラ
モリス
##クティブ
##ister
いのうえ
ウィンブルドン
##カミ
九十
事象
大倉
旧約
正三
苗字
hel
ワルツ
いきなり
ライフル
麹
あわ
パプ
久慈
譲る
コンタ
育てる
アミューズメント
institute
修め
半身
啓発
役柄
神崎
シュヴァ
壺
リカ
万博
単線
解答
##ヴナ
位階
great
カウンター
アルビレックス
泡
葺
##ムル
寄席
税務
貸切
かたち
カジノ
スキル
ハプス
イスタン
カメルーン
ダウンタウン
裾
すき
サヨ
セビ
処置
就き
準じ
語派
キッド
##ーザ
##返っ
ムン
宇野
岩倉
本所
alf
テリー
ナイル
トータル
##じり
ウリ
栄町
適当
響き
##イオス
スワン
##っぱ
あけ
両面
大宝
大館
孤児
宗派
延岡
沿革
海部
熱田
sat
カテゴリ
first
スノーボード
治水
通話
##ーマル
大牟田
##ペディア
ダッシュ
作り上げ
north
ねこ
守山
小柄
東中
狙い
team
ダメージ
ガブリエル
##サム
モラ
生殖
踏ん
##ショー
やなぎ
各務原
##メーション
##多摩
同大
対比
従弟
負い
##リーノ
エイジ
レンガ
嬉
##ぶし
うか
サリ
公用
受付
密か
庇護
次ぎ
決断
福原
秋元
鉄砲
ウサギ
ニース
トランプ
罹
ペリ
交友
性別
経費
複葉
高倉
バックアップ
馮
##我部
だら
厚い
商売
導き
産経
銚子
飾ら
ジミー
しっかり
巻き起こ
ワーキング
學
梵
なぎ
三和
小金
略奪
神仏
遅い
ルーシ
ハプスブルク
タク
上山
新発
船長
フォア
##azine
jean
取り戻し
ピクチャーズ
##しぎ
##ダラ
奪う
救命
##ぐるみ
フィア
マスト
殷
カヤ
大差
県営
科長
軍医
部員
ケルト
down
蟹
##強い
在来
残せ
犯し
転倒
##カップ
##ビッチ
##ベスト
##ワンダ
纏
##亡人
##討ち
##ida
中井
壬生
孵化
根室
防護
エアロ
未亡人
尉
共生
卵生
因幡
大邱
曲名
正保
練り
かおり
フック
story
揮
##ろく
##lad
天和
干拓
新社
生時
鍛冶
##パイア
fut
ビクトリア
nm
反撃
台本
図形
改変
気動
流星
省令
立た
ヘルス
album
インパクト
アルフォンソ
##モト
完走
スクリ
子育て
おかやま
ティーン
一大
会っ
温帯
##ネスト
ネバダ
セクター
##10
##ami
ギブ
北原
和尚
巨星
激怒
直訳
諸葛
長久
##onic
ランカ
細かく
オセアニア
鄧
カ所
二宮
廉価
揺れ
inv
パウロ
リュウ
gard
amazon
バッファロー
撤回
海面
ディフェンス
##さま
##cle
オウ
似る
強烈
義経
負う
エグゼ
トカゲ
ヴィラ
そろ
イロ
コソ
噴出
多種
色々
銘打
##ブック
##シリーズ
more
イスタンブール
インタフェース
かれ
半田
同州
同町
日出
星団
時々
篠山
レット
##une
主砲
入道
台南
坂田
大理
桐朋
狭山
納税
除け
arc
アブラ
メロン
##ターニュ
まつもと
マルセイユ
##ぼん
##ラブ
エタ
バチ
係る
川原
漏れ
筆名
聴く
##idge
rpg
トレン
##らっ
おだ
てれ
塩田
墨田
変種
数理
文教
秀忠
ショパン
モニター
蜜
螺
##ova
ゆみ
占拠
散乱
新橋
稼動
聖徳
陶芸
ゲリラ
昇級
産物
観覧
集結
##ガリー
##ザンヌ
##ythm
なごや
教え子
新発田
サスペン
吟
噺
##シド
エト
カネ
コフ
安房
平氏
聖歌
エッジ
ください
レインボー
煉
##マツ
ノリ
ピル
吉井
打た
普請
武徳
隠岐
飼い
フェルト
賄
##タム
すり
伯耆
侵害
安達
未知
躍進
nic
大相撲
橙
諜
##コタ
##ゴリ
##早川
ギン
レガ
化し
各所
嫁い
激化
蛍光
##っぽろ
##ware
cle
モンド
恵比寿
ii
中書
文脈
服装
監察
アクト
乗り場
鮮やか
##バスティ
ぺ
遍
##ぬき
##ミオ
侍郎
常侍
急増
養殖
##トゥー
mol
##antis
アルブレ
プラント
メドレー
##ルンベルク
サバ
入江
制圧
崇拝
心身
施策
血統
遂に
阿賀
##elle
two
vis
小早川
##ばな
ヘビ
聖地
##シャス
bon
きよし
ガリア
中津川
デマンド
##ury
タウ
旧来
無機
睡眠
義理
苦戦
覆う
##ocal
アステ
ウイグル
ホリプロ
レーニン
いざ
上っ
兵部
分光
庶流
待つ
断面
馴染
黒竜
##セデス
バッド
ヒント
リチウム
氾
うさ
そら
ナミ
北斗
右派
応答
操業
湿原
酒田
シエラ
ヒンドゥー
ダイジェスト
##oro
結社
クウェ
終える
セーラー
ハイパー
united
梓
##クイ
wr
大宰
山門
推力
明朝
街路
鋭い
音色
##ルドー
##ious
##earch
さっぽろ
もたらさ
フォレスト
##gin
ピリ
ルン
港町
番頭
着目
自走
頼っ
##ちらん
etc
roy
いすゞ
ホープ
real
コメンテ
peter
ロースター
ブランデンブルク
彭
憎
##テロ
イケ
カシ
半減
宮田
忠清
給与
転職
##バーズ
ベック
muse
ジョアン
スイート
つぐ
密集
小姓
待遇
羽根
鋸歯
麻衣
##メト
拒絶
水原
登用
連座
音節
風刺
アクセ
チャップ
キログラム
コメンテーター
フランチェスコ
##にち
##ねん
##キナ
大岡
方角
榴弾
竜王
精製
羽島
ハイチ
road
ましょう
諭
##ギャ
3,
一夫
名取
##フィル
レター
サンプル
セクション
##の内
イド
分化
副題
壁画
都会
##ティヴ
3,4
増やす
黄色い
シャーロット
毘
##パニ
愛情
脱走
aud
八千代
引き受け
##by
鈍
ラビ
上面
何者
俗称
傾倒
同党
補任
##メチル
ブレイン
生まれ育
クリスティアン
坑
##エリ
ワト
充て
参詣
足り
##キウス
##ジスト
##ミッド
gal
ワット
##ティアゴ
コスプレ
リマスター
}
##ナダ
北北
宮司
崇敬
狙撃
補充
ガンバ
エッセイスト
四股
失格
平衡
文帝
死別
載っ
##ぶろう
cur
dep
kar
目覚め
##ograph
direct
ビルディング
football
##ツネ
兵力
志村
諜報
##レッタ
おかげ
スチュ
ドナウ
ヨット
バルカン
盛り込ま
たに
武力
画風
稲垣
選任
養育
dam
イアン
prem
research
##ワナ
なだ
マヨ
威力
康熙
廃刊
jos
ニトロ
ミラン
ロイス
ロッド
五十嵐
エディション
general
##いき
最短
漢方
賛同
media
ジョヴァンニ
蒋
##りん
##若松
予科
異色
硫化
遭難
離島
インク
サルデ
会津若松
スターダスト
此
らい
マタ
公方
史実
奥田
桑原
点数
片方
舞踏
達也
隙間
##ッピー
law
wal
オキシ
クイン
サリー
here
ジャングル
メルセデス
ディビシオン
蘆
##ロア
リブ
仕方
依然
##どころ
let
##じて
##モフ
多角
時事
潜入
甘い
遅延
たばこ
ドリー
伊勢崎
##リアーズ
竪
シダ
ダス
合わ
寵愛
気分
空海
衰え
陥り
クレア
##サイタル
##ナンデス
スケッチ
サルデーニャ
ニュルンベルク
壽
##たる
上梓
強め
流す
院内
pier
アマゾン
ファイナリスト
インストラクター
デカ
マシ
後裔
成都
拓跋
本宮
祭典
重工
サンスク
セクシー
ラッパー
##ばる
久々
侍中
北宋
培養
多治
安心
##ゴール
調べる
アルペン
カプセル
シックス
トゥール
トロンボーン
サンスクリット
ゆか
チオ
死に
深谷
登り
##レンツ
チェリー
エスパニョ
ブルターニュ
マスタリング
新約
時空
歩き
母艦
破棄
糖尿
##トゥール
ファイン
\
##ady
北周
弘法
暗黒
歩み
##メンス
親しみ
アフター
ハングル
presents
##スキ
##フー
お前
ミヤ
ユキ
伐採
信夫
充電
即興
弁当
水島
留め
隆起
黎明
kad
テラス
アラゴン
リサイタル
##pa
詮
くわ
むつ
下顎
放浪
新編
疑わ
絶望
補完
連作
cra
アルテ
止まり
こういち
ダウ
問う
寸前
小豆
年鑑
文筆
神秘
踏む
##ードル
ヘキサ
にいがた
クレーン
プラチナ
汝
##トバ
##メド
ハビ
厳格
気仙
##ルツァ
エヴァ
鞭
##ぐら
下向
国軍
戦記
手数
森山
見込み
返り咲
##ating
##ental
バングラ
ユーモア
バーチャル
##jo
伺
##そり
レズ
丸亀
実録
宿主
狭隘
隔週
caf
パウル
##ティーナ
land
アンゴラ
europe
magazine
下る
憲兵
翌週
臓器
迎撃
造詣
##vers
つくっ
unic
サヨナラ
生み出す
サンティアゴ
サスペンション
不調
後身
浦安
野々
録画
##グラン
いわて
トラス
フレー
優しい
body
楯
##ィー
ぐう
両社
大日
宇文
来場
汽車
熱海
笑っ
諫早
##ッジョ
日帰り
クローズ
ネクスト
塵
受勲
国学
文治
直下
謀反
関口
すすめ
ヤクザ
##インター
ストラス
パラメータ
素晴らしい
榛
##みつ
単装
絡み
語彙
霊園
飲む
##バータ
キノコ
マグネ
見立て
##ッカーズ
トリビュー
pm
ウッ
医院
客船
課税
##burg
ベビー
レノン
広げる
アブドゥ
ピレ
北斉
戦災
決済
蒲田
調子
いかに
つなぎ
渡り歩
ニッケル
疫
ミキ
火事
龍谷
##ローグ
或いは
見受け
錬
鰭
在外
接合
演義
砂浜
##ワース
ast
タカラ
##アルプス
ニュートン
##gg
##hem
ゴミ
勇者
大泉
帰属
ことば
入れ替
this
キャンベル
妄
イナ
帝政
氾濫
爆笑
男役
軽く
##フライ
アトラス
ハンマー
##hr
##セー
坂東
氏名
花崗
遭っ
ガルフ
ノード
インカレ
アルブレヒト
賦
##えい
ゆず
公言
四肢
圧勝
女児
流動
かがく
タール
持ち味
皇太后
苦しみ
ダブリン
割っ
奉公
官庁
水沢
アサヒ
黒竜江
マフィア
カウンティ
一座
代打
全仏
天武
娘婿
戸籍
田島
町制
薔薇
遠州
##リスタ
hor
アッシ
投げる
モーション
アザ
上層
加納
国士
夕刊
巡航
徴兵
戴冠
請負
non
カラス
##フェルト
ディナモ
マニュアル
##ッセルドルフ
亡き
京橋
撃沈
直人
買わ
長井
立ち上げる
ナビゲーター
##伝え
松村
甲殻
##ロース
この世
マッサ
##ンドルフ
train
凹
##ミド
下級
揚げ
角田
mont
plan
カンピオ
クーパー
##ゼーション
break
speed
##ür
##降り
##高田
ns
湧水
群島
飛躍
##ニョン
##ular
##マックス
10000
every
ウミ
特設
私有
##プチド
are
リーフ
コミカル
ジャンボ
ストリーム
ディストリ
某
胚
霜
セブ
同点
国章
早々
早大
海中
興し
複製
配位
青銅
##テマラ
##ッティング
##ude
ボケ
川田
置県
jack
なくなり
飛び出し
△
##ido
可動
囚人
塩谷
襲い
コープ
パット
メイト
ゲルマン
##リケ
ゼル
相生
調味
アレル
ロックン
しょうぼう
アーカイブ
伝来
壱岐
安井
待機
拉致
美学
聴覚
西軍
退け
随時
飛翔
##イスター
ピラミッド
friend
険
##エヌ
一転
感銘
試料
log
逃れる
バーミンガム
膳
##レフ
ツル
変奏
##ドッグ
##パード
ギャン
ケーニ
シルク
ディン
ワゴン
逃げる
vict
##40
ァ
赦
化け
城郭
太刀
奇数
旋回
本陣
荒井
菅野
退治
##レルモ
にくく
イエズス
メモリー
ラファエル
アムトラック
大胆
安中
##isch
ゲオル
シリアル
ヴェスト
漸
##ベア
ta
十郎
大勢
恒例
祭礼
罰金
##ヴン
オホ
工具
最期
杉本
製鐵
降級
陶磁
鴨川
afc
アントワ
##ations
river
亨
##ベー
上限
整え
結党
ダイビング
dragon
アーキテクチャ
●
塞
肘
分枝
念願
文武
気球
返し
ルビー
cass
##df
##oe
罷
##ベラ
##oid
つづ
ザル
山野
提督
若葉
じどう
##バスティアン
オースティン
恨
鐵
##びれ
##ヨシ
##uki
公論
北家
原曲
白く
自信
##ific
##フェリー
ジュール
カンピオナート
##プタ
わし
合う
未遂
湖沼
萌え
諡号
講道
##atic
クロロ
コンプ
抜ける
##かえ
京城
切符
貼り
ミゲル
オークス
キューブ
メカニズム
##しり
ブタ
不法
前部
廃城
弱く
##あわせ
##テーヌ
アーノ
ダール
浴びる
アスリート
グアテマラ
##ов
嵩
閃
##持つ
##行き
増築
左投
抱卵
本能
献呈
討死
農耕
pad
りょく
クラシ
ムアン
リアス
レック
十和田
mill
はじまり
コバルト
エレクトロニクス
##ty
匂
##づか
##ゲー
奥村
少量
臨む
配分
隼人
##デレラ
ジュラ
格付け
アイアン
##li
##my
##ぶり
ふと
勝率
叔母
埋立
明智
格好
汲む
肥料
芝生
解像
運休
##イルズ
tor
ノヴァ
ボトル
ラット
動かす
インフォ
クリーク
スタント
玖
原町
回し
待避
明星
襲っ
越谷
重慶
mad
シェフ
スピーカー
克服
封ぜ
西欧
討論
過酷
たとえ
##ストリー
バーゼル
ラツィオ
暑
##つう
##ops
夭折
尾上
##aven
dom
セール
anim
おもちゃ
デパート
db
やむ
ジグ
入幕
別所
別途
ガンマ
立ち向
ハイドン
anton
シュミット
マリナーズ
キャスティング
渤
##xyl
kl
ra
名護
日展
##カライズ
sweet
クイーンズランド
拷
2、
ばく
もろ
ペレ
命中
張っ
感度
榊原
附近
コソボ
ブラス
カリキュ
ソニック
ehess
ブイ
伝送
対潜
広西
果樹
育児
農薬
飛来
そちら
タンゴ
##ウィック
タックル
ブリーダーズ
礎
つぼ
副官
廃寺
慈善
拷問
有線
水辺
決算
浮き
漁師
遊ぶ
配合
電停
##まつり
ライド
ベンジャ
ペンギン
渉
兵員
峡谷
請け負
コマルカ
リットル
送り出し
コンポーネ
エスカレーター
##どっ
##ぼさ
##cus
##day
イネ
同種
念仏
有害
渤海
調布
風習
syn
ひばり
ジェル
##シャイン
ワクチン
アドバイス
クウェート
ギャラクシー
縛
齋
##ジボ
##タカ
fu
トク
合間
外し
宮沢
曽根
赤城
顔面
sug
まるで
feel
キャット
パーカー
lantis
鎧
享和
包ま
区長
叙勲
大竹
海側
長身
降る
切り離
ウインド
ウガンダ
無くなっ
きょうどう
##語り
di
店頭
本船
能代
脚色
都営
配し
院殿
隠さ
##キュア
sym
モーリ
転じる
##ellow
##カロライナ
會
肯
任せ
光度
敢行
現道
馬術
##ンジン
##分ける
ポケモン
##zz
##ヤル
##更津
いそ
なで
リル
押す
ミール
レジェ
木更津
icoca
嶽
筐
##奈子
誓い
諦め
豪雨
郷社
##クロス
取り囲
コンビニ
取り戻す
ステンレス
バングラデシュ
綺
##メー
兵衛
分水
年貢
心筋
蒸留
謙信
##ヌール
サントス
譲り受け
##ミッション
ヴィジュアル
榎本
清代
痛め
移入
続行
美穂
耕作
gun
ros
はさん
キール
aust
たまたま
チェルシー
中腹
事柄
名字
好意
容積
屋台
種族
耶律
街区
隔月
##ッチャ
かねて
オウム
ルパン
蜂須賀
ファイア
ペーター
##えき
ce
スネ
並列
再戦
慣例
桓武
若林
##ザック
##シュト
##ベルタ
カント
ソプラノ
プラズマ
台場
松崎
裏側
親方
退場
おもな
夜明け
ノルマンディー
鍼
##はや
ナチ
季刊
宝亀
昇段
簡素
露天
駐日
あきた
くさい
オリオ
リザー
上回っ
ther
クリントン
カリキュラム
ビュ
瀋陽
町民
細工
レイズ
更なる
##ティーン
ツインズ
fried
ベンジャミン
インディアンス
サウスカロライナ
于
肇
##ごく
イト
ピョ
共済
反し
呈し
城西
大祭
年中
発光
cin
たかお
怖
汪
イシ
乃木
同定
商法
尊重
愛子
油田
素数
軍政
飛車
ゲノム
ともなっ
モットー
リポート
earth
osaka
ロビンソン
葦
##殺し
びわ
亀井
水着
漬け
父方
石山
竹中
芳文
調印
邦楽
開祖
開閉
ひゃく
スラン
タイル
岩見沢
グラスゴー
フィーチャー
煎
とみ
岩槻
歓迎
清末
高瀬
##star
ボリス
滑らか
ソリスト
apple
##ザイ
人称
助役
日時
眼鏡
素人
身延
高円
##ガング
##ッショ
ゆたか
モニュ
ラーマ
著しい
いばらき
ジャガー
スティーブン
叛
sn
せっ
総社
順天
かずお
##ヴゴロド
ジェイズ
楢
##れい
##och
かめ
不況
之助
揚陸
校内
洗浄
短篇
試薬
譜代
龍造
##タナベ
みらい
カシオ
マッド
柔らか
##dr
三沢
去る
収監
因み
太宗
換装
貫く
##ディオン
買い取り
flash
翠
メト
他界
健二
切腹
安東
富ん
攻勢
極真
美味
胸部
開墾
##オキシ
あえて
∞
ju
一望
吸血
放火
泣き
被爆
豆腐
クロン
moon
移り住ん
コートジボ
ジュリアン
ブラザース
壇
むす
やさ
モハ
白金
立正
聴き
説話
開削
クリーン
生き残っ
ウィキペディア
エカ
使徒
元祖
全車
冬期
堀田
安楽
桃園
生計
用水
農園
##ファル
エミール
voice
チャーター
ミッチェル
錫
##之内
##ily
##ree
イモ
キク
学力
白馬
筐体
##ビーク
aug
ダコタ
ニャン
##メディア
こだわり
アセチル
ベンガル
マクシミ
キャンディ
フランケン
アソシエーション
##wa
オロ
両岸
存命
規約
ロケッツ
##ission
アンドレイ
ウィンドウ
rhythm
##べり
##カワ
ht
かぜ
更生
百姓
訴える
##リエット
オリオールズ
コートジボワール
テア
マロ
和夫
大英
由利
赴く
酪農
額田
##スカヤ
##ッツィ
step
##ボロ
ひだ
ゾウ
優勢
栄光
派手
点検
##レース
##ワート
ben
cry
pot
間違え
ウェイン
シスター
スロープ
ベンゼン
##タヤ
##ddi
xp
一目
伝染
反転
士族
安堵
最悪
絞り
kid
どうろ
コング
タイト
パース
ルーカス
挫
蹄
ホロ
ワニ
会う
劉備
川端
株価
溶接
軌間
nik
ぐらい
ラージ
ロット
マイナス
シンデレラ
ディーラー
シークレット
##ez
##ts
汗
范
##ウオ
コト
付さ
採り
端子
閉塞
dem
カエル
保養
兄妹
単于
去り
名手
和彦
怒っ
接着
須磨
預金
類型
##宗我部
とくしま
ひろゆき
打ち切ら
アフリカン
スピリッツ
三輪
多々
戻す
##ache
龍造寺
##ートニー
ジャンヌ
ジョシュ
トリプル
ドロップ
廷
供与
子息
小原
技研
松任
義兄
耐震
##グラフ
##ザニア
##ディウス
manag
アンモニア
▲
##lay
口蓋
封鎖
幽閉
新日
明暦
模倣
母子
アリア
向こう
char
アスキー
##ウェールズ
モニュメント
ヤロ
尾翼
島嶼
撤廃
整形
水銀
立山
網羅
舎人
谷山
近海
コモン
トレイ
ナイツ
ワンダ
イニング
ウォッチ
ゴースト
ワタナベ
プロヴァンス
堕
キヤ
相良
裕子
開皇
そっくり
チェンバ
ドッキング
リサイクル
乗り入れる
season
##植物
まな
われ
ブス
ヤシ
レプ
届く
惨敗
憲章
成形
手形
担任
東宮
林家
犬山
葛城
黒木
##らかい
##メート
レシー
スチール
チョーク
コスタリカ
##川内
ひな
ブナ
山王
末寺
硬化
やきゅう
パドレス
ω
##ヌイ
##use
勝浦
惜敗
成蹊
浩二
短大
転勤
##ガイモ
##ナリー
##レアン
sun
ささき
動植物
繰り返さ
薩摩川内
##志野
vi
おの
ねじ
戒名
武雄
神山
転封
通用
みなし
ブリス
習志野
##リオット
ノウハウ
鯨
##之島
中宮
城東
大伴
村落
積雪
西原
西野
観衆
関税
飼料
##ブリュ
テール
及ぼす
弾き語り
振り付け
修験
完備
旅人
球技
ストン
デリー
パーカ
##クトップ
チャネル
##マド
##出る
委任
子午
放ち
断崖
粛清
自慢
随行
黒部
##タニア
##itar
jon
っぽい
ツーリング
デスクトップ
ワラ
不利
折れ
新線
河東
知恵
若宮
##いちらん
ا
促す
可視
壁面
家中
旧領
桑田
流山
特派
腎臓
連装
郡長
野山
fan
なろう
ギネス
マンス
prof
ペルシャ
靭
鷺
##酒屋
万治
吉宗
慰霊
技巧
探知
本姓
濃く
飲ん
##トール
tur
ビジャ
ヴァレ
不可欠
居酒屋
kddi
さぶろう
ストリー
総当たり
ポテンシャル
##ナリ
佐々
公称
奈々
専売
藤子
高家
tel
グラント
##ペンデント
ロドリゲス
##iff
キミ
バシ
名山
帰依
拝殿
板倉
海津
由緒
臼杵
面影
prot
ちゃんねる
##rt
般
シス
創価
北島
協調
叢書
管領
迫害
スピー
リッジ
裏切り
アドリア
アパレル
チャール
鯉
##びき
##wer
ca
イニ
ボア
大事
寸法
川辺
患っ
拡充
獣医
##ures
don
ゾンビ
落とす
テロップ
アッシリア
##aff
でし
ネブ
入線
属性
常備
目さ
罷免
藤村
じょし
スクロール
蓬
##ゼー
##ヒム
南宋
弘治
微妙
東国
花巻
進言
高尾
bur
yam
サンズ
トリニ
出かけ
##ティスト
rail
打ち出し
言い伝え
##うた
##戻し
つま
会頭
創部
参軍
死因
絶版
しんじ
中継ぎ
明かさ
##ディヴィ
インディー
##ッティンゲン
娶
##ヨウ
##着く
交替
以東
低減
同法
呉服
大砲
帰宅
斬り
曲集
条項
水軍
xml
二本松
重なっ
落ち着い
ツイッター
technology
ナオ
ピロ
亀田
大永
対向
成瀬
江川
wom
##imate
タブレット
##バク
##蒲原
##ips
ry
フセ
リソ
叙位
執事
太い
明応
沿道
清算
速く
電通
ラベル
##ツカ
刑部
弁天
旗艦
病弱
祝い
羽衣
講堂
フレイ
ラント
フランコ
##ネーション
color
スペンサー
ランニング
芭
蔓
##ワル
主幹
園長
建ち
業態
極限
段丘
精霊
##サード
coc
シアン
ロペス
取り巻
重なり
##グラフィ
アドバンス
茜
こめ
レム
加算
岸田
後円
朱印
比定
詠ん
迫撃
電器
サハラ
mach
ダイレクト
ギー
タフ
守谷
迅速
運ん
銃撃
fam
hal
ブレン
丸の内
小松島
ビルバオ
乗り出し
オリンピア
σ
##メア
寄合
減速
紫外
贈呈
高井
リコー
告げる
振るわ
オホーツク
express
イノベーション
レゲ
秀雄
編制
繊細
通年
銅像
##ashi
みやこ
トラスト
ニーダー
リザーブ
マッカートニー
##御門
やつ
人道
受領
推さ
支障
矮星
要所
視線
都城
門弟
楽しい
##たいかい
force
ドーピング
##60
##ny
芹
采
スギ
不幸
前任
新選
黒く
##ヴァイ
##変わり
##ンバーグ
##okawa
##onder
クランク
academ
廿
##しこ
乗合
出動
外壁
大乗
快適
機銃
治承
警護
chem
ボランチ
オルガニスト
央
##lor
わく
エラ
収縮
合っ
合奏
安城
手配
植田
楽園
規範
調停
軍令
通例
関根
エスペ
ガイア
シモン
パブリ
シュガー
インスブルック
凄
瓜
##さく
##ナガ
京急
書体
稚内
終身
花茎
賢治
酸性
高座
高浜
##edia
キース
打上げ
##ヴィング
mini
アンカー
イエメン
ギャップ
ポルシェ
剃
##メニ
京大
初動
土塁
夢見
常識
明代
煉瓦
風力
飛ん
##モニカ
##ンガン
いとこ
買い物
持ち込ん
found
スティック
##ジル
侵食
富豪
肯定
##iano
sex
ヒマラ
2008
のうぎょう
槇
ロリ
下賜
反論
売春
大仏
救い
木場
猶予
ストレ
ツッコ
ワース
減らす
shop
いっしょ
ドリンク
メディカル
edward
ローテーション
佛
##タバ
とこ
栗東
横穴
水酸
漢文
##ちゃん
liv
久美子
過ぎる
重なる
言い渡さ
##ラクティブ
##ジミ
実効
松川
神事
錯体
骨髄
##tern
カルト
デイズ
イブニング
漱
ベニ
勧誘
引か
気管
西園
ルース
三鷹
未定
聖子
駅間
##サイユ
##ヌーン
##ista
##ディスト
アレルギー
キャンセル
reductase
吻
肋
てら
ばい
ガウ
史記
府道
抗体
清原
私的
箕面
解く
mir
支払わ
##スタイル
museum
チャリティー
##ado
主事
植木
漢詩
病原
##モロコ
マッキ
止める
カーター
フラッグ
##ms
柚
遵
##やり
##リド
ぶっ
太后
平昌
熱い
興奮
##スパー
pac
ディラン
デュアル
オリオンズ
ブレーメン
##iii
こし
佐川
材木
炭化
熱中
領内
タップ
デート
ボビー
##ヴェント
もとより
other
デュッセルドルフ
牌
##ロラ
##付き
可変
年俸
景色
リンダ
試みる
大きかっ
##おん
六十
対峙
後肢
揃え
浄水
美智
りぼん
シャム
パプア
とどまり
ニューズ
##テュ
##太子
##aro
##res
よろ
上皮
圧迫
妻子
武漢
王冠
細分
補正
警報
転属
ぶどう
王太子
ウーマン
カタカナ
ボイラー
ポータル
コンポーネント
后
旺
##パイ
つぶ
和子
大業
応仁
教義
社交
華麗
説教
##endo
cro
mur
ルター
##iness
##ighter
ピョートル
ファゴット
レフェリー
傭
殺す
湯沢
花嫁
鳴き
##パーク
##ンチャ
後醍醐
パニック
beaut
コンタクト
プログレス
garden
晒
燈
薦
匹敵
導か
小谷
柳生
極楽
病床
破片
西成
車掌
##ャルト
##リスク
ありが
いまだ
ハーブ
ノーマル
ハーバー
ローラー
鯖
##現代
##言葉
御影
派閥
soc
ふくい
シンポ
パンダ
fact
prog
みやざき
design
phosph
##グン
##百合
##umi
デコ
奉天
宴会
満洲
葉山
bor
楽しん
よこはま
受け取る
ダンジョン
ハリケーン
糾
##の水
##ケ谷
共催
合体
国税
日の
柏崎
植生
河村
##茶の水
トンプソン
battle
コーディネーター
傅
##光寺
ザム
四球
宮津
承継
改姓
由良
着色
精算
脱落
西新
##ニャー
ヤコブ
いちばん
フェリックス
マクシミリアン
朽
づか
エメ
オデ
三谷
下層
修学
倒壊
図鑑
妄想
宮島
年下
未婚
未完
柳田
殺陣
泥棒
積む
終焉
英訳
チャド
デジモン
ヴェネト
##ジム
##ノワ
##寄っ
ジア
今村
伊奈
待た
敗者
終始
議決
赤褐
野中
##ノラマ
kor
サラダ
ノヴォ
##リストル
イントロ
エックス
チューブ
ドラムス
アイリッシュ
厨
曼
下面
割譲
句集
堀内
書家
東晋
監獄
西国
譲ら
連帯
##ダーゼ
##リッジ
##ンドー
ゼウス
##velop
こうくう
棺
窺
隈
光子
天長
平民
御史
物部
砲術
配線
飢饉
orig
チンギス
サイクリング
實
##ずら
##ゴメ
ly
コブ
借用
入籍
召喚
枢機
甲南
筆記
経口
葛西
陥る
騒音
きっぷ
マンガン
##ザンビーク
マディソン
daniel
脆
荏
##てき
##割り
とれ
シモ
ラピ
使命
招く
築く
闘病
音階
##サウス
##マイン
カリス
レンジ
##マスター
ステート
フェリペ
長宗我部
##アントニオ
johann
蛋
##ノア
##oon
##oth
ヨコ
先述
反抗
武藤
浪曲
膨張
芭蕉
重合
##クレン
##シュケ
##iana
ブレス
持ち帰
テレコム
フェニル
water
クリケット
ラテンアメリカ
kadokawa
莉
##落と
ザイ
一関
司る
居留
年数
廃墟
忠誠
焼け
狂言
衣料
西城
##ヴェイ
強かっ
ウェイト
ブックス
エグゼクティブ
脩
扮し
新疆
明示
普遍
書状
漢学
砂丘
荒尾
藩士
返済
酷似
モザンビーク
のび
マフ
三枝
博文
敷か
激戦
誤差
請願
間に
##アーノ
fant
アリスト
ヒマラヤ
ファンク
引き渡さ
イングリッシュ
姜
リガ
ロド
住持
序列
消火
短波
##みらい
ローヌ
八重山
アニマル
悔
轟
##rik
しし
びん
ダメ
囲む
大洲
座長
東欧
桜田
森下
水晶
直面
着想
空挺
長屋
##ワット
sin
ビック
見込ま
スカート
マドンナ
ロベール
##ベンション
again
limited
叡
ミミ
実体
寒河
小隊
年々
本番
業種
水木
漱石
綱吉
ハッチ
ジョーダン
ネイティブ
ブリストル
フィナンシャル
ヨア
伝播
実名
提起
敗走
本因
東松
直流
ゴッド
バント
ロイド
##カレスト
だいいち
サンシャイン
スターリング
込
##ベツ
オク
下降
刷新
小国
桜花
湯浅
##パルト
マンド
当てる
なでしこ
ステファ
ルワンダ
##惚れ
ぽう
ロア
君津
四谷
回廊
太く
守ら
法号
##シェン
cas
##システム
##ather
hard
かごしま
server
卯
ぶち
劣る
密教
帯域
朝臣
西町
軍需
##ノルル
##bert
tro
宮古島
満たさ
##モロコシ
hero
アテナイ
キッチン
##ウラ
##キソ
ボト
人力
児島
列記
均一
均衡
小路
櫻井
直木
肉食
被っ
覆面
見積
面白い
true
コールド
リベラル
卜
堯
##olo
中年
夏目
新春
沈ん
済州
相関
荊州
血縁
##ider
あおい
上手く
男の子
クワガタ
セレクト
乗り越え
francis
廊
##ブズ
##プソ
##メロ
##sen
きの
ベロ
仮設
公害
園田
着物
鉄工
先立ち
##ジャパン
デンバー
ホノルル
果たして
royal
スキャンダル
##key
おば
出港
布施
年表
復刊
為替
遥か
ret
シグマ
本因坊
近づく
##ジェール
html
soul
デューク
プロトン
point
トウモロコシ
##息子
pp
あめ
ひど
坂口
役名
戦中
撮っ
疲労
##ザベト
##ボルト
マスカ
冠する
延びる
でんしゃ
リプレイ
若しくは
インタラクティブ
##もる
##ois
悪性
眺望
艦首
いのち
アルプ
セダン
パンフ
東広島
パレルモ
ベネディ
children
japanese
喰
##の中
健闘
充分
勤労
史家
延べ
直方
##onom
シグナル
タンザニア
π
韋
##アカ
同属
屈折
常駐
検挙
音波
##ジカル
mas
ゴジラ
聞こえ
マリーンズ
メンフィス
トリビュート
##おい
##ニム
##マニ
ve
城内
富裕
尽く
金城
##アーゼ
コスモ
week
スコープ
レスター
princ
エタノール
##代子
気仙沼
cdma
hand
バーガー
maria
mobile
production
芋
おま
のせ
メラ
優等
迫ら
電極
中山道
中西部
留まる
エミリア
クローバー
ピックアップ
乞
##渡す
##ray
中町
井原
天童
平ら
広範
斑点
斯波
未詳
本間
樹上
樹皮
進撃
遺し
野間
こうべ
つかさ
キリル
レトロ
華やか
シェーン
ヴォルフガング
艶
じつ
ホエ
安保
慣れ
東軍
超過
面会
リンド
リタイア
contr
income
潭
勝敗
機密
渡航
潜在
荒れ
計上
訳語
速球
達人
##ロップ
##ning
お茶の水
south
縞
おち
城跡
建久
文永
羽生
ザール
レゲエ
枠組み
フラット
フレンチ
single
糞
##っき
##セグ
##hel
いや
おや
ドス
ロク
同線
布告
打診
批准
指輪
次作
画素
解か
錦絵
fel
センサ
近現代
陶磁器
##ッパーズ
ベイビー
エリーザベト
マグネシウム
幣
あみ
井口
伯領
前川
皮肉
秋月
翼賛
足柄
##モスク
##重なる
cer
コルト
ソチオ
行こう
キヤノン
グルコース
golden
炊
デア
材質
美馬
莫大
進ま
飯島
##シタン
##atch
たむら
ひたち
見通し
##ラーレン
judo
いち早く
ふたたび
スペック
スマトラ
フィッツ
##まか
ユウ
廃部
愛用
直属
綴っ
連行
##ストゥ
##ダンス
nag
rod
まさし
memor
ニューギニア
粕
##ラフ
しぶ
リコ
他者
北中
単離
和光
子宮
菌類
退き
道幅
グラー
バトン
欠かせ
##メキシコ
ほうそう
シンポジウム
エンタテイメント
髙
##グサ
##ホフ
##ミヤ
##泳ぎ
##返る
がつ
ケミ
判別
原生
扁平
海浜
産生
石造
紳士
花冠
降っ
##バット
##ヴォン
ゴット
ナチュ
マラー
ホーリー
movie
藪
##だち
##ful
光源
共立
実数
標榜
磁性
##グレブ
tem
パケット
マラウイ
リアリティ
プログレッシブ
寡
##ガリ
##直さ
##ito
光景
勝田
同好
呼応
国別
官能
洗練
激突
fin
who
スカー
及ぼし
見習い
ジョンズ
チャット
ネーデル
リーマン
georg
フィルター
プロトタイプ
懿
ぐみ
ぼん
みね
店主
投影
本巣
法師
登校
目論
解読
陰性
##ディナ
さらさ
チタン
フロム
寒河江
##ヴァルト
カーネル
キリシタン
匈
##ばさ
世俗
主星
低音
内線
参院
子弟
染め
民部
浜崎
神谷
##atus
ゆうこ
バーレーン
na
入行
千鳥
叶わ
呪い
女房
日大
模式
繁華
致死
薫陶
藤堂
遊具
飛地
bus
num
たった
ハンナ
ロマー
name
持ち込ま
アルデヒド
future
パンフレット
トランスミッション
渕
##シタ
グッ
ノブ
休館
修斗
宛て
承久
日数
板野
永享
真似
##セナル
マハー
ロレン
動かし
カンパニア
カーネギー
バーナード
element
甫
マメ
丸子
大抵
春樹
配偶
当ては
替わっ
トラベル
ロイヤルズ
矩
##之江
##rol
ニセ
報復
大根
巻末
救難
絵巻
通す
野沢
ピート
かながわ
ソチオリンピック
彷
膠
##恵子
――
ゅん
ヒラ
三上
光線
垂水
夜中
眺め
要領
配さ
##テルン
##ブレム
jas
エアー
ベータ
##ティーボ
##ファーレン
ジャガイモ
ミッドナイト
リハビリテーション
這
##どる
##なが
##持っ
##ied
互生
堪能
怪人
新鮮
杭州
森本
萼片
おさむ
かわり
せいじ
どころ
アルス
瀬戸内
dead
fight
louis
##ni
畿
両立
国公
太極
学説
幸子
杉田
着け
空白
退却
退去
類別
良かっ
link
傳
殊
##直す
##lav
mu
乗船
劣化
手腕
競歩
重く
カザン
勘違い
##ランドル
エドガー
ニューサウス
##dp
阮
千島
可児
命ぜ
妙心
神輿
菊地
貫い
"』(
おそれ
止まっ
capita
鬱
ba
みこ
むろ
入閣
占有
埋蔵
売っ
弘安
手間
覚醒
賃金
随所
雄蕊
サトウ
サファ
##イスキー
アッパー
ジュビロ
フレッド
##ストロング
ニューサウスウェールズ
##ナカ
##八郎
れき
サザ
ロム
八雲
大麻
戦列
旧国
注ぎ
津久
無数
芳賀
軽巡
連鎖
開成
防府
")」
グアム
勝ち鞍
##ヴィッツ
##inside
グリーンランド
牢
薛
##ika
ka
中途
匈奴
家事
幕張
手話
東野
添付
湧き
溝口
鍵盤
##リータ
いくら
みたい
ビーズ
カプコン
ゲイリー
チャック
ブルーノ
ストラスブール
ハンデキャップ
庚
陪
##ボラ
##oud
争奪
共存
吉林
快挙
昇任
末尾
欠け
至近
観念
音頭
黒沢
黒海
max
pen
てれび
プロパ
ヘレン
ベンツ
call
アストロズ
コレクター
ハイキング
ノーフォーク
挽
##ホル
もく
不変
供さ
寺領
江口
税関
給水
フィオ
ウェザー
オットー
カナリア
judoinside
##ぞく
##福亭
つぎ
下方
増進
平岡
暴露
比重
毛皮
測度
ライツ
笑福亭
ガイウス
グラハム
ホフマン
柔らかい
オーランド
カラブリア
フュージョン
brother
ニューメキシコ
##of
欣
毀
##ona
ハガ
人造
卒去
同会
堀越
恩師
漁船
県域
耐性
裂片
麻酔
tok
メタン
知らせ
行ない
that
ツッコミ
望ましい
リヒャルト
サンアントニオ
稿
##シク
##曽根
##ape
なめ
吸い
杉浦
欠陥
疾病
真一
ブラームス
albert
##jp
卑
ちえ
一向
公平
様相
緑化
蒸し
騒ぎ
魚津
##ニータ
おがわ
かつら
グリコ
乏しい
##アスロン
##ドックス
アレッサ
スナック
冗
亀岡
勝つ
強引
新装
緒方
舞い
みやぎ
ドロー
シャンソン
受け入れる
##esh
##gar
反復
奮戦
面接
end
えいが
ステイ
バロン
wild
コリンズ
パウンド
ブルネイ
チャップリン
##去っ
##ema
##ost
中身
修得
奏法
川中
平川
徐州
点火
目見
蛋白
行幸
重光
阿倍
飯山
黄海
##oria
多治見
西園寺
フィード
働きかけ
'-
ユア
一騎
全豪
処方
店員
柳沢
空知
雇わ
風速
##ザイク
スティール
メソジスト
concert
##cer
ミロ
体裁
惚れ
憲政
推計
直系
義弘
離散
##かかっ
##テリア
もはや
プロレ
アンデル
振る舞い
コメディー
アトレティコ
コミュニティー
リャ
乗じ
向島
執権
多面
断り
遷都
##ティカ
##リカン
imp
ウラル
クレオ
orch
とどまら
クラウス
グレッグ
デザート
抜け出し
シリンダー
冀
##キラ
##obe
ミト
咲き
喫煙
器楽
寛延
弾い
線維
近親
遷座
驚く
ゴスペ
新居浜
##イアール
bern
でしょう
モンキー
ウエスタン
サクラメント
誅
騙
##ブエ
##bor
kt
コシ
京子
倉吉
和声
方位
減り
腐敗
頼り
黄門
##ニッツ
タミル
ポッド
ムーブ
伸び悩
町並み
かかわる
セレッソ
ニューカ
成り立っ
ジョナサン
アームストロング
##ev
咽
錠
##ギア
##魚沼
##mar
健太
動い
北町
滝沢
球状
継が
遊戯
道真
靭帯
mak
カルボン
ダイナミック
逗
頬
がら
帝位
弾丸
水槽
発熱
鋼管
##チュエ
さほど
カステ
交わる
##オーバー
anth
クローン
スタンプ
ホエールズ
##バチ
みか
ソラ
上町
市政
沢東
王政
義勇
選奨
預言
##々しい
##ラック
dar
ガルシア
unicode
渥
##よい
ハレ
哲郎
失業
散策
頭蓋
how
かおる
まさに
アルタ
ウェン
ノーツ
like
テンプル
モーガン
リビング
繰り上げ
カーリング
##ーア
##攻め
故事
武功
現生
藩邸
ため池
ホビー
##シュート
gall
スクラン
langu
inform
兜
罠
訂
##楽町
##ota
##ris
バニ
ビオ
モレ
冊子
寺号
彩色
撃ち
雑食
##リップ
みさき
ステア
江原道
カルデラ
drive
さかのぼる
レクリエーション
##フロ
全額
南南
家斉
防水
高跳
ケイト
世の中
##ベリウス
ハロゲン
blood
ソルトレイク
##スケ
##治郎
すく
ぱん
べん
サボ
スレ
ミレ
リサ
不便
与謝
世論
二百
余裕
分室
大中
山道
毛色
物品
艦上
電線
頭骨
願っ
##カルタ
kon
アフタ
サック
リップ
小石川
由紀夫
スリラー
ルイーズ
じょうほう
##oy
喋
瀕
爽
##こみ
##ほく
##まま
##ダホ
##ネオ
はせ
入札
奪回
実技
氷川
瀬川
黒澤
##ゾール
##amin
きれい
クルス
シュテ
バスケ
草分け
ハンセン
フランドル
##sk
然
内村
左遷
掃除
旅順
渦巻
船員
##ford
コイル
ツツジ
健太郎
ローター
襟
##ポス
##メガ
円滑
古田
斬新
爆薬
茂木
言論
bet
費やし
兎
##晦日
べし
トマ
ララ
尾羽
微小
移送
買う
けいこ
カーボン
勝ち抜き
never
スクラップ
fighter
湛
##当り
チー
丸い
打倒
矢田
笠間
篠崎
ふどう
スポル
近づい
ルーズベルト
ultimate
##aru
オシ
光州
加治
履歴
慎重
汚職
注射
浅川
鉱石
ようこ
パトロ
文理学
what
たいいく
やまがた
アレクサンドロス
膵
##イチ
初恋
恵子
浸水
籠城
ブルズ
エピック
スロット
モザイク
ネブラスカ
develop
コンベンション
蚕
鼎
ナガ
ホプ
取調
咲か
図案
小郡
洲本
深圳
登っ
監禁
考証
荷重
遊牧
遺作
##ッサウ
ひでお
売り場
おきなわ
シャッター
с
##びと
##開き
かじ
らし
三陸
五所
冷蔵
名寄
店内
指針
新種
民話
真ん
花見
館林
鹿屋
ホーク
ブライト
ヴァージン
ベネディクト
偲
皐
##ゾフ
七十
信条
内裏
出所
地雷
捕え
捕縛
炎上
熱狂
画策
発端
筑豊
紙面
鳩山
pap
エスタ
サンガ
スカル
パティ
pass
キーボー
ジブラル
ディック
二階
植村
総体
許容
足跡
防備
青空
##暮らし
dou
滅ぼし
着うた
##キンソン
##ナイダー
##どか
地所
塗料
大樹
店長
日和
西安
##ワーヌ
およぶ
ギニー
しんいち
ハロルド
執り行わ
ヴィクトル
みん
届出
形質
敬意
柏木
直し
飯能
飲酒
黒崎
さんま
茅ヶ崎
ノーマン
パープル
度重なる
wonder
アスレティック
グラフィックス
##54
##くる
##っか
##クフ
ハト
不審
南国
寄港
暮れ
正史
盗賊
鉱床
館山
龍馬
サーン
frank
キーボーディスト
楓
##テア
##マク
六男
土居
大家
後宮
民生
蔵王
透過
##ビック
##受ける
ストー
ラルフ
##otten
ターナー
ステロイド
indust
##ぺい
##コト
##プシ
##売り
##rum
そび
キノ
小出
本艦
結末
音速
##ウンズ
nar
デビル
預かり
びじゅつ
リベルタ
レオナルド
language
##hc
##ぶき
##リョ
##ece
三洋
下山
全焼
叙事
如く
小銃
廃盤
目前
繋ぐ
護国
あした
ハニー
リクル
##ering
##urnal
marc
カエサル
マインド
ありがとう
クォーター
ジャーナリズム
friedrich
##gu
珪
##だっ
##モノ
##日町
##蕎麦
ヤス
仲良
内訳
取水
支出
私鉄
究極
じゅく
滅ぼさ
カスタム
バーンズ
パーソン
awards
チャイニーズ
digital
##és
##ker
15
天安
承諾
突っ
食肉
きらら
クジラ
春日部
答える
##ville
division
くい
マウ
有望
村松
渡部
豊平
農道
長沼
##ニット
##ミアン
パブロ
ムック
真ん中
苦しん
ヒューズ
プレイス
ボルドー
ミラクル
生み出さ
ベルマーレ
篆
ひる
ユル
休み
定評
寒冷
岩礁
拳法
桟橋
英和
鶴田
##ひょう
##uber
ペプチド
モンタナ
model
ヘルメット
履修
攻防
放課
曲調
父母
義父
育英
花王
製糖
馬名
##ゲーム
cop
サーブ
スキン
##キュリー
foma
ナンシー
ジェノヴァ
濡
bi
エッ
不倫
僅差
分隊
在校
常温
患い
末子
法縁
玉名
研鑽
##ーニョ
ひかる
反する
あおもり
コロニー
marie
サンライズ
ファイバー
##ざし
##張っ
ポス
ムエ
ヤギ
リボ
不当
分担
尊卑
画期
稲田
箱館
読切
谷中
赤羽
鉄鉱
att
テント
マルグ
##ミンスター
tomato
オークション
portable
丙
刻ん
座敷
後頭
棄却
浄化
破ら
あつし
サクソ
ジュゼ
小山田
シャワー
ローソン
##pga
ペロ
一因
外相
多量
拝領
望ま
望み
金井
##ente
アイド
hiro
ネーミング
アフタヌーン
サンプリング
セス
全校
六郎
火口
産み
zip
クエン
スカラ
ダース
披露目
落とさ
8000
word
タタール
##ér
ぢ
怠
##こい
##uka
19
がい
すが
ゼー
交番
球形
イルカ
エルフ
##ーネット
アレクサンドリア
##たけ
ぶら
効力
包装
同心
小杉
巫女
日日
枯れ
火葬
脱水
車軸
除隊
##エンタ
##eter
みうら
アクセル
マリノス
ジェイアール
program
舜
鞘
##ulf
ヴュ
寝屋
滑り
麹町
##raft
sem
だいじ
ちほう
シリアス
シリコン
シールド
追いかけ
カーニバル
プロレタリア
ネーデルラント
麟
-"
レノ
入庁
反省
専ら
春風
院号
面倒
なんて
デイヴ
味付け
##チュード
spir
バートン
ブレード
スチュワート
インディペンデント
##の川
##はる
##カタ
##宝字
jg
にぎ
まじ
トピ
リラ
刺し
創出
史書
土日
意外
新入
矢作
評定
越し
##range
チアリー
ヴォルガ
天平宝字
ジェンダー
ロケーション
##tp
殖
綜
##esc
っ子
どり
本業
正一
渥美
艦載
西魏
ビアン
メガネ
紀伊国
せんだい
ブルボン
λ
且
丞相
五百
同所
噴射
局員
指宿
硬い
解禁
コナン
ペンタ
エーテル
ホイット
結びつき
リクルート
ジブラルタル
##ey
##mp
##伊那
てき
もみ
セオ
前座
広葉
握る
救っ
甘味
笠松
編み
行基
齋藤
##iter
もらえる
琢
##はん
##孫子
##min
おっ
内紛
原住
帰順
洋上
生野
破れ
神保
羽柴
香料
ジンバ
ハロン
ハーツ
恐らく
賑わう
起こさ
some
なくなる
エナジー
カールス
チャイナ
ローラン
##ッテルダム
public
##たら
##gro
るい
分脈
君臨
城北
寛保
師管
村井
浜名
甘粛
粘膜
美里
船首
貝類
野鳥
##ブラン
ゆうじ
カーズ
キティ
トイズ
ワープ
勝ち馬
役立つ
あふれる
ウェルズ
腱
##uya
ゴマ
宿舎
市外
浪速
遠野
高城
##エイチ
##ンクス
カーラ
不二雄
呈する
楽しく
game
サンケイ
フィニッシュ
伍
禎
##河原
##unc
イヤ
ボツ
ルス
傭兵
壊れ
失策
直交
砲身
##ブルグ
##ople
tet
ハント
##ティッシュ
ジャイアント
嫉
##ジカ
とび
ビラ
卓越
同業
白血
頼ま
##フリー
##ローム
##idae
170
ram
こうち
アスコ
ケージ
トロイ
oper
ポーター
駆けつけ
エンゼルス
journal
##付い
まみ
不祥
併記
即ち
召還
塩尻
宝物
少子
王宮
給油
##ione
リーチ
善光寺
##デンティ
abem
マーキュリー
ロッテルダム
トレーディング
ニューカッスル
##ан
プス
モモ
前夜
北畠
寺伝
山岡
持参
治虫
漁獲
綾瀬
貸与
間近
##チェス
しのぶ
カヌー
ポーズ
飛び地
まとまっ
ラージャ
えみ
ツバ
放牧
法典
注力
給食
脅迫
蒸発
鎌田
高津
まさみ
チルド
トラム
海老名
スカイラ
field
シューマン
ステファン
standard
##zy
彌
つん
儀同
出せ
出水
出願
執る
沖合
活字
無敗
蒙古
##ニツァ
est
にじゅう
またがっ
アーロン
フレンズ
ふさわしい
##津軽
ib
シト
大雨
客観
左近
社屋
退所
que
sar
なさい
まわり
みのる
エント
ジェニ
チキン
パトリ
##ンタイン
樫
櫓
ال
体毛
入城
和睦
和紙
藩内
重信
fore
morn
アーバン
フレームワーク
チャイコフスキー
ヴェストファーレン
旦
綏
##川原
##hed
70
ハス
今泉
元弘
相棒
種々
絶縁
習っ
讃え
隣国
飼っ
##アレス
##ベルグ
ぶんか
アロー
エコー
エリス
ユヴェ
リハー
中南米
呼び出し
ヴァイマル
斡
##バト
ウニ
中尾
乱れ
同値
小中
群像
##良野
##osa
一言
松坂
沿海
社外
開講
青柳
##ガエル
願い出
##マインデ
フィジー
ローゼン
リハーサル
咬
鮫
与し
企て
分流
周南
巡査
菊川
隅田
驚異
高射
さやか
make
イベリア
クォーク
サハリン
フィルタ
ユーティ
ラッキー
リュック
##ファーソン
after
カルボキシ
software
渾
##rie
じい
万里
伝授
体質
売る
契丹
抗生
沿う
転入
離反
##ocket
head
セッター
ユヴェントス
academy
##ぐれ
##ila
ひょ
レベ
坊主
抜粋
揚州
服役
根元
正直
汚れ
竹下
赤く
##ガルタ
##ness
san
あらい
##九郎
丈夫
入校
廃し
戦勝
本籍
板垣
比叡
淡い
童子
良質
超人
ちゃお
エキシ
大和田
シンクロ
ブレシア
盃
あじ
ふか
イデ
一層
優子
再任
励起
吹く
宗谷
湯川
職種
送電
長生
音韻
##ions
長久手
##ステージ
アンデス
ヴァルト
レイモンド
レオポルト
コンスタント
苞
さる
わい
大豆
尋ね
梁山
県議
破裂
称賛
アルド
##wor
ほの
キハ
乳母
巡業
戦法
握り
梶原
構図
正明
祝う
神職
自律
見本
遊ん
lar
吉祥寺
見送ら
イーグル
クロック
スパイス
バトラー
厄
##っく
グン
ベス
人柄
安部
廃位
披針
紅茶
規程
##ディスク
sour
エリトリア
foundation
三笠
大里
簡略
美和
ばやし
タオル
ボンド
エンリケ
heart
ウイスキー
##omb
ごみ
水量
永平
流量
特捜
砲台
補う
訂正
辿り
限っ
頓挫
いわば
スプラ
ポット
base
エコノミ
プライス
プロバイ
ホーエン
受け付け
##フェラーゼ
henry
憤
##トゲ
##ヴャ
##廃合
cp
かが
団結
戦没
所収
承応
放水
歳月
稜線
誘惑
退位
##アルド
##ques
ダック
デポル
統廃合
ship
suica
ランカスター
ゲッティンゲン
マルチメディア
巳
##ヒャ
キシ
三宮
初音
反動
山荘
市村
格差
牡丹
相場
##ヴェー
##グラウンド
ジェフリー
引き起こさ
##すぐ
##モル
姓名
磯部
葛藤
装填
訳し
論説
鐘楼
長政
maj
くらぶ
伸ばす
安曇野
こくみん
クリック
トレイル
##ちこ
kh
ロサ
三越
団員
岩城
担保
畿内
贈り
随一
##ニアム
kit
知らさ
tree
やり取り
アユタヤ
持ち込み
death
アクセサリー
ロックンロール
christian
##gl
橿
##mon
はぎ
ニチ
久世
井川
修繕
党内
嫉妬
##gory
kir
ナント
ハノイ
##んじゅう
いかなる
ソーラー
トライア
ハルビン
ムエタイ
パスワード
プリキュア
##ミュージック
ストリッパー
♥
##うち
##清水
##deg
##urt
かも
ロゼ
咸鏡
於け
画報
石材
禅寺
脊髄
菊花
蒲郡
衆院
補修
西中
防犯
なれる
インダ
キツネ
ハーグ
サンフレ
ライデン
取り巻く
docomo
腐食
草案
葉身
足ら
エコール
キャッスル
ニジェール
ビューティ
secret
タジキスタン
畝
裴
##のく
##連れ
伊佐
劇的
大通
宮前
家格
急進
武庫
消す
租税
語群
贈っ
駿府
ネッツ
ファウ
二階堂
唱える
カロリー
フェスタ
villa
ジュゼッペ
rotten
増幅
家紋
目玉
翌朝
般若
視界
購読
追及
頭頂
##ナッツ
##レイロ
##ールー
##fect
##rome
ジャコ
冷たい
expl
コサック
サムライ
ジャスコ
feder
ウェーバー
##ヒドロゲナーゼ
いで
リヤ
市側
栗山
欲望
清涼
節度
速報
黒星
##リオス
##ichi
aqu
fun
スルタン
クリストフ
煽
癖
##bol
いぬ
ロジ
半期
大浦
数列
新造
沙汰
異説
精通
華北
蘇我
討た
##キュラ
##ジェル
##ッグス
おとこ
寝屋川
クライン
アクターズ
##去ら
##積み
こじ
倣っ
取手
検地
水色
由実
融点
輝元
まさお
##プシャー
トロイア
ハーレム
仕上がっ
##シュヴァイク
spring
怨
きき
トモ
人為
促し
再演
地味
小葉
禅師
西海
軽快
高低
##プシー
ヒール
ボディー
アーセナル
ジェネラル
コーポレート
alexander
##fe
##yt
蔚
おび
募金
土方
岩瀬
従え
明子
波動
貴州
難航
##チオン
うさぎ
つばさ
取り外
##ローラー
ミカエル
##サンプトン
global
オリエンタル
morning
叱
憑
饅
##ふく
##rac
ちり
七郎
凡例
嫌気
安佐
山科
驚い
##グラー
##helm
##ront
")。
ドゥー
パッド
ライム
##ティクス
brit
リヒテン
ストリップ
##ホールディングス
魁
##どき
##トフ
##プン
##マネ
ほそ
ミケ
三郷
付か
光禄
名曲
噴水
夏期
宮原
校章
植樹
鹿角
##ible
rub
ドルト
ブラー
##ンジュラス
ε
かの
光文
円谷
岩本
抑留
曲面
点灯
##ったり
##ビウス
##ardo
ケビン
レッツ
alph
アルキル
カッセル
people
ホンジュラス
##uke
ga
ぴあ
エゾ
恐慌
民権
花月
馬齢
##ドーレ
##バーツ
兼ね備
educ
オオカミ
ストーム
マリーア
スカイライン
サンフレッチェ
擲
柑
##そば
##ule
優良
効能
勅撰
大沼
小諸
平賀
庄屋
序曲
援護
映し
波多
細部
蕎麦
谷村
金光
エラー
ジュネ
ヴェン
取れる
##ポラリー
mount
history
土着
捕ら
東証
案件
海事
白浜
真岡
知覚
神代
紀年
試行
警務
軍区
香美
##oney
may
デール
パンツ
我孫子
2017
mind
エヴァン
スーザン
ライジング
august
アップロード
ブラジリアン
##ケア
##oko
ルポ
並み
単葉
法曹
特攻
町営
神祇
自在
部活
##ヒョン
fly
##チスラフ
wood
たちばな
チューニング
##せき
共感
屋久
幕臣
涼子
無断
競り
行け
長史
雨林
饅頭
ぐんま
けいじ
つどう
アグリ
肩書き
6000
self
カルタゴ
ギルバート
ノヴゴロド
##ua
炒
##シブ
##着陸
内政
可逆
域内
樹齢
油圧
膨ら
重心
おまけ
オタク
ジロー
ソール
マナー
離着陸
シュタイン
martin
##アド
ナマ
下着
値段
原油
回送
工務
髪型
##ジェット
##ルスキー
おおいた
まさひろ
winter
マクラーレン
コンサートマスター
釘
##エビ
##近い
##oul
つみ
中森
停滞
喜ん
奏で
建長
怪奇
戦乱
服用
条文
私塾
首里
##ally
だらけ
サニー
ジュン
スパー
ティラ
nint
テロリスト
ヒンディー
カナディアン
ストリングス
##ジノ
サト
上告
別館
召さ
妨げ
房総
扇状
皇居
直子
草本
闘い
##ッガー
##ミンゴ
しろう
スケー
かわさき
フリート
引き換え
カルガリー
煩
##ひめ
こけ
ナツ
マハ
仁和
右折
完璧
思え
水位
浅く
熟成
病棟
発効
結集
薦め
おさめ
気づい
深める
ゴダール
remix
アイディア
マーリンズ
##uf
塁
萱
##den
クセ
分科
従前
赤塚
##ダック
##下ろす
アロン
アンプ
##モスクワ
エスパー
トラップ
ベアーズ
書き上げ
basic
ストライキ
紘
##シラ
##マム
ナナ
一様
会堂
列伝
外傷
実話
少林
抜群
新撰
水生
確信
視力
金利
長大
##合わさ
##rick
ple
バール
##ウェルス
オルタナ
チューン
勝ち越し
guitar
"|-||||
芯
##uri
上顎
届い
属州
本紀
森川
焼酎
真人
矢部
転出
音質
パッチ
取りや
鳴き声
##asaki
##stein
note
アングロ
wrest
フィアット
娼
##chi
さっ
みさ
停泊
公女
反逆
大林
木工
末広
湿度
資生
駆除
##ナムコ
##プリン
")-
far
ill
いしい
エイド
ニカラ
シュール
hotel
パスポート
コミカライズ
ヴォーカリスト
丼
侮
##ハツ
##バブ
トミ
主祭
俳諧
副長
同和
湾曲
石棺
端役
荷役
軍縮
##ヒェン
utc
あおき
カター
josé
テイチク
human
トライアングル
アインシュタイン
コンテンポラリー
##ノ口
##食い
ゴリ
レナ
下谷
仙北
帝王
幸雄
決心
留萌
糸魚
義隆
触発
豊国
踊っ
野手
長春
順子
##ンドゥ
あかね
こくり
スイング
ジンバブエ
##牟婁
##cho
fa
乳業
信念
偶数
元慶
勝て
半生
反則
哲哉
嗣い
支柱
正人
社伝
アニー
ロンド
終わら
core
キャリー
サムスン
ザンビア
##ホーフェン
グライダー
ワーグナー
アントワーヌ
##ルムシュタット
`
##のぶ
##アビ
##urs
一節
井田
囃子
家譜
常総
新馬
民進
高見
##チョン
##ッコロ
##ロイト
バクー
dear
おんがく
置き換える
management
犀
獨
けつ
ねえ
探求
曲輪
東上
栄一
相方
蹴球
ルーク
##マイオス
ロータス
アーノルド
ジャカルタ
償
##ネギ
##ワシ
ニク
ヨガ
今年
偽装
入出
官公
注記
谷町
走者
高官
##ベルデ
##マニア
アミド
アレキ
信濃川
フューチャー
cassini
ディストリビュー
ブラウンシュヴァイク
廬
鼠
##たて
##ジニ
##進め
キア
ラミ
同姓
和也
官選
寺島
屏風
淡黄
渡さ
異端
石鹸
鍼灸
駐輪
まさき
キャメ
トンガ
roll
フリッツ
##チャリング
magic
junior
ィ
冴
あぶ
きじ
ヌク
各町
宮下
家元
寄宿
有毒
水車
稲作
見れ
連峰
部類
鴻巣
##モデル
ホスホ
##スタイン
stad
ナコーン
リソース
受け取り
コンシュー
プランナー
パーカッション
##かれ
##倒し
##tor
レギ
円柱
区制
和風
大槻
弾正
智子
納得
級数
鉄骨
青海
##uter
オード
糸魚川
せんきょ
閉じ込め
ニカラグア
アイデンティ
ライブラリー
哉
曙
##らわ
##ズィ
##之丞
ひっ
大口
妙見
木戸
楠木
洋一
##バドル
##ペリエ
##ーロス
すごい
アルベ
アンヌ
コップ
シーム
##ility
スモール
スイミング
カウントダウン
セバスティアン
tomatoes
悼
##las
キタ
ジミ
上段
印旛
原告
和気
天照
嫡流
実物
改選
真壁
見知
駒場
城攻め
積み重
苦しむ
film
イザベル
コンパイル
nintendo
##ss
##千穂
おぎ
ハク
ビバ
擲弾
王権
等価
説く
貯金
tal
阿武隈
##リックス
##ロヴィチ
sant
パワフル
second
ファンタジア
クリスティーナ
##アニ
##uff
##yde
カビ
ホキ
加筆
在庫
岩村
帝大
微細
花粉
草地
鋼製
除名
##ゾーン
##ントゥ
テッサ
ホルム
しあわせ
赤ちゃん
スタンリー
ティンパニ
アンモニウム
シューベルト
憩
##パリ
##喜多
テリ
到来
北信
吹上
守口
昨年
来訪
構文
模範
橋脚
牛肉
薬用
辰巳
##スタル
##ピット
jer
トッド
御殿場
松任谷
1704
fort
austral
匠
砥
##ムナ
##面目
じこ
ビザ
五条
京丹
便所
再起
刀剣
小数
感想
無駄
生い
耕地
能勢
##ニエル
##ヴィキ
##acaf
帯びる
ボンバー
作り出し
カーティス
クライマックス
痩
ヘレ
リノ
中新
仏典
動か
塚本
密生
山腹
忠義
接頭
明徳
発布
綾部
遺骨
駐箚
りんご
埋める
目立た
フラメン
ベガルタ
苅
##ote
シエ
ロフ
万延
公孫
分与
大滝
大腸
嫌っ
家柄
家長
橙色
##きょく
溢れる
エリオット
##ストレーション
凛
宦
蝋
##ソフ
うり
双発
同調
土星
幼く
東村
横川
開学
間際
電工
ズーム
マルケ
大手町
##プテスト
##ython
かんする
オマーン
マイヤー
ナチュラル
リバイバル
pierre
wilhelm
バンダイナムコ
information
婆
##タク
##zer
だれ
キビ
俊彦
先制
孫娘
山系
橿原
正和
法皇
称す
言動
遊泳
カノン
ゴート
パーリ
ペイン
ヨウ素
銘打っ
こんにち
移り住み
フォスター
ホルシュタイン
フェルディナンド
虞
飴
##瑠璃
けっ
一雄
共闘
図柄
城址
平尾
手足
浜町
海防
背鰭
謹慎
##がえる
ふしぎ
よしお
馴染み
##istry
ウィレム
テアトル
マルセル
書き込み
チューリップ
##チュエーション
ロマンティック
鉾
##raw
ヴラ
上村
描画
朝夕
美咲
退く
道教
とらえ
アクロ
浄瑠璃
種子島
親しい
##aurus
ホテルズ
聞こえる
hello
ハーモニー
トリニダード
hydroxy
ky
アワ
各県
夢中
女装
字母
月面
水没
竹原
純一
艦橋
証人
身柄
##lete
##ough
ref
おうじ
ルック
ウィリー
コロンボ
パノラマ
ジャッキー
マッサージ
##sa
滴
逐
##ela
保ち
内山
困窮
奥山
子葉
小澤
平屋
玄武
要人
軍部
邪魔
降着
高梁
dim
ケトン
テッド
住まい
dest
アムール
付き合い
引き取ら
##チェンツァ
バプテスト
european
一味
仲裁
休校
内面
名阪
御嶽
正宗
物事
石高
見守
頸部
願う
飲ま
まばら
シーズ
post
test
yosh
よしひろ
ハウンド
ホールド
ロバーツ
##アルデヒド
オルレアン
フォーカス
モーメント
concacaf
internet
礫
賈
##投げ
ギヨ
ルビ
何故
加須
匿名
古城
台所
座っ
水和
測る
発送
自筆
農作
##well
キャバ
建てる
捉える
プラトン
マッカー
ローリー
チャレンジャー
##グモ
##レコ
##eee
ダビ
例え
定量
手動
数量
整っ
松代
片桐
特製
贈る
野川
隔離
##ウォン
とどめ
サプリ
チエン
メキシ
開ける
スリップ
ワイヤー
デポルティーボ
肛
##遊び
不快
不死
台帳
外装
小僧
成就
断裂
浮気
立派
血中
震源
馳せ
アンジ
ライカ
リンチ
ブータン
ヘリウム
間に合わ
ていりゅう
##だく
##リブ
まゆ
ゴロ
上奏
判例
学舎
干潟
殺到
県令
竹本
給付
興福
##レイラ
タスク
##ルーニャ
カンター
コーネル
パトロール
ボイコット
heaven
シチュエーション
ダルムシュタット
##no
訃
韮
##アナ
ちゅ
つり
カキ
ガロ
ニル
吐き
噛み
政経
比企
清張
立東
進士
bla
みよし
サモア
後押し
##ウィウス
##ランジェ
リカルド
取り立て
立ち並ぶ
•
峻
榮
##かも
##太夫
てっ
ロワ
参列
増す
照準
競い
長け
##ピター
##止める
たまご
フーズ
##ジャック
idol
song
アルティ
インフル
遠ざかっ
ブカレスト
central
prefect
##ía
にゃ
久我
伴星
国交
家名
教派
浮遊
海流
終末
自発
製粉
長沙
黄緑
##ラーオ
##aria
rep
有楽町
##リューム
ロッキー
##菖蒲
gn
エポ
ニシ
委ね
忠臣
祭壇
製剤
訃報
##ラーダ
ふつう
まゆみ
はしもと
オーロラ
ギブソン
ザグレブ
ノートル
トリニティ
ガイドライン
インターフェース
碩
##ヶ浦
##本町
のべ
りえ
イム
タツ
寺内
村人
ウェス
ゲール
karl
はくぶつ
コルドバ
##ディッシュ
##ization
珊
##うり
##カヤ
##bon
##ias
小栗
市中
服飾
盗み
脂質
頼み
##エリー
##テック
アトム
ガボン
手伝っ
レズビアン
隧
##着き
人吉
充填
列せ
対義
序文
成っ
時速
草創
部首
高宗
##かしい
##マイズ
##less
eth
tar
バッジ
高まる
ルーシー
offic
コンバート
バタフライ
インデックス
組み合わせる
かこ
くし
ミッ
全幅
占星
営み
変貌
奇襲
必死
村民
花山
部材
重症
雑草
頻発
##ッポロ
ゲーテ
フレディ
兼ね備え
結びつい
コンサドーレ
profess
攘
##オウ
ドキ
ミノ
散在
日南
火器
荒野
##んじょ
ブーツ
talk
カルボニル
ストーンズ
プレイング
机
##とく
##の間
##アウ
あう
やぎ
スエ
ナラ
ラナ
厳島
可換
天守
島民
落札
誠一
龍一
##トリス
##iday
ジェレ
パラオ
モデナ
捧げる
トランジ
レディー
レプリカ
日替わり
ハーバート
カズ
北大
嗜好
回顧
大海
廃れ
森永
殉教
県外
眠る
行程
貞治
関門
##ータス
pas
おとな
カリー
プリー
授かっ
##ヴィツェ
アンダル
レイソル
立ち入り
クライスト
planet
##ちょ
##芝居
##ely
##utt
僧正
南島
土台
地平
店名
弓道
皐月
純子
義満
聖武
興産
見い
遺品
降し
ほとり
ニホン
ポプラ
間違っ
高千穂
only
コンディ
ディエゴ
ベイカー
franç
サーフィン
##シシ
##レツ
##遣い
ソム
安息
実演
後妻
徳永
渓流
無声
蓮華
蛇行
遺領
酒類
鋼鉄
雅楽
dev
jap
コルネ
ダヴィ
小金井
##キュール
##合わせる
見つから
ポリドール
アレクサンドラ
箏
遙
むし
三崎
付し
内臓
千住
報知
学研
廃さ
悩ん
有能
集客
##ボット
##レアル
プトレ
プレシ
産まれ
kill
スピーチ
メーター
young
アンドレア
マジシャン
orchest
臀
##やさ
丹生
円山
却下
図会
忍び
扶桑
浩一
白書
苦悩
西晋
遊覧
あすか
一人娘
手作り
york
とどまる
ランディ
ルキウス
使い分け
インドシナ
茉
主家
八田
公領
宦官
振っ
改元
由美
赤旗
転生
飯野
驚き
##ッサン
reb
キラー
クロウ
なかじま
##ington
##intosh
generation
##fa
##編曲
人的
信雄
八景
分館
制裁
監事
絵図
衣裳
##なじみ
##ージン
##vern
ムガル
file
オリバー
ブルーム
架け替え
##シュケント
square
##cp
##サウ
##ジエ
##iph
くず
シウ
千手
変則
孔子
宙組
抜く
沙織
没頭
目安
稲沢
貯蓄
##ストク
jfl
おかし
でんき
##ザクセン
##ージング
look
prin
ウィークリー
ストリーミング
ぇ
弧
賓
##isc
初段
初級
助教
吉見
場外
嵐山
攘夷
##シッド
##ストア
##レオネ
マッケ
大晦日
1750
mess
おもしろ
みちのく
スペシャ
ファミ通
##ダクション
ダイエット
リヒテンシュタイン
濾
乾隆
客席
従わ
直進
秦野
過疎
隧道
##ツェル
##ファク
##ヘラン
レヴィ
作り出す
##ference
カウンセラー
択
痴
閔
休職
口座
宝島
戦果
散見
母語
疫病
登米
薬科
覆い
鋭く
関脇
##マルク
nav
レーク
しちょう
アダムス
メソッド
アウトドア
アレクセイ
惠
##col
アケ
シク
上毛
停戦
地本
多忙
小幡
日用
講じ
難い
##イッチ
##カード
##チョフ
##ネード
##レーゼ
エッチ
カーク
ジャス
ベント
ポータ
観世音
カリスマ
ギヨーム
ナシオナル
##ニューギニア
##je
摺
##にし
##ハリ
##ピラ
あく
いせ
かる
亘理
伸長
例祭
増減
大破
既知
機内
洪武
浪士
癒し
絶大
西脇
##キャラ
##ジェン
もらえ
ソープ
##ロフスク
テイスト
##ルツァーノ
スクリプト
プラネット
ノックアウト
ルリ
妥当
島村
書評
欠損
渡河
片倉
穂積
空い
起伏
##チザン
##チスラ
dyn
マング
リンネ
喫する
日の出
cafe
lost
あとがき
モービル
カスタマイズ
ジェニファー
パートナーズ
##ムラ
ip
ふな
俊足
同駅
検閲
次点
渡す
知性
草加
首領
##ムラー
rpm
スパン
バラク
パルプ
ワール
大まか
末っ子
##ippon
ジェシカ
タムボン
infin
グランパス
ブルックス
ポリネシア
ロッキーズ
アレンジャー
勿
##omi
はめ
与那
天領
懸命
指南
探題
欠い
治郎
法規
濃厚
着実
磁石
空位
脚光
自機
藻類
野原
##ントラ
##掛かり
his
みなす
低かっ
card
conn
ieee
トーキー
立ち向かう
##づみ
##淀川
##oka
しい
サッ
別表
対数
政変
教学
東魏
水彩
直行
眠り
石岡
老衰
規律
配当
針葉
須藤
##ates
##ines
アビス
エイズ
オーソ
クーペ
パント
ユーリ
##ヴァール
mult
view
なかがわ
ケミカル
生き延び
nation
挺
閻
##ばい
よら
アヌ
下呂
亘っ
先天
壮大
専科
山鹿
月光
氷見
自力
荻野
越智
電位
##カース
##ヘッド
##ーロフ
縄張り
だいすけ
コウモリ
ロナルド
ビーイング
リエージュ
アントワープ
■
##白河
##ift
イジ
サガ
サメ
サモ
ルル
中里
代金
冷泉
前駆
安い
岡野
平松
廃絶
汲み
笠岡
襲爵
西線
親和
2、3
エクセ
コマン
シュト
ソーダ
ナンバ
富士宮
##ージャー
どうぶつ
マリーナ
##シェヴィキ
プロダクト
トランジット
ポワ
定価
小節
潜伏
潮流
美貌
螺旋
覆っ
親密
鍛え
bab
エクリ
押さえ
gran
かいどう
もうける
メキシカン
エスパニョーラ
苛
##ーバ
##読み
にじ
六条
天空
強要
敬愛
殺菌
白黒
目付
##デット
つんく
エマヌ
ポーツ
ミカン
ワイヤ
##プライン
matt
さかもと
ピストン
モルドバ
知り合う
負け越し
ブロンクス
レオポルド
レジェンド
korail
φ
アゴ
ボナ
人衆
伴わ
儒教
年号
恨み
料亭
標記
沈殿
油絵
清国
立石
貧乏
貸出
##ブラジ
##anth
いちご
ひさし
エッグ
伝わり
けんいち
エディタ
ハリソン
ラウンジ
スパイダー
プランニング
в
佃
漕
##巨摩
##rad
かあ
はこ
ハピ
三星
佐原
分立
初夏
前哨
巻い
建材
強大
探る
桜島
片手
重役
開創
sak
まさか
クリン
ノルト
walk
ブランク
サバイバル
##こま
##中央
万暦
両用
写し
別院
励ん
居る
廊下
武夫
漂流
無双
画質
都留
lud
ラーン
宇喜多
いじょう
はじまる
はせがわ
ペイント
マシーン
打ち込み
parad
コンパイラ
コンプリート
パーフェクト
ヴェルサイユ
##さし
っこ
一世
下宿
崩落
着い
稼ぎ
芝浦
買取
跳躍
##ハール
bud
##チューム
##トレヒト
data
セルラー
タイタン
リベリア
生き残り
##キャスター
スウィート
取り入れる
##ボリューション
complete
餓
##助け
内地
刑罰
在り
巨匠
帝室
戦犯
染料
比売
紀勢
襲う
ale
equ
サティ
ランズ
インテリ
ケヴィン
クラスメイト
窃
覗
のん
みく
三千
大徳
新北
新見
昆布
東都
欠く
氷上
沈黙
焼く
真庭
自覚
inn
pia
かしわ
並べる
桃太郎
総当り
##チェンコ
shin
アッシュ
ロレーヌ
追い詰め
アンドロメ
prefectural
姶
搾
翰
##atv
##par
ちよ
みそ
クエ
ネガ
ラバ
学歴
晶系
校尉
致命
身代
須田
サイコ
届ける
diam
オンエア
ユトレヒト
カンタベリー
##んぼ
手稲
現す
賜り
##ニーク
##ングス
コロナ
##フォルト
いしょう
ダイハツ
五所川原
##コンドリア
##サルバドル
クルーザー
macintosh
communication
##タキ
##バシ
##ces
南洋
叫び
対生
対等
属さ
強固
弾性
施す
権勢
永楽
石神
禅宗
笛吹
第一
聴衆
転覆
重鎮
靖国
ren
ごとう
カヴァ
プロポ
中南部
曲がり
ジヒドロ
ジメチル
バーバラ
盛り込ん
ローザンヌ
ディレクション
トレードマーク
##igo
ボラ
ラル
三津
千曲
手帳
持節
散逸
林檎
柳原
浦上
渡邊
道内
雅之
コーカ
ティモ
ピスト
ロッシ
full
とらわれ
インフルエン
コスチューム
プトレマイオス
インディアナポリス
##yo
哈
耀
協和
吸着
寿永
山車
斡旋
笠原
那智
##ネズミ
エチル
サバン
ニコル
ムード
曲がっ
##ビション
##aceae
たいよう
エーカー
##ティックス
ヴァルター
number
ミトコンドリア
姑
蛭
##差し
##isa
ゴス
先鋒
共役
名東
小品
水口
細野
終止
総集
草野
迷い
送付
遺児
##テレス
nov
オバマ
ハガキ
プラチ
アイコン
ウィッチ
カーディ
revolution
##まん
##ノ島
##会津
ゴア
功臣
塔頭
外縁
建康
懸賞
抗日
西岡
酵母
雄一
うえだ
インペ
ゲット
サラエ
トリエ
##ノサウルス
シエラレオネ
パプアニューギニア
茹
證
きか
ざん
オニ
主審
仏語
余生
幅跳
御堂
戸山
採算
操る
文体
生業
誅殺
誌名
誌面
軌跡
金森
銀色
隣り
黄河
##serv
かいぎ
ふそう
オクタ
テリア
下北沢
賑わい
##iment
fern
いたずら
ピレネー
ジュピター
チャーチル
グラフィティ
ボルツァーノ
ジェファーソン
business
##én
鰓
##れど
べっ
デフ
慶大
洗濯
精華
藤崎
購買
重度
陣地
高騰
##ジョー
##ネスク
ガウス
賑わっ
cult
少なから
見つかり
ウォーレン
ギャンブル
ロッキード
アライアンス
ウェリントン
喘
曇
##盛り
ze
ぬい
ドク
ポテ
堂宇
大軍
弾く
桜木
泣い
筑摩
蒲池
送迎
##モドキ
ちひろ
ヘンド
hein
クレイジー
嘔
##万里
gi
ケロ
サロ
リレ
俊一
倉田
優遇
昌平
本初
湿っ
米原
領民
bye
あかり
ハプロ
大井川
パドヴァ
レックス
受け継ぎ
スピリット
チェスター
##cr
##bow
##for
ウド
勇敢
敷い
敷き
歯車
温室
瑠璃
行司
軍備
##icle
カーボ
ステー
下がっ
##グレード
cate
よみうり
柔らかく
フィットネス
premium
##ザロ
##大成
ウオ
丹沢
会期
作出
信義
大月
奈美
弾劾
旭町
本場
気流
派出
玉野
転籍
きこう
ホルヘ
マグニ
中之島
富士川
美智子
阿賀野
集大成
メイソン
アーネスト
ストライク
ドルトムント
ナショナルズ
ノートルダム
ランドマーク
##zo
##ão
##クー
ゲラ
乱歩
健在
傷害
右腕
始末
小町
暫く
正親
福神
羅南
蘇州
蹴り
集成
雇い
馬鹿
##ハンド
##wood
グリン
ステラ
ヘルム
ヴィリ
伊万里
##ament
インテグ
ウズベク
タンカー
ニンゲン
ボツワナ
取りやめ
development
##dc
與
##ばれ
##コメ
##ロジ
##交ぜ
##eck
うげ
サケ
下痢
世宗
八坂
加担
古市
字形
左腕
末日
植栽
簡体
綾子
スペル
取り締
大田原
しんぶん
メンデル
突き出し
place
yellow
ストライカー
##vo
緻
##がね
##メリ
でる
アノ
ガマ
モダ
上北
与野
刺さ
姶良
慣用
断ら
発給
統率
美浜
行田
語尾
ごとく
オリン
マッコ
こうへい
プロット
マーベル
プラチナム
コンスタンティノ
狛
蒔
顆
##ピエ
sy
キジ
ピサ
ベレ
マレ
リポ
副葬
大仙
山水
巨乳
打線
本属
検知
相川
真剣
真由
緻密
群落
自費
邦彦
閣議
bri
プレジ
ランチ
##レンスク
イデアル
ジェシー
取り出し
エキストラ
##dy
##на
м
芙
蕃
##死に
える
ちび
レミ
下川
俊介
変革
斬首
木の
武芸
毒殺
疲れ
直角
財界
返す
離宮
頭痛
##らかみ
##ラータ
oxy
くらし
ふじた
グリセ
京セラ
クラクフ
サッポロ
スプリン
スパイカー
ダーウィン
パルチザン
頒
##さみ
##バム
##戻さ
中条
争議
低速
元親
初見
和製
大腿
媒介
従姉
日下
桐蔭
死傷
界面
英治
開城
##ほどき
づける
fair
まっすぐ
カラカス
フェンス
ファイアー
入れ替わる
ニーダーザクセン
##34
薪
イク
一杯
仕官
匂い
擬人
日成
紋別
足首
転位
迷宮
連発
魔界
##チーノ
##ヨルド
viv
よかっ
サンバ
ジャル
ペダル
ヴェー
打ち破
##ーナッツ
スタイン
トゥルー
迎え入れ
サヴォイア
ウェストミンスター
##した
##osp
##ove
うき
ふけ
一応
公道
創り
変調
失速
安く
幻冬
深度
謳わ
題さ
##マイト
あきこ
セシル
廿日市
##ities
かわむら
たちまち
ファント
times
methyl
パイプライン
america
デヒドロゲナーゼ
揶
##ヘビ
休載
南郷
品目
宋代
次兄
社民
臭い
解き
車輛
pur
どうし
ギルド
ミシュ
行ける
##ウイルス
むらかみ
ブルトン
テオドール
チームメート
machine
呑
##ize
あそ
つお
カオ
ニス
別個
司徒
廃嫡
心霊
戸数
本村
独創
くるみ
クララ
デスク
ウエイト
クレイグ
見かける
##ヴェルニュ
アルベール
ヴィレッジ
source
マルグリット
ディストリビューション
倹
冶
ハバ
土手
好投
書誌
欠番
江田
篆刻
紫綬
阿佐
##ヴャト
##ante
おろし
割り振
cons
幼なじみ
##コラ
##バサ
##暮れ
ひい
まろ
ヘス
両名
型番
強風
戸惑
提訴
散布
本選
沈み
流布
琴平
発砲
真夏
重き
開府
トレド
##んじょう
poly
オーギュ
テュルク
ミネラル
ジュネーブ
education
愉
##べく
##ケ丘
ザー
任用
名家
大帝
宅配
戦役
拾遺
文春
曲げ
無水
田宮
確執
秀で
討っ
遠方
錯誤
降雨
##aker
アマー
治める
準ずる
##ender
しゃべり
##ッディーン
##トゲマインデ
膀
##ネク
カド
バビ
中務
余剰
動乱
命題
強打
矢島
食道
##マリノ
##esco
あらた
ライヒ
勝ち進
等しく
cand
なるべく
アニソン
タイムス
立ち寄っ
アデレード
エレクトロニック
迄
##cha
サカ
ペラ
向井
巡視
慰安
救世
柳家
祝福
谷間
野上
風貌
##ギング
##デリー
##立てる
シャク
##ステイン
ときめき
手ほどき
peace
ザムトゲマインデ
嗅
##セミ
##加茂
ケガ
受理
各話
合気
宣下
常用
擬似
新座
空冷
議定
退化
エレキ
ズボン
利根川
重んじ
##ビリティ
edge
レディオ
織り交ぜ
げきじょう
コントローラ
##ゾー
##boy
ウメ
中谷
印西
強み
揶揄
新車
東横
狙わ
生む
申告
直撃
能美
荏原
軽便
隆信
電視
食感
##タバタ
##ッサム
psy
ごろう
ともさ
イトー
リッツ
南魚沼
グラナダ
リターン
聞き入れ
ハイランド
##けんたいかい
狸
##ペリ
##茨城
##ago
ll
久美
創世
建安
忠雄
文句
正雄
混声
直近
義昭
興国
隠棲
##ディエ
トンボ
ペルセ
ライズ
広まり
木津川
イージー
ウラジオ
ブランコ
モンロー
ジョイント
ヌーヴェル
ファンタスティック
陀
dd
li
かっ
タナ
乳酸
云わ
八角
兼用
劉邦
動的
坂道
川柳
投降
文徳
水運
浦添
現像
等々
膀胱
野望
鯖江
##デック
めざし
応える
挙がっ
素早く
苦しめ
アルディ
テヘラン
ノービス
パラレル
ボルネオ
ミンスク
一人息子
クリエイト
ジュリエット
ζ
虜
おれ
係員
大政
大路
子守
寺山
小岩
往時
所定
拓郎
排泄
水門
濃縮
烏山
着せ
神官
花鳥
装束
過度
##ップス
テンプ
乗り物
##ゴメリー
やりとり
オクター
フランセ
レナード
取り付ける
問い合わせ
switch
オペレーション
ライフスタイル
##ét
##キリ
##ピリ
##her
##umb
iv
りか
ルシ
不破
今夜
名城
学館
宍戸
応力
獄中
着く
管楽
裁定
##込める
##rict
となり
キャロ
ハール
ヒッチ
プリマ
マッハ
背負っ
ジャスト
トムソン
引き揚げ
steph
シンフォニー
ジャスティン
饗
##スプ
コケ
孫権
彼方
挟む
断続
暗く
正成
水洗
特選
空調
糸満
自重
落差
落馬
逆襲
首謀
##ショナ
なじみ
エレン
キープ
ケネス
スコー
セバス
バスト
パーム
ピンチ
レンダ
外れる
連ねる
##ダクター
貸し出し
チルドレン
artist
ファイナンス
##大寺
クチ
ニワ
内乱
坂出
復し
正門
画廊
発券
神体
神武
行え
閏年
##マリー
##cept
ern
nak
ナッツ
ヒカル
ブラシ
ホック
##ヴァーズ
なおかつ
order
organ
アイザック
エドワーズ
シェパード
スモレンスク
スペシャリスト
咎
ko
すな
丸み
副将
合資
土師
学務
挫折
故人
群生
通説
鶏肉
##ジャヤ
##リアー
もじっ
アスタ
アブル
ペナル
エミリー
カンソー
ナミビア
ホプキンス
double
±
藁
髭
##加え
##aca
od
乗換
九重
地検
憩い
旬報
木原
清盛
秒間
走ら
追走
里山
ven
シュワ
フクロ
ポンテ
ラムズ
リベロ
明日香
東北東
留まら
那珂川
##フォーン
sand
アストラ
クライス
トレンド
ドタバタ
ロッカー
ヴェーダ
piece
vocal
ロマーニャ
生まれ育っ
##sl
##ск
錐
##ヘム
のし
みほ
やけ
クサ
ノベ
パピ
佐用
包ん
比丘
毘沙
沢山
理系
甚大
続投
腹面
震度
黒石
##ラーノ
she
あずま
メンズ
モータ
取扱い
殺し屋
hill
なぞらえ
シュタット
ロジャース
change
championships
##ハト
##rib
丁寧
代え
六郷
当代
応神
東照
皆無
総管
見物
記入
音域
##われる
##ブルー
##ライス
イチゴ
##フリート
シャフト
ローランド
bridge
social
natural
碓
##ぐん
##強く
2)
スス
ナシ
丸く
前々
副賞
境港
市会
康夫
新館
正治
版権
砲架
素顔
追討
速力
銃弾
##ラルン
##cher
オメガ
カイル
ベンダー
stone
スプリングス
インフルエンザ
スポルティング
##,7
##,8
絢
苻
##町村
##oli
ie
あな
コノ
中和
即座
懇談
捕鯨
断熱
河畔
熱血
片道
綜合
羽状
貝殻
賜る
高根
6,7
7,8
kam
lic
ort
アセン
スレイ
チロル
広める
##ルターン
やまざき
ジョーク
##ティエンヌ
##iction
エクリプス
エンブレム
econom
エスペラント
フィルハーモ
singles
フェルナンデス
##--
罵
##als
つや
サナ
ハシ
仙石
保た
全高
手軽
拠っ
略記
益州
鎮西
電解
gab
ins
つづけ
のぼり
タモリ
東松山
生き物
##astic
いちかわ
アフマド
ワトソン
##ソーシアム
##ミネーション
醜
陛
##ュア
##ユキ
##win
がり
ぎり
シメ
スン
ハネ
ポツ
全力
動揺
原典
名産
安西
彫ら
本気
桃子
渡船
焼か
特進
直隷
魅了
##まとめ
som
スバル
バルバ
出囃子
官公庁
聞かさ
飛ばし
##ニュエル
センチュ
巻き込ん
マラーター
エリザベート
##ks
舵
頌
##ゆり
##ird
##ria
きい
くっ
中米
古馬
小柳
尽き
手本
木綿
水利
沈め
海辺
浸食
税金
脆弱
返却
おおく
きくち
ケニー
デベロ
乃木坂
気付い
##ウィッチ
prom
タイトー
取り込ま
birth
シュレース
シンプソン
airport
##コレ
##ビィ
##残し
##決め
##離れ
パブ
中級
南緯
完売
小宮
当面
散文
早速
注入
直江
竪穴
義雄
臣下
造っ
##パニー
##ヴァス
##aris
##ocol
meg
ゃかい
アコー
スキャ
覚える
dark
ブロンズ
デフォルト
タシュケント
ナッシュビル
フライブルク
レジスタンス
シュレースヴィヒ
##彼杵
下地
八女
前輪
南条
取次
居合
左足
明帝
曳航
無実
由布
窃盗
縮合
肉眼
詩作
鉛筆
顔料
魔物
##ジアン
##ランタ
amb
連なっ
shib
アングル
ヤンキー
じょうやく
サンマリノ
パラシュート
パートナーシップ
##uz
##ヒロ
##eff
劇画
勧業
反戦
各年
居館
強硬
接点
求人
香織
##ビデオ
##ingd
ポリエ
##レーベル
##abeth
ジョエル
ダンカン
テノール
持ち帰っ
##ラルンプール
"|-||||||||
##ée
嬰
##たえ
##らせ
京葉
失調
征討
心得
情景
木津
模擬
長瀬
##ボーイ
##ルーエ
リフレ
ルソン
手助け
格上げ
あらわす
けんこう
タマネギ
バチカン
##チュアート
round
クアラルンプール
靱
##敷き
ig
ばあ
学内
抗原
清流
用掛
磐城
豚肉
雑種
魚介
##チェフ
北北東
架かっ
##ハンメル
flower
トランジスタ
control
スケーティング
妾
讒
##ヶ島
はと
バハ
ロビ
三ツ
免官
寝台
常滑
成体
掘っ
桃井
決闘
港南
真正
真琴
船内
血球
醸し
須恵
オキソ
フラー
大河内
色合い
phys
やさしい
start
アントラーズ
アンドロメダ
##秋田
az
とめ
まく
チロ
ロザ
二子
嘔吐
待命
棲息
浅田
災い
燃費
物性
##iful
exc
ロコモ
ヴォロ
折りた
真面目
街並み
龍之介
オカルト
カストロ
シャーシ
python
カウンセリング
寓
舷
##オフ
##ネコ
##抜い
##紀子
80
wa
おろ
全滅
哲夫
封建
残酷
署長
良子
赦免
門院
音程
##ディブ
##ニャン
##mond
えひめ
やろう
イデオ
ウイン
ザック
セレブ
デモン
ペレス
降りる
話し合い
スラッシュ
フォルクス
##クレンブルク
family
ディスカバリー
##90
##ić
メチ
中庭
書画
本営
氏子
烏丸
無毛
縁組
義弟
虹彩
重厚
##クトリ
さおり
さぬき
らせん
##スケープ
たいてい
チャーチ
ラジカル
キングダム
コラムニスト
チャールストン
緋
##リフ
##留め
千田
口語
団子
太一
官邸
害虫
昇降
柑橘
球磨
県南
眼科
秀夫
豊山
郡司
##出そう
mik
のぞみ
テレサ
マース
ミック
mond
アローズ
ストラト
ワンセグ
union
糧
##ブイ
##nes
とろ
スノ
マコ
マゼ
体高
営ま
教訓
旗手
皇位
義政
##シュカ
##ジョウ
にゅう
アルコ
アヴィ
ヒョウ
east
グリップ
ゴスペル
シャトー
タイペイ
プラネタ
持ちかけ
組み込ん
賊
##ワラ
##uto
あざ
っと
ポト
一元
享禄
入替
厚み
国見
扶持
時宗
月山
格安
牛久
発声
鞍馬
頼ん
高輪
##ましく
##ブロー
こうき
たけだ
産する
##ズベリー
pict
ますます
やまなし
ガレージ
スレッド
ロールス
着ぐるみ
カールスルーエ
疏
霍
##漬け
##uku
サド
三池
安積
岡谷
感性
樹高
症例
知見
砂川
素朴
賛美
酒場
風間
##ッソー
##リスム
##レンセ
すばる
ソナー
種付け
##ジェント
flow
チャペル
ワースト
ファイヤー
##ブラジレイロ
稙
羨
##ヴス
##歩き
##鳥羽
##val
カッ
一瞬
仙人
出奔
創元
変態
妥協
宮地
杉原
雅子
難所
頒布
##キョウ
##テクノ
##ライヒ
")』
eco
けれど
ケイ素
バディ
小野田
建ち並
チェイス
フロート
ゼミナール
ブリスベン
スチュアート
リレハンメル
ロチェスター
antonio
ハプログループ
θ
##ダビ
##人組
##imo
ay
フョ
リピ
ルミ
作法
冠位
出札
南麓
博之
国東
外出
島崎
泉南
港北
皮質
突厥
窪田
線内
義仲
胎児
陛下
鬼怒
acc
vel
アイズ
ジーク
毘沙門
シノニム
ヨコハマ
##スタジアム
ボリシェヴィキ
袴
訛
##がな
##チド
##里子
##uce
トシ
事績
会戦
姓氏
対艦
帯同
投合
東雲
校庭
綺麗
茂雄
街頭
進駐
量販
##オーン
##トロン
##フティ
##ペクト
##down
gam
区切り
資する
beat
ゆうすけ
シューズ
ゾフィー
キャメロン
ココナッツ
ベルナール
##イングランド
andrew
パフォーマー
コモンウェルス
シェフィールド
涅
臥
蕨
##のき
##イカ
##aku
ルド
三村
二見
処さ
削り
地殻
外食
大円
大安
山北
弱体
往年
本城
本舗
残骸
沢村
治癒
異国
美保
義貞
菖蒲
隠す
##んどん
##フィカ
##iger
aer
クルト
コンド
ダイオ
パラマ
代わら
##ンターレ
flor
あたかも
マンモス
metac
fantas
category
忙
頚
##フタ
##ラジ
##レレ
##辛子
キセ
マチ
ヤコ
九郎
別種
包み
吉永
宣帝
射水
将監
彷彿
恩賜
挙動
握手
混ざ
経学
誠実
配流
配送
##シウス
##ブレー
##衛門尉
deb
スヴェ
リオン
努める
味わい
文理科
##スコープ
##ドーレス
##メラーゼ
##ische
code
leon
まさゆき
アグネス
ジェイク
左衛門尉
フェノール
南アルプス
拼
槽
潘
葡
蔭
##張る
cf
一変
大間
小城
帝都
当校
校訂
生れ
産休
腕前
要約
雲仙
##ガーズ
ドルフ
ピュア
唐辛子
悪かっ
手書き
掛かる
眺める
##カレッジ
##ダーソン
スパーズ
デーモン
ファラオ
ブレスト
ヘーゲル
plant
scott
legend
コンソーシアム
メクレンブルク
喚
謁
豹
##ゼフ
ドウ
パレ
兵装
具材
初旬
塩酸
大隈
太祖
弱点
振ら
改番
根茎
桜川
民兵
清洲
湖畔
湯治
焼津
田上
終端
装丁
計器
詳述
込み
鉄製
##セイド
##ieve
サザエ
lond
than
うちゅう
メイヤー
front
アイドリング
ヴュルツブルク
ニューイングランド
##57
##hl
斧
##佐野
##細亜
じっ
ハエ
伏せ
困っ
坂下
多気
奉還
山駅
岩屋
武生
水温
献身
裏手
銃身
鱗片
じかん
サング
ドーン
ミヒャ
レンタ
亜細亜
真理子
2006
ドミニク
ドミトリー
アンダルシア
スーパーマン
district
original
ェ
##サノ
ダナ
前翅
将兵
建部
恭子
方伯
楽長
油脂
泉州
漢訳
芸者
藤山
被わ
遊女
遺骸
野郎
##anda
ベティ
ボルボ
マラガ
##ガーデン
plat
できごと
カラフル
グランデ
ニンニク
プーチン
ボールド
取り消し
組み込み
コンラート
ピーナッツ
ニューポート
ムーブメント
abematv
♡
煕
輿
##ァー
##ヒン
##越す
##uit
んく
博す
取組
叩く
安山
暴風
栗林
男鹿
義元
義光
義教
輪島
配管
##セージ
##ニュス
kal
みかん
支払っ
高円宮
##ノーブル
かんしゃ
アイダホ
グリッド
コネクタ
ジングル
スピッツ
パウエル
##ヴィンスキー
orchestra
##gi
##rc
兗
冪
穿
##ずり
##佐久
##oni
あこ
にわ
アネ
オノ
ラオ
ロバ
佐田
入港
同棲
外資
岩場
採点
毒物
法要
粘り
肛門
課さ
雷撃
駅長
##カルロ
アレイ
##レコード
ダイヤル
マインツ
リテール
##ディヴィジ
オマージュ
レコーダー
ウェディング
##ヶ瀬
##peg
##uth
##ves
ずみ
ぜろ
リナ
再録
刺繍
叩い
小津
抗菌
旧式
渋沢
濡れ
理化
累積
親鸞
触角
迷惑
達郎
陸海
騎馬
高名
##セプト
##ドゥー
かわし
めざま
やっと
エーリ
オラン
ジブリ
##ダービー
##field
ピープル
ブレイド
ボルシア
持ち回り
シャーマン
チェンバロ
フロンターレ
エルサルバドル
堡
##くみ
かど
ツキ
唱歌
大聖
山根
本屋
獨協
田野
覚悟
豪商
##ごとく
##エルタ
##リーア
おこし
こおり
アドミ
オスト
ギフト
バイン
バハマ
ベンゾ
速やか
デンソー
ヌクレオ
推し進め
##ウェルペン
アルバータ
チェチェン
ファシズム
リフォーム
ファイティング
リベルタドーレス
beautiful
淫
琳
##クツ
なま
ピオ
岸壁
工費
帆船
御坊
悟り
是非
白地
起草
跳ね
軍曹
長沢
開封
養蚕
##ラーラ
ray
アクシ
エリカ
シェン
ビザン
ヘラク
##リアヌス
プランク
リーガー
ことごとく
サクソフォーン
祗
##ヘイ
##ミエ
うれ
たこ
全通
凝固
北本
岩出
強姦
手首
歌合
野辺
阻ま
風船
##ジュー
アリオ
オルド
マグマ
須賀川
##ハイマー
ともども
タイラー
バンクス
##ession
smile
セレモニー
スクランブル
ドラッグストア
##アク
オナ
ソリ
三日
休戦
堂々
少弐
川本
巣鴨
平沢
幼獣
度会
恩恵
母港
短命
絞っ
継室
討つ
語句
賭博
逗子
##ガール
##チュン
##ニアス
エカテ
二の丸
クレヨン
ケーニヒ
ピッコロ
プライド
入れ替わり
カーボベルデ
アリストテレス
ウラジオストク
ハートフォード
アントウェルペン
##ハク
##ムリ
せり
とよ
まか
リキ
両院
主筆
主観
介石
保留
天白
就学
書写
歩む
殴り
江崎
物価
省長
絶頂
肥沃
通達
鉄橋
鹿沼
##セリエ
ながい
ひみつ
オタワ
ダルマ
ピエロ
フッ素
下げる
力強い
向ける
扮する
##ident
case
アクティ
グルーヴ
押し出し
audio
france
ヨークシャー
姚
##布志
##ket
下請
亜美
刺客
双対
戸川
画集
私設
累進
英二
趣向
降雪
隆一
面々
高遠
##シズム
bul
nex
グルコ
タリン
バラン
志布志
きしょう
ディアス
エイリアン
engineering
к
馨
##抜か
##ili
eb
ちい
スィ
ソノ
ポエ
及第
合致
器用
場内
後発
教導
特長
真澄
着信
誤認
銀山
##ピスト
##ローブ
mun
sac
アラム
エイチ
カブト
クリム
気づき
turn
パレット
週替わり
##プラシッド
クラスター
ヴィッセル
舒
##すら
##ぶれ
##ん坊
##サシ
##ズン
##津子
##苗代
##rot
べえ
ハズ
一端
動態
原野
失明
少々
書士
町人
続出
食器
高弟
bot
おうし
しまね
ネクタ
』(""
シャドウ
touch
組み合わさ
エキシビション
瞑
##セリ
##ソリ
##ネラ
##狩り
##wig
ごん
久松
写っ
右足
名張
城塞
恒久
東レ
福澤
細か
豪雪
防火
##トバゴ
lor
づらい
ムニシ
ローゼ
市町村
深かっ
##シャール
##unter
ダイアナ
ディオン
取り決め
払い下げ
ポーツマス
キングストン
ミリメートル
蒐
##葛飾
三川
修飾
切ら
北線
家綱
幸夫
幸運
揮発
操車
整合
東条
正樹
牛込
男系
知立
自刃
開示
##ヴォー
gon
ウール
チャオ
マトリ
##inger
マリオン
追い込ん
カルテット
トレーラー
プラネタリウム
##mas
均等
復古
朝刊
温水
狂気
県北
臼歯
##ゥーン
##ジュン
##ッチョ
##alth
三日月
スヴャト
ヴァレン
取り込み
マンドリン
apache
コネクション
オーヴェルニュ
##84
##ツバ
げつ
三橋
人家
国技
大金
宇陀
戦わ
煙草
長篇
院中
高森
##ando
##arch
##form
すみれ
ケイン
フラグ
メット
寄せる
猪苗代
金田一
##allen
##ovich
シャシー
スーペル
バラバラ
ベネット
ファルコン
ダイアモンド
ライティング
ジェネレーション
鉤
##デレ
##aph
py
主管
主著
定額
布袋
栗田
洋風
眠っ
砂岩
脱獄
臨界
英樹
薬草
##ターノ
##lish
すぐれ
ボウイ
##anced
##annel
fram
セザール
マーカス
だいひょう
エスパーニャ
##ич
冤
##eld
こな
つめ
シム
タヒ
ネギ
レグ
偽造
元日
兵火
唐朝
拘置
略語
盗ん
祥伝
節足
銃器
##ネーズ
##ピアン
try
wik
すすむ
##ティーヌ
cher
かかわっ
かわぐち
引き渡し
ブロッカー
盛り上がり
ウォーキング
グルノーブル
耽
##勝宝
こぎ
エベ
不服
令嬢
作製
囲い
外郭
安八
実母
射影
山武
弘道
松野
段位
江藤
無量
芸妓
蔚山
訪日
跨る
魚沼
##ザクラ
ara
まさる
パスタ
ミント
ヴォイ
引き続
おこない
ギミック
天平勝宝
セグメント
レディング
ホイットニー
ラインラント
hydroxyl
##ゴフ
##荼羅
##fly
かぎ
づき
ひび
了承
光る
名主
地誌
寛平
対角
心中
志士
拼音
氏神
結節
虚偽
託し
音符
鹿野
いただ
ほんだ
コリア
シオン
ディル
ブレア
ボギー
仲良く
平仮名
aven
取り壊し
受け継ぐ
フェンダー
ランドスケープ
christoph
麿
##タニ
##ペア
##近江
##sdf
あゆ
うわ
おる
くつ
ぽん
ニカ
ラテ
合議
同音
坪井
堅実
校訓
界隈
表れ
課金
led
アシル
ルディ
可愛い
小野寺
高松宮
deut
みなもと
やむなく
カイザー
カステル
カーテン
セビリア
リモコン
生まれ変
請け負っ
person
##uv
叉
掾
聾
##モナ
##向け
##府県
##釣り
両軍
拓也
直筆
簡潔
見聞
追分
音羽
##サント
##レンデ
ped
とうか
ブリヂ
ヘイズ
ヴィア
曼荼羅
##ニャック
##リヤード
##ethyl
ciel
たたかい
シュレー
stars
under
ジェレミー
ヴェローナ
ブリヂストン
british
レークプラシッド
##ín
##エロ
##ガネ
##付く
ut
ドナ
千本
同職
大湊
宜野
家計
情緒
新島
極度
発火
秘め
移譲
立像
義久
蒐集
長嶋
驚か
鮎川
##ソーム
##ツィン
カリフ
シーア
ノーズ
ポリュ
乏しく
閉じる
##クラテス
##ティーニ
govern
バレンタイン
ニュースキャスター
##、『
##ピス
##ポタ
##伏せ
はか
もじ
ピコ
人目
売場
太和
巣穴
矢先
短絡
見当
通産
野崎
##バンク
のむら
グリム
スラブ
ソード
うんどう
フェルミ
##カンパニー
secur
short
ストレージ
ハイライト
フィジカル
クライスラー
涌
##ゴサ
セム
ヌル
ポラ
井筒
保元
八丈
同胞
同館
大杉
太白
山寺
極性
次数
江陵
海王
滅び
秀次
美浦
農政
##elli
""(
exp
fla
つない
ふじい
下がる
命じる
赤ん坊
##ッテナム
##フォール
カルメン
キャビン
見下ろす
マイスター
##ッティンガム
forever
アイデンティティ
ふら
オッ
チル
七夕
久し
住し
切除
各界
密輸
寒川
救わ
有償
王莽
石塚
花柄
茹で
重宝
##サーズ
##ロギー
##stal
esp
つとむ
グリル
ポーラ
##ritic
メンタル
##to
輌
鮭
##unk
バオ
ヒゲ
刃物
喜久
学際
小県
廃仏
放流
王寺
生類
直美
範疇
組頭
職名
肝炎
色気
##キョー
##inus
ダーツ
リート
八ヶ岳
アリソン
アルザス
ゴンドラ
##グラフィー
エフェクト
motion
崑
##ガム
いも
エバ
カゼ
ミオ
ロッ
並走
保土
原語
安国
座礁
片面
物故
玲子
球界
空洞
純正
蘆名
車名
連名
雄大
##アビブ
##ティル
app
かすみ
アセト
クルド
載せる
もてなし
エアバス
サブカル
バリトン
フロイド
photo
smith
アヤックス
ミーティング
焚
##テオ
##飾り
イ族
ホラ
大喜
州道
幼生
摂関
旧高
曽祖
独り
礼儀
缶詰
親日
酔っ
野心
高専
##ブラー
なつみ
ヒッツ
リーン
国公立
##ンドラー
##ument
アビスパ
バイロイト
ヴィーナス
セバスチャン
バンダイナムコゲームス
塘
##フン
##続け
##ako
しほ
わざ
マギ
ユカ
各部
土田
水球
異形
親睦
連歌
遊離
##ろしい
##ローネ
ノエル
締めく
##ッシーナ
アブダビ
アルタイ
バースト
ミヒャエル
depart
イデオロギー
─
隴
韶
##ぶさ
##サエ
##デム
主眼
交尾
先手
問答
在京
女学
幸田
星型
有理
欠席
水俣
永野
田尻
監理
臨港
衣笠
貴子
関所
防い
##チーム
##ドゥル
750
fab
アイム
サガン
フラム
ヘルツ
ラバー
片仮名
##ワークス
かわいい
じんぶつ
マリアン
ユーリー
three
オーガスタ
プロバイダ
リッチモンド
##bi
п
蟄
##ハシ
備考
光秀
分派
叙情
変速
外戚
学徒
小人
岸本
広尾
次代
残党
渡邉
磐梯
空想
素敵
経線
茂原
金貨
##キシー
##ッフル
##ティナ
##バイン
sir
ふもと
モニタ
勝ち星
惜しく
##エフシー
prop
ひょんな
ビリヤード
フェンシング
暢
雫
##の素
##ぼれ
##スポ
こえ
ふっ
三成
先着
千家
只見
同賞
好物
木版
東灘
柳井
正午
正夫
民社
洗い
流刑
牧草
異議
英字
郡中
##ルトル
##ヴェリ
rog
sen
いろは
ゴメス
サレル
ダイス
ハバナ
切り替
味の素
横切る
##ッペリン
know
prov
ソヴィエ
モンティ
シャーロック
フライヤーズ
factory
トライアスロン
祓
##あう
##イユ
##rey
だる
セナ
ワカ
住ま
余地
司空
同馬
市名
文雄
織機
貼ら
野洲
閉幕
高値
高安
高須
鳴海
##ヴェツ
hom
ノンタ
フェロ
ミート
付け根
hide
ハイテク
ヴェール
流れ込む
エセックス
トッテナム
ブラインド
##ex
諒
##ぐま
##シロ
##頓堀
##din
きね
乱闘
兵科
原文
図版
大丸
平時
強行
木本
機首
無敵
砲艦
税理
良一
衣類
見沼
課せ
谷地
谷田
豊浦
閉山
限る
##デウス
hok
めざす
アデノ
カーペ
ブート
道頓堀
##エンター
well
たかひろ
スクープ
##コーヴィチ
アナトリア
metacritic
##さわ
##もれ
##わく
##ati
ゼニ
ノバ
ハサ
単数
参勤
摘発
教化
有価
有吉
村岡
横領
江別
流下
湿潤
砂利
縦走
美祢
黒字
kan
くいん
みやま
シヴァ
マルヌ
doll
クイック
モリソン
##メニスタン
##stream
カンタータ
carlos
baseball
麒
##ケ崎
##シコ
##ソト
##宇和
##振り
og
ズー
タレ
剃髪
加重
増備
外洋
大奥
川岸
応召
思春
機甲
深沢
淳一
甲状
脱線
集い
##ひゃく
##urch
ひろき
エレナ
マグロ
ライク
京丹後
東近江
##コンドー
##acter
サイパン
ポツダム
召し出さ
エドウィン
ソーセージ
freder
カーペンター
トルクメニスタン
撲
##カウ
##ョク
##飼い
キレ
メグ
下手
久遠
人情
光武
単勝
反り
境川
夏場
大蛇
太閤
形作
混入
漢代
無期
親指
診察
阪南
##ボンヌ
big
イブン
セーフ
レント
作編曲
ジャッジ
スターン
レベッカ
ジェローム
シュナイダー
princess
##ばっ
##ザメ
##松浦
##apa
-、
ot
デズ
一中
三豊
下村
伊吹
低床
姉弟
小森
局長
抜か
東寺
林野
球面
美香
義和
聖心
聖霊
西京
酒屋
高位
こだま
中曽根
cycl
アルカン
##クスブルク
access
london
orange
インターフェ
巽
渭
##流し
##ror
モテ
優雅
冗談
准将
判官
刻印
幸手
必然
朱雀
珊瑚
盟友
税制
脳内
草食
赤井
門真
##ケース
##テボリ
##itan
hon
ようち
アンス
グラウ
ゴッホ
フーガ
プラー
届け出
左利き
持ち前
##サイアー
##ジャーズ
##atory
イートン
ルージュ
申し立て
##テンブルク
アンハルト
explor
アスレチック
##エンタテインメント
##ān
##コプ
##ハブ
##レド
オポ
ササ
久光
企図
俊夫
刻み
南都
土橋
将門
履行
平穏
成層
文子
暖房
牧畜
相性
胎生
誘発
雅彦
高杉
dor
アマン
カオス
慎太郎
消える
百合子
険しい
##テリウム
##zilla
nadp
アダムズ
振り返っ
エルヴィス
コーカサス
サンチェス
テコンドー
ネーション
ホームレス
ヴァージニア
pacific
ロングアイランド
animation
塀
邵
##あっ
##ogp
cs
ウァ
カノ
チバ
ビエ
マデ
一筋
三百
奥平
山町
残基
静香
鞍上
サンジ
トワイ
鳴らし
yout
ロストフ
games
intel
ぬいぐるみ
ボリューム
perfect
railway
ノッティンガム
擦
##りつ
##バフ
エネ
カカ
コナ
中嶋
別物
司書
多良
女官
座間
戦火
拒ん
楽派
消耗
病変
盗ま
祝賀
精鋭
経る
綴ら
英明
蟄居
裕之
邦訳
kin
かから
さわら
ねずみ
サミー
ヒース
レフト
後鳥羽
スランプ
コースター
砺
詫
##彫り
ぷろ
チカ
五條
京兆
何れ
債券
写実
塩分
外環
悦子
術師
連山
郡制
頑丈
##エーレ
##キンズ
##ンダイ
##ヴィウ
lat
アンズ
ドビュ
ナバラ
バップ
祖父母
##ツェルン
ヨアヒム
モルディブ
motogp
philip
prince
visual
アウクスブルク
##こむ
##ギル
##ゴケ
##継が
##ski
じき
ちと
はね
みす
ホト
メサ
ロコ
乱獲
予め
前原
千石
原価
同寺
嘆願
徳田
文言
水草
溢れ
漂着
熱烈
美郷
親水
都筑
離心
##ソフト
##ビリシ
##ライブ
tam
チドリ
チワン
上回り
大船渡
太宰府
appl
cool
アナザー
アーリー
イーゴリ
クライム
ハッシュ
パスカル
パトロン
フォーレ
ミニチュア
アルカロイド
捨
##ツー
##vis
ヌエ
個数
僕射
天塩
尺八
彼氏
挙行
海道
清華
盲目
穏健
給料
豫州
風車
黒帯
##ゼット
がかり
とおる
シュウ
ヴェロ
作ろう
イケメン
ブレーン
取り囲む
nippon
ツェッペリン
rainbow
ストラヴィンスキー
##ァン
イッ
ミャ
一途
不純
中越
前立
創成
宇土
尖っ
幼体
沖積
渡島
白紙
研二
美樹
茅野
藤島
高柳
##ビーノ
テムル
ハルト
浮かび
##berry
bird
pent
エヴァー
スムーズ
ニックス
逃げ出し
alpha
brown
センチュリー
ドビュッシー
マグニチュード
篭
じり
ミナ
久野
千春
囲ん
惣領
木々
河西
流罪
清正
王后
雨宮
##room
für
pit
インカ
ウジェ
クレス
八幡平
遂げる
ゲレンデ
スリーブ
ピエトロ
立て続け
nadph
スコアラー
フライデー
heinrich
來
##じお
##スツ
##希子
キヨ
ギガ
タサ
先導
商家
因島
変性
峰山
年月
掴み
歓楽
海野
罹患
美山
被覆
過失
鉄板
##レック
saf
ひでき
イザベ
コット
チラシ
喜多方
度合い
##デリック
テンソル
ディナー
取り込ん
オリエント
グレゴリー
セビージャ
ファントム
みなとみらい
ナンバリング
撒
竇
##ゼス
##kin
##una
ré
ナカ
中生
主神
仁王
休場
入館
千尋
嘉吉
天智
定紋
宮澤
工部
抑圧
格式
機長
水冷
瞑想
舞曲
覇権
鮮明
##バーラ
egg
sor
おとめ
ふじみ
みえる
マダム
泉佐野
由美子
迎え撃
paris
シベリウス
shibuya
禹
##蜘蛛
ろっ
シテ
先史
出石
古谷
同門
大膳
平泉
教壇
浪花
目白
石坂
笑う
背甲
船尾
裂け
間奏
(""
pic
ビルド
小川町
尽くす
dram
hold
list
デラウェア
リキュール
archit
ヴァンパイア
anthony
フィードバック
驃
##へん
##ゴイ
##ポネ
##ポロ
##osc
プッ
一群
低層
則っ
北伐
北洋
津川
目線
藤川
銀賞
開院
高畑
##ガード
さなか
たまに
ナイス
美奈子
kenn
レシプロ
引き続い
press
victor
ジュリアード
プランクトン
ヘンダーソン
##ological
##ten
ゅつ
りさ
アモ
モク
一ノ
三宝
木田
玖珠
網膜
肺癌
西表
長じ
鷹司
##ファソ
##ーナツ
##atre
前向き
russ
アゲイン
ショスタ
##ティモール
frame
キャラメル
ニューハン
walter
インダストリア
コンピューティング
†
瑛
腔
髄
##らう
バケ
交雑
制球
勅選
墓石
気道
海里
縦横
美唄
自著
英夫
選者
野砲
門流
雄二
##ネーゼ
fac
ういん
しゅく
ウナギ
ラード
与謝野
##ノヴィチ
##フェスト
##ングラー
サターン
ポリマー
リアーゼ
ハーモニカ
東ティモール
蔦
##ゅー
##シダ
om
きつ
ネロ
ババ
下落
会名
大鳥
山線
恵美
春夏
東和
横井
海産
淳子
潤滑
県会
節子
翻弄
銀貨
##ザレス
てつや
テオド
列する
##ファルト
きょうこ
キャベツ
クビライ
クメール
プレーン
ルーテル
飛び込み
queen
スクリュー
ソヴィエト
バイオリン
コーティング
傀
炸
鯛
##むり
##オイ
##ヤシ
光一
励む
在留
大々
接待
棒線
欠乏
武勇
殊勲
泉北
砺波
絞め
路地
退会
陽気
頭脳
##き出し
##acle
##cast
770
bol
かねこ
さとる
じゃん
できれ
スニー
ブリン
メジロ
右投げ
##ターニー
##gency
ジェニー
ミュラー
リッター
jgsdf
アキテーヌ
コロシアム
アンドレアス
クライミング
selection
ニューハンプシャー
š
瘤
髷
##ノ内
##千谷
たの
イミ
元帝
出先
同枠
土肥
天城
払う
日照
時差
東陽
沸点
私財
西隣
謳っ
軍功
##落とさ
こまつ
マンダ
ラディ
下敷き
##せんしゅ
ガンガン
シェリー
ドロシー
レシーブ
graph
クレメンス
スクーター
プリンター
##がす
##イダ
##洒落
##焼け
##阿弥
えち
たず
伯母
克也
営巣
好奇
宗主
庄司
放電
日進
昼夜
漢書
濱田
焼却
祝祭
竹林
篠田
聴か
花柳
茶室
薬理
譲位
重治
麻美
龍山
##しょん
##ブリャ
いしだ
優しく
##モーター
おかもと
アウェイ
コーエン
サバンナ
ストロング
oxygen
プレシーズン
リフティング
##cs
##pi
鴎
##出せ
ちち
ボカ
一翼
冨田
博報
地場
大脳
川合
弥勒
快勝
折衷
未熟
発芽
臭化
草木
蔓延
赤み
銭湯
驃騎
##awai
つくし
タック
ラモン
富良野
##ラトプス
##リアーノ
rose
アストン
ストロー
ビジター
ピストル
レジオン
hyper
メッシーナ
クロスオーバー
ユーティリティ
赫
迦
饒
##えろ
##まき
##去り
おつ
こみ
ひそ
乱入
公約
創生
各自
向か
新年
焼肉
甲陽
着る
精錬
西高
陽一
鳳凰
##ッカス
##ッセイ
##ッソン
den
sad
sav
sho
コブラ
タヒチ
cmll
tsut
おいしい
ぎじゅつ
こんどう
グラーツ
ディプロ
ナショナ
フィール
ローレル
書き換え
じゅんいち
プログラマー
讀
##カビ
乳房
兵法
冤罪
坐像
天宝
孝子
慶喜
接尾
斎宮
晒さ
稲川
糾弾
羽咋
翔太
血清
裾野
許諾
道長
開国
電離
mix
かわら
なんば
むさし
アルフ
カンポ
クトゥ
タング
備わっ
河原町
##ction
アウディ
サボテン
サンリオ
引き出し
counc
motor
スマッシュ
ミレニアム
戎
站
##放し
##比奈
##相馬
##ttp
人脈
兆銘
協働
同形
吏部
培地
大場
嬉野
小堀
往生
懇願
正中
比し
福永
航続
讒言
陽明
集う
##0000
##icus
サーチ
ジョブ
セレン
宮城野
欠ける
コンスタ
サラゴサ
シリウス
##ロサウルス
ちょうせん
フィヨルド
巻き起こし
impact
唾
蜷
##iga
ふき
ウプ
九鬼
京釜
出国
和銅
天龍
如意
孝明
崇禎
張ら
後輪
敬虔
新地
本草
楽屋
清浄
目の
矢沢
花子
草子
護岸
門跡
香辛
##かかる
##アディ
##ーゼン
mcc
rud
しばた
たけお
北北西
新日鐵
苦しい
阿倍野
##フィンズ
##フォート
##ヴォロド
symph
アナリスト
コンソール
アウトレット
diamond
スコティッシュ
インフォメーション
##ар
##ひら
##植え
ごし
ダフ
トゲ
ハタ
五木
仕置
公館
南風
定例
新婚
日食
時報
浩司
白星
監部
退院
##ナイル
##thur
ath
kom
らしき
スクー
市場町
朝比奈
永平寺
行き詰
##ワーゲン
いりぐち
ウィット
スカンジ
スティル
ultra
ウィリアムス
channel
council
謡
##ダカ
##ミラ
##led
パネ
フク
依願
典礼
有識
本節
生薬
覇者
試し
読本
適性
##ェシュ
##ティフ
##メルン
##atsu
yok
ともこ
アフロ
キッス
ミドリ
波多野
##トランド
##anger
##asure
けいざい
アーマー
スプーン
ブランチ
チャリティ
オーギュスト
テューリンゲン
游
蚊
註
##ノク
##rod
du
のけ
ウチ
ラズ
多度
小鳥
底面
昇る
杵築
法隆
涅槃
潰瘍
白根
直義
素性
組立
苦痛
鳴り
##oper
はなし
みずき
グラブ
ゲッツ
ソート
ユング
大宰府
春風亭
##ジュニア
##athan
かかわり
思い出し
見つかる
引き受ける
action
english
##ぷり
##アブ
##ウエ
##ギョ
##ケラ
##レロ
##塚山
##組ん
つら
めし
オモ
シボ
ペト
不等
京官
代償
入山
公理
山の
巻頭
念頭
接戦
極秘
正木
湧出
集散
難関
鳥山
##コンダ
##ルーズ
##ming
まどか
みのり
らじお
エウリ
シット
ナット
バレル
ポテト
下回る
理化学
##ディーズ
##マイシン
##gress
andr
corn
ビニール
引き連れ
申し入れ
ノベライズ
##ascript
youtuber
architect
屠
禰
##の島
##ナオ
##マガ
##和野
上屋
二千
佐和
同家
大曲
平沼
思惑
懲戒
敦子
絡む
羽黒
谷崎
遣唐
開湯
陵墓
##ッキリ
##トミー
dol
kot
スイカ
トリス
寅次郎
ジプシー
ブレンド
レスリー
ローレン
盛り上げ
インターン
オズボーン
スニーカー
フィーチャリング
桿
##ぽう
##ホイ
ずい
ダリ
ツォ
大高
富永
察知
屈曲
広重
御幸
招致
文系
泳ぐ
父王
船越
誘っ
##キサン
シェー

##の
##、
##。
##に
##る
##ー
##は
##た
##1
##と
##し
##で
##を
##ン
##て
##い
##年
##が
##0
##2
##れ
##(
##)
##な
##ル
##ス
##9
##・
##あ
##か
##ト
##ら
##リ
##さ
##っ
##ア
##イ
##日
##り
##ラ
##a
##も
##す
##3
##月
##e
##ッ
##ク
##こ
##8
##4
##5
##学
##う
##大
##シ
##i
##ま
##ド
##7
##6
##o
##n
##s
##よ
##タ
##本
##r
##「
##」
##フ
##レ
##ロ
##t
##ジ
##カ
##く
##c
##め
##国
##人
##テ
##ィ
##m
##き
##中
##l
##プ
##グ
##ム
##マ
##出
##バ
##デ
##お
##け
##-
##オ
##会
##コ
##そ
##つ
##メ
##一
##や
##後
##ん
##地
##行
##部
##d
##ど
##市
##ュ
##ニ
##作
##『
##』
##名
##サ
##ウ
##チ
##代
##時
##ナ
##わ
##ブ
##ビ
##ャ
##合
##県
##エ
##生
##u
##発
##長
##同
##上
##h
##東
##え
##場
##p
##キ
##社
##ズ
##業
##子
##ち
##用
##高
##道
##b
##立
##だ
##成
##山
##ェ
##パ
##開
##ミ
##者
##g
##所
##手
##家
##事
##ダ
##"
##現
##戦
##f
##在
##校
##間
##k
##み
##ョ
##分
##入
##選
##内
##下
##定
##第
##通
##田
##主
##的
##じ
##動
##設
##川
##目
##以
##前
##ベ
##表
##当
##初
##小
##自
##セ
##.
##位
##教
##画
##ネ
##北
##町
##ツ
##文
##世
##和
##公
##新
##線
##体
##方
##ハ
##せ
##京
##全
##モ
##物
##ば
##ヴ
##化
##区
##身
##島
##ソ
##v
##|
##平
##y
##ガ
##ポ
##記
##務
##び
##元
##多
##野
##最
##ボ
##語
##組
##へ
##関
##ノ
##女
##ピ
##期
##法
##数
##ァ
##:
##海
##回
##西
##番
##式
##連
##駅
##員
##明
##放
##ワ
##送
##活
##機
##理
##演
##品
##置
##,
##ケ
##南
##対
##性
##軍
##都
##治
##州
##車
##号
##w
##勝
##神
##経
##三
##政
##曲
##原
##加
##属
##見
##売
##実
##度
##水
##受
##ホ
##ギ
##民
##等
##任
##優
##楽
##賞
##ず
##院
##ペ
##団
##結
##村
##共
##正
##使
##外
##特
##取
##点
##ほ
##知
##形
##書
##科
##j
##郡
##議
##力
##制
##王
##映
##音
##称
##ォ
##ザ
##界
##面
##指
##天
##ゴ
##際
##来
##ょ
##金
##げ
##録
##ゲ
##有
##得
##近
##口
##建
##約
##集
##二
##参
##次
##流
##移
##役
##工
##続
##進
##持
##付
##始
##域
##運
##産
##研
##重
##能
##路
##ろ
##台
##広
##心
##士
##門
##木
##城
##男
##権
##む
##信
##言
##利
##歌
##気
##究
##昭
##種
##製
##ヒ
##古
##造
##電
##ヤ
##石
##交
##保
##要
##総
##鉄
##義
##計
##基
##岡
##型
##向
##退
##ぶ
##空
##不
##館
##系
##別
##収
##安
##馬
##呼
##々
##術
##営
##官
##意
##変
##改
##存
##局
##終
##府
##編
##決
##卒
##他
##育
##ユ
##死
##技
##太
##園
##師
##相
##屋
##住
##戸
##授
##再
##美
##ひ
##引
##x
##少
##果
##宮
##格
##寺
##福
##解
##字
##側
##様
##統
##松
##転
##登
##ヨ
##構
##べ
##朝
##井
##無
##試
##常
##球
##説
##版
##!
##店
##土
##江
##直
##史
##光
##歳
##競
##管
##題
##督
##伝
##愛
##由
##英
##施
##催
##/
##武
##支
##彼
##命
##調
##橋
##級
##類
##報
##ご
##父
##阪
##載
##降
##隊
##備
##監
##専
##配
##族
##ヘ
##各
##衆
##氏
##郎
##起
##=
##協
##陸
##兵
##継
##色
##料
##葉
##籍
##星
##党
##旧
##藤
##両
##挙
##紀
##先
##半
##ゼ
##万
##味
##状
##応
##領
##親
##話
##z
##崎
##可
##止
##谷
##真
##着
##接
##ゅ
##職
##示
##乗
##商
##去
##創
##就
##株
##修
##周
##及
##河
##予
##芸
##観
##単
##離
##佐
##論
##展
##白
##強
##劇
##頭
##認
##含
##省
##限
##ゆ
##四
##独
##米
##担
##帯
##歴
##問
##査
##ぎ
##良
##津
##打
##判
##室
##ぐ
##食
##考
##衛
##反
##千
##座
##吉
##博
##投
##企
##資
##ね
##派
##列
##港
##従
##十
##落
##残
##委
##情
##花
##異
##将
##導
##藩
##素
##皇
##母
##帝
##達
##与
##条
##走
##過
##験
##般
##医
##規
##供
##司
##更
##青
##装
##風
##助
##船
##影
##末
##提
##済
##刊
##復
##宗
##央
##量
##質
##久
##器
##五
##準
##争
##率
##洋
##ヌ
##八
##切
##徳
##敗
##防
##航
##ふ
##程
##帰
##了
##容
##撃
##境
##守
##伊
##係
##病
##護
##%
##完
##廃
##横
##翌
##夫
##件
##例
##評
##獲
##込
##ゥ
##艦
##渡
##念
##浜
##枚
##個
##築
##奏
##足
##林
##円
##仕
##比
##舞
##誌
##首
##勢
##曜
##御
##害
##沢
##図
##販
##今
##清
##ゃ
##永
##毎
##丁
##速
##興
##農
##客
##奈
##ぞ
##居
##富
##森
##頃
##弟
##声
##積
##態
##〜
##銀
##岩
##辺
##階
##補
##賀
##源
##尾
##標
##象
##街
##攻
##響
##養
##豊
##警
##児
##像
##根
##波
##春
##づ
##留
##確
##躍
##婚
##価
##織
##講
##ぼ
##細
##右
##盤
##思
##差
##推
##漫
##増
##環
##跡
##張
##描
##短
##左
##黒
##週
##火
##述
##泉
##好
##岸
##飛
##追
##庫
##著
##秋
##満
##介
##非
##察
##宝
##陽
##併
##臣
##蔵
##玉
##巻
##模
##植
##群
##宇
##未
##越
##章
##急
##伴
##~
##材
##殺
##財
##端
##赤
##九
##堂
##然
##必
##酸
##祭
##視
##契
##志
##検
##消
##失
##旅
##感
##略
##整
##倉
##断
##華
##令
##告
##温
##聖
##兄
##昇
##薬
##早
##深
##聞
##除
##典
##拠
##幕
##若
##破
##採
##香
##息
##割
##湾
##写
##郷
##ざ
##諸
##秀
##詞
##遺
##課
##停
##延
##盟
##寄
##板
##ヶ
##習
##角
##便
##績
##段
##働
##照
##算
##'
##囲
##低
##複
##極
##俳
##功
##韓
##坂
##舎
##歩
##友
##注
##読
##想
##雄
##鳥
##之
##血
##雑
##副
##庁
##夜
##娘
##布
##援
##振
##兼
##慶
##夏
##甲
##池
##難
##岐
##負
##順
##妻
##換
##徴
##宅
##締
##隣
##至
##絵
##承
##療
##亡
##勤
##里
##没
##浦
##執
##休
##候
##覧
##遠
##ゾ
##鹿
##散
##並
##邦
##処
##静
##望
##闘
##証
##羽
##策
##景
##草
##q
##宿
##忠
##丸
##六
##案
##測
##塚
##弾
##献
##席
##節
##故
##札
##&
##求
##盛
##掲
##沿
##裁
##樹
##突
##因
##祖
##精
##輪
##替
##扱
##超
##密
##労
##筆
##熱
##湖
##抜
##普
##訳
##違
##幅
##頼
##康
##揮
##効
##射
##仏
##紙
##熊
##輸
##誉
##途
##為
##貴
##乱
##徒
##悪
##幼
##瀬
##百
##鮮
##減
##何
##携
##老
##撮
##健
##圧
##革
##液
##脚
##敷
##項
##沖
##竹
##毛
##※
##許
##具
##爵
##弁
##捕
##稲
##詳
##似
##戻
##待
##練
##層
##栄
##閉
##律
##刑
##孫
##均
##返
##砲
##給
##識
##殿
##訪
##枠
##抗
##私
##掛
##七
##阿
##災
##障
##貨
##迎
##漢
##値
##黄
##遊
##宣
##ぜ
##季
##詩
##印
##則
##審
##脱
##郵
##絶
##幸
##塩
##潟
##埼
##圏
##被
##占
##弘
##姓
##紹
##丘
##喜
##伯
##庭
##仁
##房
##談
##寛
##拡
##固
##背
##服
##滅
##善
##軽
##縄
##仙
##恋
##票
##片
##覚
##症
##適
##焼
##舗
##壊
##費
##雲
##辞
##骨
##易
##酒
##貢
##享
##混
##探
##騎
##奥
##惑
##範
##険
##幹
##宙
##姿
##亜
##麻
##恵
##童
##距
##欧
##彦
##搭
##隆
##駐
##唱
##仲
##油
##閣
##魚
##牧
##激
##巡
##暦
##龍
##+
##操
##轄
##買
##誕
##露
##爆
##臨
##納
##縁
##須
##襲
##震
##魔
##傷
##仮
##妹
##緑
##_
##濃
##駆
##阜
##券
##沼
##架
##茶
##憲
##罪
##飾
##冬
##君
##鎮
##塁
##禁
##唯
##折
##招
##願
##倒
##陣
##較
##維
##請
##奪
##哲
##冠
##砂
##聴
##伸
##姉
##那
##余
##逃
##封
##互
##繁
##核
##墳
##秒
##吹
##礎
##幌
##討
##旗
##摩
##益
##霊
##桜
##純
##“
##況
##染
##刻
##逆
##杉
##礼
##浅
##裏
##貞
##免
##筋
##竜
##墓
##肉
##譲
##虫
##茂
##救
##?
##額
##釈
##堀
##鉱
##隠
##智
##軌
##脈
##湯
##矢
##署
##貫
##募
##姫
##歯
##杯
##厚
##奉
##寿
##遣
##犬
##依
##犯
##炭
##融
##覇
##敵
##雪
##鶴
##夢
##怪
##禄
##綱
##触
##尊
##胞
##鈴
##柄
##柳
##笑
##巨
##荒
##翼
##→
##批
##税
##危
##芝
##ぬ
##頂
##叙
##秘
##既
##剤
##暗
##銅
##衣
##丹
##岳
##塾
##儀
##皮
##訴
##吸
##億
##尚
##潜
##還
##絡
##双
##誘
##縮
##壁
##託
##昌
##征
##豪
##括
##欠
##訓
##孝
##嘉
##茨
##鏡
##繰
##狭
##希
##齢
##鎌
##我
##俊
##趣
##飯
##李
##顔
##雨
##唐
##簡
##é
##輝
##勲
##柔
##翻
##即
##枝
##羅
##也
##牛
##婦
##床
##梨
##弦
##侵
##荘
##葬
##刺
##亀
##冷
##陵
##幡
##暮
##飲
##棋
##包
##厳
##押
##滝
##概
##析
##掘
##乳
##緒
##択
##疑
##卵
##贈
##荷
##浮
##銃
##避
##倍
##底
##申
##剣
##才
##困
##殖
##謀
##渋
##挑
##崩
##顧
##鎖
##径
##苦
##僚
##奇
##傾
##撤
##溶
##塔
##己
##澤
##踏
##伏
##附
##艇
##却
##俗
##酵
##筑
##燃
##彩
##裕
##患
##抱
##洞
##梅
##埋
##駒
##稿
##午
##暴
##侯
##峰
##購
##傘
##泰
##陰
##敬
##損
##斎
##穂
##弱
##庄
##僧
##軸
##縦
##序
##–
##紅
##×
##漁
##束
##腹
##否
##払
##菌
##弥
##針
##句
##責
##雅
##眼
##拓
##栃
##遅
##玄
##夕
##炎
##郊
##鑑
##致
##恐
##晴
##恒
##排
##械
##斉
##宰
##菱
##網
##畑
##脳
##充
##劉
##披
##裂
##到
##笠
##呂
##雷
##殊
##微
##氷
##穴
##ぽ
##衝
##顕
##豆
##桃
##磁
##梁
##柱
##芳
##鬼
##如
##該
##賛
##ぱ
##鳴
##紫
##輩
##索
##峠
##垣
##干
##培
##滞
##拝
##彰
##盗
##快
##勇
##]
##毒
##刀
##妙
##削
##[
##看
##旭
##揚
##誤
##菊
##迫
##媛
##菜
##☆
##斜
##答
##窓
##妃
##祀
##飼
##診
##脇
##滋
##浴
##勧
##呉
##珍
##碑
##隔
##潮
##尉
##浄
##巣
##侍
##抑
##沈
##浪
##滑
##踊
##捜
##廷
##卿
##筒
##淡
##后
##尽
##晶
##乾
##蓮
##硬
##曹
##薩
##箱
##祉
##挟
##冊
##栗
##又
##陥
##洗
##腕
##輔
##雇
##誠
##奨
##賢
##譜
##栽
##摂
##仰
##媒
##往
##祥
##謝
##鋼
##晩
##緯
##磨
##肥
##詰
##棄
##薄
##覆
##洲
##泊
##威
##撲
##旬
##糖
##棟
##摘
##逮
##紋
##葛
##徐
##狩
##随
##傍
##糸
##沙
##應
##貸
##陳
##灯
##軒
##耐
##麗
##借
##坊
##祝
##箇
##遂
##;
##獣
##°
##祐
##亭
##遷
##冒
##泳
##彫
##痛
##喫
###
##届
##桂
##咲
##菓
##帳
##吾
##邸
##浩
##蒸
##寧
##謡
##粉
##繋
##茎
##灰
##戒
##渉
##峡
##○
##幾
##曽
##臓
##挿
##添
##敏
##嫡
##蘇
##隻
##擁
##獄
##偵
##瑞
##膜
##柏
##蘭
##褐
##畿
##刷
##薦
##函
##卓
##寒
##銘
##晋
##棒
##ぷ
##甘
##稚
##塗
##渓
##剛
##虎
##朱
##赴
##叔
##朗
##袋
##貧
##垂
##啓
##桐
##恩
##慮
##魏
##塞
##励
##蒲
##促
##透
##湿
##弧
##誇
##符
##崇
##旋
##宏
##嗣
##佳
##徹
##桑
##昼
##耳
##釜
##宋
##貝
##迷
##斐
##騒
##胸
##髪
##召
##菅
##涯
##陶
##猫
##誰
##悲
##禅
##拒
##駿
##麓
##握
##磐
##屯
##錦
##〈
##昆
##堅
##〉
##慣
##辰
##粒
##欲
##柴
##衰
##堤
##准
##熟
##嫌
##頻
##脂
##旨
##乃
##尻
##債
##逐
##嶋
##尼
##―
##遇
##寝
##軟
##隷
##怒
##竣
##償
##國
##伐
##妖
##牡
##抵
##匠
##緊
##拳
##緩
##篠
##秦
##幻
##控
##狙
##肩
##椎
##悩
##偏
##疾
##乙
##貿
##眠
##忍
##努
##噴
##珠
##祈
##賜
##舟
##屈
##庶
##偽
##遭
##銭
##逸
##雀
##C
##紛
##賃
##昔
##碁
##菩
##勅
##抽
##纂
##阻
##鷹
##釣
##堺
##琴
##郭
##篇
##奴
##亮
##淳
##弓
##預
##掃
##稼
##克
##耕
##琉
##狂
##楊
##煙
##á
##溝
##洪
##斗
##旦
##壇
##寮
##鼻
##硫
##尋
##肺
##》
##《
##丈
##倫
##謎
##慈
##憶
##偶
##宜
##盆
##但
##綾
##孤
##а
##癌
##庵
##厩
##懸
##勉
##勃
##嵐
##播
##捨
##辛
##麦
##α
##汚
##僕
##魅
##掌
##罰
##讃
##萩
##澄
##勘
##殻
##洛
##腫
##貯
##鍋
##魂
##翔
##磯
##腸
##ぴ
##戯
##肢
##斑
##倶
##*
##訟
##肝
##幣
##涼
##苗
##辻
##甥
##嫁
##秩
##懐
##繊
##敦
##刈
##慎
##雌
##皆
##孔
##籠
##呈
##桁
##伎
##о
##需
##趙
##>
##諭
##胡
##胤
##蓋
##烈
##猟
##粘
##朽
##衡
##恭
##尿
##學
##猿
##嶺
##浸
##潤
##蛇
##遼
##鼓
##搬
##蜂
##羊
##暖
##暫
##霧
##閲
##諏
##畜
##橘
##跨
##芽
##烏
##謙
##賊
##鋭
##鴨
##夷
##芦
##践
##胴
##炉
##坪
##哉
##【
##】
##鐘
##淵
##樽
##礁
##藍
##燥
##牝
##隅
##岬
##扇
##墜
##腰
##舶
##瓦
##於
##跳
##累
##墨
##ü
##斬
##逝
##湘
##猛
##и
##擢
##揃
##措
##腐
##綿
##諱
##妊
##篤
##泥
##鞭
##寸
##唄
##班
##訂
##<
##鞍
##陀
##〒
##劣
##鳳
##簿
##綴
##槻
##鶏
##尺
##疎
##驚
##悟
##酷
##臼
##靖
##舌
##楼
##鷲
##藝
##枢
##幽
##循
##臭
##曾
##蓄
##燕
##圭
##忘
##★
##í
##邑
##猪
##僅
##膚
##粋
##牟
##壌
##楕
##凍
##匹
##慢
##拘
##虐
##俵
##稀
##膨
##灘
##笹
##虜
##薫
##湧
##鉛
##顎
##誓
##淀
##履
##瞬
##欄
##拍
##虚
##儒
##醸
##崖
##奮
##晃
##邪
##β
##棲
##н
##疫
##股
##巧
##盾
##粧
##粛
##綬
##絞
##卸
##怖
##漠
##穀
##湊
##婿
##廠
##牽
##隈
##е
##丞
##懲
##蕭
##壮
##畠
##雰
##鄭
##楠
##煮
##兆
##脅
##擬
##帆
##捉
##凡
##鍵
##歓
##杵
##詠
##汁
##р
##棚
##扉
##嘱
##ó
##剥
##憧
##揺
##偉
##腺
##蒙
##ā
##胆
##耶
##汽
##窪
##喪
##熙
##迦
##錯
##ö
##膝
##撰
##俣
##鱗
##刃
##慰
##萌
##穏
##焦
##娠
##杜
##是
##悠
##忌
##‐
##涙
##哨
##殆
##傑
##帽
##慕
##樺
##胃
##閥
##蹴
##隋
##勾
##漏
##ヵ
##肖
##茅
##裔
##彗
##栖
##靴
##祇
##豚
##朴
##乏
##笛
##鍛
##廊
##吐
##鋳
##廻
##瓶
##髄
##犠
##с
##酔
##瘍
##帥
##戚
##敢
##ä
##腎
##叩
##條
##韻
##拾
##吏
##窟
##侶
##苑
##剰
##袖
##惨
##廉
##捧
##妨
##泣
##闇
##裸
##в
##ぃ
##朋
##翅
##虹
##釧
##玩
##鰭
##宴
##廣
##暁
##哀
##狼
##凝
##諡
##腔
##聘
##ヂ
##藻
##牲
##褒
##霞
##桓
##尖
##詣
##胎
##酢
##爾
##遡
##塊
##睦
##ぺ
##貌
##魯
##噂
##堆
##紡
##鳩
##к
##頸
##抄
##馴
##惜
##稽
##鐵
##砕
##駄
##槍
##舘
##樋
##黙
##畳
##窒
##汲
##汗
##脊
##獅
##賑
##鴻
##伽
##粟
##呪
##惣
##杏
##吊
##扶
##聡
##糧
##麺
##癒
##畔
##蝶
##尹
##据
##ا
##巳
##唆
##砦
##貼
##俺
##凱
##巴
##箕
##哺
##甚
##悼
##儲
##撫
##揆
##梶
##潔
##亘
##零
##騨
##囚
##枯
##徽
##廟
##唇
##餌
##悦
##縛
##奔
##峯
##渕
##漆
##椅
##漂
##曇
##牙
##串
##漬
##咸
##灌
##濱
##肪
##揖
##寅
##汎
##閏
##稜
##л
##荻
##柿
##痕
##@
##眺
##缶
##泌
##μ
##肌
##紗
##閑
##膳
##餅
##萬
##縫
##翁
##袁
##叶
##楚
##毅
##逢
##憩
##圓
##梱
##賭
##遮
##眞
##爪
##т
##鉢
##瑠
##斯
##諾
##錬
##葵
##董
##頓
##隙
##飽
##蒼
##醍
##醐
##嚢
##葺
##ヲ
##暇
##曰
##梓
##窯
##絹
##碧
##錐
##戴
##醤
##倣
##埴
##−
##盲
##è
##堰
##峨
##把
##粗
##惟
##喉
##窮
##硝
##遍
##骸
##壬
##曳
##遥
##嘆
##凶
##冶
##黎
##渦
##于
##坦
##宛
##苫
##欽
##槽
##淑
##棘
##綻
##嶽
##帖
##剖
##頑
##佑
##棺
##舷
##叫
##卑
##薨
##倭
##枕
##酬
##讐
##輌
##ぁ
##溜
##懇
##庸
##椿
##戊
##潰
##赦
##姻
##珂
##寵
##擦
##皿
##瞳
##壱
##叡
##惹
##謁
##榎
##冨
##憂
##蔭
##飢
##疲
##諫
##壺
##玲
##抹
##禰
##瀧
##迅
##塵
##嬢
##蜜
##萼
##襄
##挫
##嵯
##芥
##婆
##隼
##泡
##濁
##蛍
##租
##遽
##榴
##狗
##暑
##喰
##賠
##蝦
##昧
##殉
##崔
##梗
##櫻
##浙
##扁
##琵
##琶
##昨
##辱
##穫
##狐
##蜀
##鋸
##欺
##寂
##盧
##睡
##噌
##叢
##杭
##璃
##慧
##沸
##拶
##挨
##詐
##嘴
##迂
##喧
##聯
##矛
##填
##巌
##鵜
##奄
##檀
##鯨
##譚
##謳
##溢
##矩
##凌
##祠
##郁
##莫
##叉
##杖
##掴
##團
##輿
##縞
##牌
##惧
##賄
##諮
##紳
##其
##д
##檜
##猶
##š
##ぇ
##匿
##坐
##云
##紺
##櫛
##ヅ
##扮
##м
##孟
##鍾
##禎
##汐
##仔
##麟
##娯
##眉
##癖
##毘
##坑
##ل
##拐
##榊
##甫
##朔
##à
##隕
##諦
##宍
##頁
##姪
##崗
##悔
##·
##挺
##桶
##騰
##柵
##跋
##逓
##庇
##拉
##蔡
##允
##辿
##渠
##或
##炊
##ç
##燈
##雍
##恥
##雛
##鮎
##愚
##γ
##囃
##凸
##喚
##淮
##稔
##า
##祷
##賓
##〔
##煎
##嘩
##〕
##蚕
##漑
##詔
##矯
##屏
##蹄
##宕
##喬
##錫
##矮
##爬
##鬱
##紐
##亨
##升
##肘
##陝
##忙
##殴
##絆
##麿
##δ
##樫
##吟
##}
##濫
##貰
##恨
##—
##翠
##夭
##憑
##{
##乞
##耆
##荊
##雁
##裾
##ī
##匡
##姦
##痺
##ú
##莉
##詮
##峻
##捷
##妥
##諜
##俸
##穆
##〇
##瞭
##嘘
##憎
##只
##厨
##嵩
##賦
##鷺
##蕃
##酪
##♪
##埠
##歪
##堪
##凹
##濠
##邱
##瀋
##薇
##$
##滴
##纏
##謹
##妓
##靭
##按
##麹
##č
##嶼
##捻
##弐
##豫
##吻
##弔
##慌
##ゞ
##馳
##噺
##墾
##溺
##瓜
##蕊
##隘
##鵬
##冥
##壽
##牢
##ร
##孵
##彙
##巫
##玖
##錠
##噛
##渚
##螺
##礫
##閃
##薔
##采
##仇
##曖
##桟
##楯
##嗜
##苞
##у
##蟹
##匂
##踪
##佛
##傅
##姜
##銚
##橙
##醒
##鈍
##霜
##此
##й
##叛
##婁
##嬉
##梵
##址
##殷
##σ
##馮
##罹
##芋
##彭
##繕
##ن
##汰
##喩
##焉
##г
##摺
##鄧
##煉
##蘆
##藪
##\
##彌
##栓
##汝
##ū
##巾
##氾
##襟
##堵
##舵
##ा
##蕉
##蒋
##漸
##齋
##妄
##λ
##糾
##堯
##煕
##苔
##ω
##竪
##梯
##蹊
##蔽
##會
##伺
##某
##粕
##卯
##訛
##榛
##胚
##ぢ
##挽
##п
##●
##鞘
##蛮
##轟
##款
##ø
##伍
##怠
##痴
##筐
##ي
##耗
##邊
##△
##م
##鯉
##璧
##鎧
##ر
##艶
##б
##罷
##鉾
##兎
##疆
##น
##渤
##糞
##妾
##肋
##脩
##腱
##綺
##擲
##爽
##弼
##拷
##聚
##侠
##肯
##∞
##肇
##葦
##鍼
##勒
##裳
##碩
##惚
##曼
##站
##腿
##餓
##實
##楢
##π
##汪
##و
##▲
##韋
##凄
##誅
##ε
##渇
##槌
##畝
##峙
##蔓
##寡
##范
##鼠
##ñ
##砺
##墟
##芹
##堕
##晦
##綜
##丼
##榜
##剃
##蓬
##潭
##柚
##諧
##卜
##衙
##兜
##緻
##旺
##篭
##娶
##芭
##窩
##茜
##я
##遵
##鯖
##傭
##廿
##漱
##鼎
##呑
##蛋
##晒
##魁
##娼
##冀
##槇
##這
##柑
##厄
##蹟
##渾
##妬
##灸
##刹
##窺
##痢
##饉
##脆
##荏
##莱
##憤
##楓
##爺
##毀
##飴
##蔑
##懿
##暢
##皐
##盃
##ч
##頬
##﨑
##鋒
##亥
##ō
##疹
##翰
##庚
##虞
##咽
##珪
##砥
##且
##掾
##欣
##璋
##膠
##髙
##傳
##匈
##髭
##湛
##彷
##怨
##漕
##陪
##昏
##阮
##鑽
##濡
##薛
##篆
##騙
##櫓
##冗
##萱
##沃
##å
##圳
##塘
##र
##綏
##渥
##舜
##逗
##鸞
##琢
##紘
##趾
##罠
##ß
##薙
##蝋
##喋
##瀕
##弊
##芯
##膵
##苅
##偲
##輛
##ć
##咬
##寇
##彬
##嘗
##蕎
##斧
##祢
##搾
##而
##丙
##ž
##机
##ρ
##膏
##琳
##釘
##ο
##廬
##弄
##荼
##駕
##鮫
##哈
##炒
##臥
##嫉
##腋
##遙
##涌
##斡
##竿
##ب
##्
##酎
##疏
##攘
##糠
##愁
##橿
##榮
##煩
##稙
##`
##鹸
##繍
##鴎
##縣
##蔚
##耀
##♥
##曙
##裴
##叱
##侮
##犀
##煽
##瑛
##旛
##姑
##虔
##饅
##豹
##惠
##賈
##穣
##茹
##寓
##謂
##冑
##â
##凛
##蒔
##ł
##冴
##塀
##箚
##猷
##肛
##厥
##獨
##昂
##痩
##窃
##φ
##倹
##藁
##菖
##ã
##喝
##濤
##宦
##韮
##淫
##梢
##濯
##狸
##ν
##珊
##洒
##•
##斥
##椋
##ь
##僑
##與
##壕
##衍
##訃
##塑
##嬰
##來
##拭
##隧
##證
##鰓
##禍
##箏
##甕
##κ
##د
##臀
##茉
##釉
##閔
##甑
##碓
##勿
##濾
##邉
##餡
##ι
##佃
##袴
##■
##凰
##箔
##酉
##閻
##曝
##苛
##薪
##醜
##劾
##泄
##θ
##薗
##賤
##閤
##覗
##靱
##嘔
##姶
##檎
##η
##廓
##祚
##舒
##蛭
##喘
##痘
##嬪
##狛
##ζ
##埔
##τ
##罵
##顆
##撒
##煌
##芙
##咋
##頒
##咎
##屑
##葡
##頌
##饗
##鰐
##揶
##韶
##圀
##媚
##鉤
##奢
##愉
##膀
##憐
##迄
##餐
##嗅
##揄
##瓊
##±
##胱
##瘤
##鯛
##掻
##蕨
##蝕
##ς
##ô
##戎
##祓
##遜
##ง
##′
##絢
##苻
##ы
##陛
##頚
##ั
##畷
##疇
##緋
##邇
##鍬
##堡
##莽
##做
##祗
##遁
##เ
##梧
##讒
##焚
##髷
##岑
##ส
##穿
##馨
##羨
##霍
##兗
##涅
##竈
##拼
##ก
##彿
##з
##瑚
##箸
##鮭
##潘
##饒
##♡
##冪
##圃
##ย
##暉
##衷
##聾
##耽
##姚
##蟄
##洩
##冤
##椒
##宵
##槃
##註
##อ
##瞑
##毫
##皓
##蒐
##祁
##錘
##ぅ
##崑
##碗
##迭
##隴
##雫
##游
##煥
##邵
##禹
##芒
##─
##竺
##靡
##什
##竇
##蚊
##麒
##ม
##渭
##諒
##蜘
##轍
##†
##蓉
##凪
##巽
##垢
##ว
##ิ
##膿
##詫
##漿
##蛛
##赫
##斤
##屠
##蛙
##樟
##蔦
##拙
##璽
##ē
##穎
##鞠
##驃
##ı
##唾
##炸
##脛
##氣
##繭
##轢
##雉
##傀
##讀
##拗
##س
##蜷
##侑
##鹵
##桿
##簾
##ゐ
##糟
##賽
##閩
##ê
##儡
##托
##熾
##裟
##贅
##х
##ี
##瀑
##忽
##樊
##畏
##鶯
##掩
##秤
##贄
##́
##佩
##盈
##萎
##이
##坡
##藏
##ë
##揉
##柊
##筈
##掟
##櫃
##笏
##鞆
##⇒
##汾
##溥
##萄
##蟻
##丑
##倖
##彪
##溪
##輯
##桧
##攣
##枡
##疋
##菰
##ぉ
##俯
##吠
##帛
##糊
##咳
##桔
##禮
##嵌
##怜
##浚
##聰
##僭
##捏
##ت
##琅
##并
##戌
##莢
##錆
##呆
##壷
##拮
##滸
##潁
##禽
##י
##楡
##訊
##籾
##翟
##ş
##抒
##幇
##艤
##套
##痙
##絃
##膣
##荀
##寶
##賂
##^
##丕
##惇
##禿
##蓑
##恕
##狄
##誦
##邯
##兪
##蕪
##硯
##稗
##邨
##ی
##鏑
##椀
##撥
##蕩
##袈
##ˈ
##♂
##煬
##爛
##絨
##菟
##卦
##簒
##麾
##樂
##瑜
##□
##總
##姥
##岱
##檗
##汀
##匝
##塙
##®
##旱
##न
##ヱ
##柘
##當
##耿
##德
##旁
##辣
##逼
##鄴
##慨
##欅
##祟
##疱
##羌
##齊
##ल
##瘡
##紆
##愕
##ท
##澳
##ि
##昴
##桝
##滬
##燻
##蘂
##槙
##歿
##賣
##裡
##魃
##亢
##薮
##嚆
##攀
##燭
##瓢
##ع
##ق
##ゑ
##宥
##泗
##蛹
##ц
##←
##埜
##槐
##æ
##滄
##漣
##唖
##捗
##誼
##貪
##弛
##訶
##ต
##嗚
##悌
##蒜
##戮
##殲
##ゝ
##ة
##凧
##ð
##म
##綸
##ý
##捲
##擾
##疼
##迪
##尤
##袂
##鉉
##邁
##蓼
##厭
##楷
##瑳
##粥
##ə
##χ
##་
##尭
##悉
##珈
##箋
##»
##ล
##ห
##傲
##鎚
##巷
##蒴
##鯱
##ه
##沓
##猥
##諌
##聳
##餃
##睿
##莞
##ح
##臧
##鎬
##匐
##龐
##奎
##鮑
##ш
##晁
##嚇
##翊
##雙
##熹
##茲
##郢
##闍
##戍
##礦
##ù
##穢
##琲
##秉
##咄
##囁
##孚
##崙
##瀞
##禧
##脾
##酋
##霖
##ː
##沂
##稷
##«
